{
  "version": "1.0",
  "truncation": null,
  "padding": null,
  "added_tokens": [
    {
      "id": 0,
      "special": true,
      "content": "</s>",
      "single_word": false,
      "lstrip": false,
      "rstrip": false,
      "normalized": false
    },
    {
      "id": 1,
      "special": true,
      "content": "<unk>",
      "single_word": false,
      "lstrip": false,
      "rstrip": false,
      "normalized": false
    },
    {
      "id": 65000,
      "special": true,
      "content": "<pad>",
      "single_word": false,
      "lstrip": false,
      "rstrip": false,
      "normalized": false
    }
  ],
  "normalizer": null,
  "pre_tokenizer": {
    "type": "Sequence",
    "pretokenizers": [
      {
        "type": "WhitespaceSplit"
      },
      {
        "type": "Metaspace",
        "replacement": "▁",
        "add_prefix_space": true
      }
    ]
  },
  "post_processor": {
    "type": "TemplateProcessing",
    "single": [
      {
        "Sequence": {
          "id": "A",
          "type_id": 0
        }
      },
      {
        "SpecialToken": {
          "id": "</s>",
          "type_id": 0
        }
      }
    ],
    "pair": [
      {
        "Sequence": {
          "id": "A",
          "type_id": 0
        }
      },
      {
        "SpecialToken": {
          "id": "</s>",
          "type_id": 0
        }
      },
      {
        "Sequence": {
          "id": "B",
          "type_id": 0
        }
      },
      {
        "SpecialToken": {
          "id": "</s>",
          "type_id": 0
        }
      }
    ],
    "special_tokens": {
      "</s>": {
        "id": "</s>",
        "ids": [
          0
        ],
        "tokens": [
          "</s>"
        ]
      }
    }
  },
  "decoder": {
    "type": "Metaspace",
    "replacement": "▁",
    "add_prefix_space": true
  },
  "model": {
    "type": "Unigram",
    "unk_id": 2,
    "vocab": [
      [
        "</s>",
        0.0
      ],
      [
        "<unk>",
        0.0
      ],
      [
        ",",
        -3.219982147216797
      ],
      [
        ".",
        -3.2885425090789795
      ],
      [
        "▁de",
        -2.8303639888763428
      ],
      [
        "▁the",
        -2.991680860519409
      ],
      [
        "▁la",
        -3.5090279579162598
      ],
      [
        "▁of",
        -3.4791665077209473
      ],
      [
        "▁a",
        -4.1037797927856445
      ],
      [
        "s",
        -4.264499664306641
      ],
      [
        "▁and",
        -3.7487235069274902
      ],
      [
        "▁y",
        -3.8843042850494385
      ],
      [
        "▁en",
        -3.9189085960388184
      ],
      [
        "▁to",
        -3.8299269676208496
      ],
      [
        "▁el",
        -3.9803805351257324
      ],
      [
        "▁que",
        -3.9963300228118896
      ],
      [
        "▁in",
        -4.133827209472656
      ],
      [
        "▁los",
        -4.3158416748046875
      ],
      [
        "▁las",
        -4.622281551361084
      ],
      [
        "▁del",
        -4.606731414794922
      ],
      [
        "'",
        -4.804521083831787
      ],
      [
        "?",
        -5.342905044555664
      ],
      [
        "▁(",
        -5.375385284423828
      ],
      [
        "▁for",
        -4.812706470489502
      ],
      [
        "▁para",
        -4.92578649520874
      ],
      [
        "▁",
        -4.998102188110352
      ],
      [
        "▁se",
        -4.9316253662109375
      ],
      [
        "▁that",
        -4.857141494750977
      ],
      [
        "▁un",
        -4.972893714904785
      ],
      [
        "▁con",
        -4.992010593414307
      ],
      [
        "-",
        -5.084637641906738
      ],
      [
        "▁is",
        -4.939358234405518
      ],
      [
        "▁-",
        -5.545777320861816
      ],
      [
        "▁I",
        -5.112522602081299
      ],
      [
        ":",
        -5.705151557922363
      ],
      [
        "▁on",
        -5.041044235229492
      ],
      [
        "▁por",
        -5.1290507316589355
      ],
      [
        "▁no",
        -5.257334232330322
      ],
      [
        "▁una",
        -5.182245254516602
      ],
      [
        ")",
        -5.691003799438477
      ],
      [
        "▁you",
        -5.2574286460876465
      ],
      [
        "▁with",
        -5.192314624786377
      ],
      [
        "▁The",
        -5.2231292724609375
      ],
      [
        "▁es",
        -5.397997856140137
      ],
      [
        "▁be",
        -5.351808071136475
      ],
      [
        "▁su",
        -5.442815780639648
      ],
      [
        "▁by",
        -5.453129291534424
      ],
      [
        "▁al",
        -5.570312976837158
      ],
      [
        "▁it",
        -5.523226261138916
      ],
      [
        "▁as",
        -5.570150852203369
      ],
      [
        "▁¿",
        -5.430283069610596
      ],
      [
        ";",
        -6.181194305419922
      ],
      [
        "▁\"",
        -6.26918888092041
      ],
      [
        "▁are",
        -5.602673053741455
      ],
      [
        "▁El",
        -5.820808410644531
      ],
      [
        "!",
        -6.286035060882568
      ],
      [
        "t",
        -5.9422078132629395
      ],
      [
        "▁lo",
        -5.7455315589904785
      ],
      [
        "▁this",
        -5.784689426422119
      ],
      [
        "▁was",
        -5.801760196685791
      ],
      [
        "▁o",
        -5.881166934967041
      ],
      [
        "n",
        -6.0279412269592285
      ],
      [
        "▁or",
        -5.786905288696289
      ],
      [
        "▁from",
        -5.824411392211914
      ],
      [
        "▁not",
        -5.842423915863037
      ],
      [
        "▁have",
        -5.8650312423706055
      ],
      [
        "▁sobre",
        -5.946865081787109
      ],
      [
        "...",
        -6.454880714416504
      ],
      [
        "▁como",
        -5.931401252746582
      ],
      [
        "▁La",
        -5.991961479187012
      ],
      [
        "▁A",
        -6.620699882507324
      ],
      [
        "▁No",
        -6.2018656730651855
      ],
      [
        "▁más",
        -6.0058393478393555
      ],
      [
        "▁at",
        -5.963820457458496
      ],
      [
        "▁me",
        -6.703133583068848
      ],
      [
        "a",
        -6.675316333770752
      ],
      [
        "▁an",
        -6.099984169006348
      ],
      [
        "/",
        -6.7396111488342285
      ],
      [
        "▁En",
        -6.253480911254883
      ],
      [
        "▁will",
        -6.140087127685547
      ],
      [
        "▁which",
        -6.122926712036133
      ],
      [
        "▁all",
        -6.188032627105713
      ],
      [
        "▁has",
        -6.239590167999268
      ],
      [
        "▁your",
        -6.244679927825928
      ],
      [
        "▁sus",
        -6.358919143676758
      ],
      [
        "▁we",
        -6.2776408195495605
      ],
      [
        "▁its",
        -6.27433967590332
      ],
      [
        "▁ha",
        -6.3451247215271
      ],
      [
        "▁can",
        -6.3345046043396
      ],
      [
        "▁In",
        -6.395296573638916
      ],
      [
        "▁their",
        -6.314202308654785
      ],
      [
        "r",
        -6.616060256958008
      ],
      [
        "m",
        -6.611807823181152
      ],
      [
        "ing",
        -6.447174072265625
      ],
      [
        "▁It",
        -6.452106952667236
      ],
      [
        "▁he",
        -6.673933029174805
      ],
      [
        "d",
        -6.757066249847412
      ],
      [
        "o",
        -6.852785587310791
      ],
      [
        "es",
        -6.857809543609619
      ],
      [
        "▁You",
        -6.646720886230469
      ],
      [
        "re",
        -6.764936923980713
      ],
      [
        "▁been",
        -6.5598554611206055
      ],
      [
        "▁they",
        -6.655720233917236
      ],
      [
        ").",
        -7.535430431365967
      ],
      [
        "▁este",
        -6.703840732574463
      ],
      [
        "▁one",
        -6.646664142608643
      ],
      [
        "▁also",
        -6.612664699554443
      ],
      [
        "▁¡",
        -6.512240886688232
      ],
      [
        "▁está",
        -6.643415451049805
      ],
      [
        "▁were",
        -6.654885292053223
      ],
      [
        "e",
        -7.1841864585876465
      ],
      [
        "▁1",
        -7.258858680725098
      ],
      [
        "▁entre",
        -6.757336139678955
      ],
      [
        "▁do",
        -6.7798261642456055
      ],
      [
        "▁other",
        -6.634754657745361
      ],
      [
        "▁had",
        -6.699134349822998
      ],
      [
        "▁more",
        -6.7056884765625
      ],
      [
        "),",
        -7.655791282653809
      ],
      [
        "ed",
        -6.845603942871094
      ],
      [
        "▁his",
        -6.768088340759277
      ],
      [
        "▁out",
        -6.794544219970703
      ],
      [
        "▁but",
        -6.772526264190674
      ],
      [
        "▁si",
        -6.783860206604004
      ],
      [
        "▁son",
        -6.932485103607178
      ],
      [
        "▁We",
        -6.832767963409424
      ],
      [
        "▁my",
        -6.881008625030518
      ],
      [
        "A",
        -7.435017108917236
      ],
      [
        "\"",
        -7.342019081115723
      ],
      [
        "▁United",
        -6.7726569175720215
      ],
      [
        "▁e",
        -7.068960666656494
      ],
      [
        "▁should",
        -6.79632568359375
      ],
      [
        "▁Los",
        -6.935474872589111
      ],
      [
        "▁también",
        -6.905204772949219
      ],
      [
        "▁about",
        -6.873785495758057
      ],
      [
        "▁would",
        -6.827600002288818
      ],
      [
        "▁esta",
        -6.863545894622803
      ],
      [
        "▁General",
        -7.424500942230225
      ],
      [
        "▁ser",
        -6.913637161254883
      ],
      [
        "▁who",
        -6.856438159942627
      ],
      [
        "▁there",
        -6.950359344482422
      ],
      [
        "▁our",
        -6.86244010925293
      ],
      [
        "▁up",
        -6.919032573699951
      ],
      [
        "▁Estados",
        -6.976284980773926
      ],
      [
        "▁This",
        -6.880430698394775
      ],
      [
        "▁“",
        -7.368889331817627
      ],
      [
        "▁2",
        -7.524455547332764
      ],
      [
        "▁'",
        -7.118786334991455
      ],
      [
        "▁so",
        -7.000916004180908
      ],
      [
        "▁3",
        -7.564515113830566
      ],
      [
        "▁Comisión",
        -6.997671604156494
      ],
      [
        "▁what",
        -6.990029335021973
      ],
      [
        "y",
        -7.621870994567871
      ],
      [
        "se",
        -7.133898735046387
      ],
      [
        "▁States",
        -6.923391342163086
      ],
      [
        "▁todos",
        -7.031795501708984
      ],
      [
        "▁mi",
        -6.92007303237915
      ],
      [
        "do",
        -7.066326141357422
      ],
      [
        "▁puede",
        -7.015387535095215
      ],
      [
        "▁time",
        -6.979575157165527
      ],
      [
        "▁han",
        -7.067641258239746
      ],
      [
        "▁He",
        -7.269882678985596
      ],
      [
        "▁know",
        -7.097020149230957
      ],
      [
        "S",
        -7.581616401672363
      ],
      [
        "▁todo",
        -7.012786865234375
      ],
      [
        "▁Se",
        -7.1095805168151855
      ],
      [
        "▁le",
        -7.057633399963379
      ],
      [
        "▁pero",
        -7.032321929931641
      ],
      [
        "▁them",
        -7.121513843536377
      ],
      [
        "▁Naciones",
        -7.135801315307617
      ],
      [
        "▁Unidas",
        -7.144185543060303
      ],
      [
        "▁Committee",
        -7.015923976898193
      ],
      [
        "▁Y",
        -7.07985782623291
      ],
      [
        "▁like",
        -7.12532377243042
      ],
      [
        "▁Nations",
        -7.026965141296387
      ],
      [
        "▁if",
        -7.085601329803467
      ],
      [
        "▁S",
        -7.686118125915527
      ],
      [
        "▁into",
        -7.065433025360107
      ],
      [
        "▁Es",
        -7.0779547691345215
      ],
      [
        "▁te",
        -7.034835338592529
      ],
      [
        "▁such",
        -7.0669426918029785
      ],
      [
        "▁people",
        -7.112922668457031
      ],
      [
        "▁desarrollo",
        -7.210433483123779
      ],
      [
        "▁información",
        -7.213778018951416
      ],
      [
        "▁any",
        -7.115077018737793
      ],
      [
        "▁What",
        -7.252079010009766
      ],
      [
        "▁países",
        -7.21976900100708
      ],
      [
        "▁Consejo",
        -7.213091850280762
      ],
      [
        "▁parte",
        -7.210659027099609
      ],
      [
        "▁And",
        -7.223997116088867
      ],
      [
        "▁right",
        -7.189398765563965
      ],
      [
        "C",
        -7.9034929275512695
      ],
      [
        "▁Council",
        -7.098082065582275
      ],
      [
        "▁así",
        -7.189996719360352
      ],
      [
        "▁Por",
        -7.209015369415283
      ],
      [
        "▁sin",
        -7.289156436920166
      ],
      [
        "’",
        -7.17550802230835
      ],
      [
        "▁new",
        -7.131608009338379
      ],
      [
        "▁Commission",
        -7.09794807434082
      ],
      [
        "▁work",
        -7.137571811676025
      ],
      [
        "da",
        -7.374488830566406
      ],
      [
        "▁contra",
        -7.2754225730896
      ],
      [
        "▁4",
        -7.838987827301025
      ],
      [
        "▁C",
        -7.876339912414551
      ],
      [
        "te",
        -7.446984767913818
      ],
      [
        "▁information",
        -7.162207126617432
      ],
      [
        "▁años",
        -7.280592918395996
      ],
      [
        "▁these",
        -7.194365978240967
      ],
      [
        "▁5",
        -7.860865592956543
      ],
      [
        "▁when",
        -7.225108623504639
      ],
      [
        "▁just",
        -7.301507949829102
      ],
      [
        "ll",
        -7.399011135101318
      ],
      [
        "▁only",
        -7.2180609703063965
      ],
      [
        "▁bien",
        -7.167474269866943
      ],
      [
        "▁tu",
        -7.1971845626831055
      ],
      [
        "▁under",
        -7.19502067565918
      ],
      [
        "mos",
        -7.280039310455322
      ],
      [
        "▁Si",
        -7.263852119445801
      ],
      [
        "▁10",
        -7.86134147644043
      ],
      [
        "▁may",
        -7.202280044555664
      ],
      [
        "▁Las",
        -7.401389122009277
      ],
      [
        "▁him",
        -7.33323335647583
      ],
      [
        "▁cuando",
        -7.284544467926025
      ],
      [
        "▁international",
        -7.206486701965332
      ],
      [
        "▁fue",
        -7.316090106964111
      ],
      [
        "▁De",
        -7.438752174377441
      ],
      [
        "▁her",
        -7.341653347015381
      ],
      [
        "▁derechos",
        -7.365415573120117
      ],
      [
        "▁here",
        -7.369169235229492
      ],
      [
        "▁us",
        -7.2900004386901855
      ],
      [
        "▁shall",
        -7.217638969421387
      ],
      [
        "c",
        -7.834598064422607
      ],
      [
        "▁qué",
        -7.198635101318359
      ],
      [
        "▁dos",
        -7.334747791290283
      ],
      [
        "▁social",
        -7.757770538330078
      ],
      [
        "▁some",
        -7.301233291625977
      ],
      [
        "▁than",
        -7.276162147521973
      ],
      [
        "▁tiene",
        -7.312476634979248
      ],
      [
        "er",
        -7.6053643226623535
      ],
      [
        "▁particular",
        -7.96213436126709
      ],
      [
        "▁muy",
        -7.307310581207275
      ],
      [
        "▁countries",
        -7.2486186027526855
      ],
      [
        "▁those",
        -7.2769856452941895
      ],
      [
        "▁re",
        -8.019926071166992
      ],
      [
        "ve",
        -7.625920295715332
      ],
      [
        "▁don",
        -7.4832444190979
      ],
      [
        "▁artículo",
        -7.382050514221191
      ],
      [
        "▁s",
        -7.472757816314697
      ],
      [
        "▁rights",
        -7.300534248352051
      ],
      [
        "▁E",
        -8.094841957092285
      ],
      [
        "▁made",
        -7.309137344360352
      ],
      [
        "ly",
        -7.4029083251953125
      ],
      [
        "▁personas",
        -7.433487892150879
      ],
      [
        "▁development",
        -7.284087181091309
      ],
      [
        "▁desde",
        -7.420887470245361
      ],
      [
        "▁between",
        -7.310415267944336
      ],
      [
        "▁well",
        -7.346297740936279
      ],
      [
        "▁Comité",
        -7.443065166473389
      ],
      [
        "▁European",
        -7.282129764556885
      ],
      [
        "▁hacer",
        -7.362154960632324
      ],
      [
        "▁vez",
        -7.364392280578613
      ],
      [
        "la",
        -7.5701117515563965
      ],
      [
        "b",
        -7.734618186950684
      ],
      [
        "▁otros",
        -7.451155185699463
      ],
      [
        "▁two",
        -7.361400127410889
      ],
      [
        "á",
        -7.783209800720215
      ],
      [
        "▁need",
        -7.376598358154297
      ],
      [
        "▁B",
        -8.065228462219238
      ],
      [
        "▁ya",
        -7.492037296295166
      ],
      [
        "▁use",
        -7.375222682952881
      ],
      [
        "▁first",
        -7.391468048095703
      ],
      [
        "i",
        -7.933884620666504
      ],
      [
        "▁over",
        -7.420534610748291
      ],
      [
        "▁get",
        -7.497107028961182
      ],
      [
        "▁take",
        -7.414392948150635
      ],
      [
        "▁trabajo",
        -7.463588714599609
      ],
      [
        "▁must",
        -7.398826599121094
      ],
      [
        "ndo",
        -7.527912139892578
      ],
      [
        "▁report",
        -7.371253490447998
      ],
      [
        "Qué",
        -7.30121374130249
      ],
      [
        "lo",
        -7.584421634674072
      ],
      [
        "▁medidas",
        -7.527651309967041
      ],
      [
        "▁through",
        -7.422702789306641
      ],
      [
        "▁now",
        -7.486466407775879
      ],
      [
        "▁tiempo",
        -7.461577892303467
      ],
      [
        "in",
        -7.848419666290283
      ],
      [
        "▁6",
        -8.057276725769043
      ],
      [
        "▁could",
        -7.471012115478516
      ],
      [
        "mente",
        -7.520061492919922
      ],
      [
        "on",
        -7.992688179016113
      ],
      [
        "▁human",
        -7.421726226806641
      ],
      [
        "▁go",
        -7.602126121520996
      ],
      [
        "▁where",
        -7.460125923156738
      ],
      [
        "▁years",
        -7.467469215393066
      ],
      [
        "▁aquí",
        -7.396164894104004
      ],
      [
        "▁general",
        -8.069310188293457
      ],
      [
        "▁período",
        -7.553983211517334
      ],
      [
        "▁miembros",
        -7.576251983642578
      ],
      [
        "▁lugar",
        -7.5554704666137695
      ],
      [
        "▁make",
        -7.49330472946167
      ],
      [
        "de",
        -7.887107849121094
      ],
      [
        "▁P",
        -8.172630310058594
      ],
      [
        "▁hay",
        -7.517629623413086
      ],
      [
        "▁hasta",
        -7.574544429779053
      ],
      [
        "▁State",
        -7.4698166847229
      ],
      [
        "▁cada",
        -7.589645862579346
      ],
      [
        "▁informe",
        -7.591238498687744
      ],
      [
        "▁per",
        -7.748198509216309
      ],
      [
        "▁including",
        -7.487213134765625
      ],
      [
        "▁Estado",
        -7.61137580871582
      ],
      [
        "▁están",
        -7.580253601074219
      ],
      [
        "▁very",
        -7.541102409362793
      ],
      [
        "▁support",
        -7.48232889175415
      ],
      [
        "▁–",
        -8.25822925567627
      ],
      [
        "▁servicios",
        -7.64130163192749
      ],
      [
        "▁durante",
        -7.637264728546143
      ],
      [
        "al",
        -7.993164539337158
      ],
      [
        "▁national",
        -7.498355388641357
      ],
      [
        "▁programa",
        -7.635011672973633
      ],
      [
        "▁18",
        -8.283432006835938
      ],
      [
        "▁todas",
        -7.636895656585693
      ],
      [
        "ó",
        -8.03336238861084
      ],
      [
        "▁15",
        -8.240078926086426
      ],
      [
        "l",
        -7.921143054962158
      ],
      [
        "▁said",
        -7.576960563659668
      ],
      [
        "en",
        -7.932092666625977
      ],
      [
        "▁want",
        -7.6478753089904785
      ],
      [
        "ba",
        -7.755927562713623
      ],
      [
        "▁way",
        -7.588207721710205
      ],
      [
        "▁[",
        -8.167691230773926
      ],
      [
        "▁7",
        -8.246750831604004
      ],
      [
        "▁vida",
        -7.608746528625488
      ],
      [
        "▁against",
        -7.547698497772217
      ],
      [
        "▁But",
        -7.66384744644165
      ],
      [
        "▁see",
        -7.629626750946045
      ],
      [
        "▁most",
        -7.566110134124756
      ],
      [
        "▁That",
        -7.698598384857178
      ],
      [
        "▁forma",
        -7.649179935455322
      ],
      [
        "▁internacional",
        -7.678523540496826
      ],
      [
        "▁eso",
        -7.504454612731934
      ],
      [
        "▁sistema",
        -7.6738786697387695
      ],
      [
        "▁women",
        -7.569252967834473
      ],
      [
        "▁mejor",
        -7.613996982574463
      ],
      [
        "▁era",
        -7.6401143074035645
      ],
      [
        "▁system",
        -7.55376672744751
      ],
      [
        "▁Article",
        -7.508359909057617
      ],
      [
        "▁actividades",
        -7.6893463134765625
      ],
      [
        "no",
        -7.899375915527344
      ],
      [
        "▁If",
        -7.633249282836914
      ],
      [
        "▁children",
        -7.584602355957031
      ],
      [
        "▁20",
        -8.280665397644043
      ],
      [
        "▁Lo",
        -7.599920749664307
      ],
      [
        "▁Con",
        -7.836732864379883
      ],
      [
        "▁—",
        -8.07180404663086
      ],
      [
        "▁nos",
        -7.75195837020874
      ],
      [
        "▁debe",
        -7.679437637329102
      ],
      [
        "▁Al",
        -7.9260172843933105
      ],
      [
        "me",
        -7.8346099853515625
      ],
      [
        "▁esto",
        -7.576650619506836
      ],
      [
        "▁derecho",
        -7.687682628631592
      ],
      [
        "g",
        -8.31242847442627
      ],
      [
        "▁aplicación",
        -7.713789463043213
      ],
      [
        "to",
        -8.420795440673828
      ],
      [
        "▁8",
        -8.290705680847168
      ],
      [
        "▁cuenta",
        -7.686007022857666
      ],
      [
        "▁she",
        -7.708803176879883
      ],
      [
        "▁30",
        -8.322850227355957
      ],
      [
        "▁ese",
        -7.663658142089844
      ],
      [
        "▁12",
        -8.321593284606934
      ],
      [
        "▁world",
        -7.619658946990967
      ],
      [
        "▁Mr",
        -7.63562536239624
      ],
      [
        "▁how",
        -7.681691646575928
      ],
      [
        "\".",
        -8.075156211853027
      ],
      [
        "▁mundo",
        -7.706299304962158
      ],
      [
        "]",
        -8.187127113342285
      ],
      [
        "▁So",
        -7.889512062072754
      ],
      [
        "▁pueden",
        -7.740187644958496
      ],
      [
        "▁fin",
        -7.749231338500977
      ],
      [
        "▁Me",
        -7.772950649261475
      ],
      [
        "▁Member",
        -7.584251403808594
      ],
      [
        "▁otras",
        -7.762600898742676
      ],
      [
        "le",
        -8.01170825958252
      ],
      [
        "▁being",
        -7.668066501617432
      ],
      [
        "▁sido",
        -7.738992214202881
      ],
      [
        "▁sea",
        -7.9408721923828125
      ],
      [
        "▁country",
        -7.656773567199707
      ],
      [
        "▁Pero",
        -7.624833106994629
      ],
      [
        "▁God",
        -7.695252418518066
      ],
      [
        "▁good",
        -7.718581199645996
      ],
      [
        "▁seguridad",
        -7.770814418792725
      ],
      [
        "▁For",
        -7.7195611000061035
      ],
      [
        "▁order",
        -7.645904064178467
      ],
      [
        "▁humanos",
        -7.795834064483643
      ],
      [
        "▁Dios",
        -7.742414474487305
      ],
      [
        "ción",
        -7.865712642669678
      ],
      [
        "▁Sí",
        -7.584609031677246
      ],
      [
        ".\"",
        -8.109803199768066
      ],
      [
        "▁niños",
        -7.790462493896484
      ],
      [
        "▁many",
        -7.687901496887207
      ],
      [
        "▁law",
        -7.6576313972473145
      ],
      [
        "L",
        -8.410481452941895
      ],
      [
        "▁tanto",
        -7.766571521759033
      ],
      [
        "▁había",
        -7.762271404266357
      ],
      [
        "▁did",
        -7.780363082885742
      ],
      [
        "▁...",
        -8.387046813964844
      ],
      [
        "▁país",
        -7.797945022583008
      ],
      [
        "▁number",
        -7.686211109161377
      ],
      [
        "▁Para",
        -7.843489170074463
      ],
      [
        "th",
        -7.9077372550964355
      ],
      [
        "▁mismo",
        -7.766122341156006
      ],
      [
        "▁There",
        -7.782121181488037
      ],
      [
        "▁services",
        -7.704278945922852
      ],
      [
        "▁control",
        -8.392678260803223
      ],
      [
        "2",
        -8.229985237121582
      ],
      [
        "▁think",
        -7.8343377113342285
      ],
      [
        "▁because",
        -7.73977518081665
      ],
      [
        "▁uno",
        -7.806904315948486
      ],
      [
        "▁sólo",
        -7.773292541503906
      ],
      [
        "▁before",
        -7.754379749298096
      ],
      [
        "▁Oh",
        -8.195107460021973
      ],
      [
        "▁gran",
        -7.808429718017578
      ],
      [
        "▁They",
        -7.810160160064697
      ],
      [
        "▁after",
        -7.759021282196045
      ],
      [
        "▁same",
        -7.747759819030762
      ],
      [
        "an",
        -8.277058601379395
      ],
      [
        "▁proyecto",
        -7.8359293937683105
      ],
      [
        "▁O",
        -8.261068344116211
      ],
      [
        "▁él",
        -7.753635883331299
      ],
      [
        "▁life",
        -7.785365581512451
      ],
      [
        "▁hecho",
        -7.783387184143066
      ],
      [
        "▁personal",
        -8.172804832458496
      ],
      [
        "▁measures",
        -7.717495918273926
      ],
      [
        "▁caso",
        -7.82640266418457
      ],
      [
        "▁To",
        -7.87521505355835
      ],
      [
        "I",
        -8.101557731628418
      ],
      [
        "▁día",
        -7.814890384674072
      ],
      [
        "▁resolución",
        -7.871147632598877
      ],
      [
        "▁año",
        -7.869266986846924
      ],
      [
        "▁antes",
        -7.843977451324463
      ],
      [
        "▁sesiones",
        -7.882861614227295
      ],
      [
        "▁part",
        -7.756477355957031
      ],
      [
        "▁sector",
        -8.458516120910645
      ],
      [
        "▁9",
        -8.470486640930176
      ],
      [
        "▁within",
        -7.762636184692383
      ],
      [
        "▁respecto",
        -7.893021583557129
      ],
      [
        "▁ahora",
        -7.79125452041626
      ],
      [
        "▁then",
        -7.9042439460754395
      ],
      [
        "▁D",
        -8.401028633117676
      ],
      [
        "▁total",
        -8.517618179321289
      ],
      [
        "▁yo",
        -7.795404434204102
      ],
      [
        "▁resolution",
        -7.751923561096191
      ],
      [
        "▁back",
        -7.902928352355957
      ],
      [
        "▁activities",
        -7.775810718536377
      ],
      [
        "▁used",
        -7.812123775482178
      ],
      [
        "▁year",
        -7.801853179931641
      ],
      [
        "▁mayor",
        -7.9590582847595215
      ],
      [
        "▁even",
        -7.861030101776123
      ],
      [
        "▁mujeres",
        -7.943472385406494
      ],
      [
        "▁public",
        -7.812256336212158
      ],
      [
        "▁place",
        -7.835657596588135
      ],
      [
        "▁As",
        -7.896552085876465
      ],
      [
        "▁esa",
        -7.8755202293396
      ],
      [
        "▁porque",
        -7.8912577629089355
      ],
      [
        "▁area",
        -7.829226493835449
      ],
      [
        "▁man",
        -8.055627822875977
      ],
      [
        "▁come",
        -7.965768814086914
      ],
      [
        "▁International",
        -7.890233516693115
      ],
      [
        "▁algo",
        -7.804344654083252
      ],
      [
        "▁At",
        -7.999228000640869
      ],
      [
        "▁11",
        -8.538196563720703
      ],
      [
        "▁acuerdo",
        -7.899121284484863
      ],
      [
        "▁best",
        -7.8720855712890625
      ],
      [
        "▁menos",
        -7.933202266693115
      ],
      [
        "▁apoyo",
        -7.982189178466797
      ],
      [
        "▁Sr",
        -7.932499408721924
      ],
      [
        "▁nivel",
        -7.987762451171875
      ],
      [
        "▁implementation",
        -7.854830265045166
      ],
      [
        "▁down",
        -7.938270568847656
      ],
      [
        "or",
        -8.123842239379883
      ],
      [
        "▁during",
        -7.875439643859863
      ],
      [
        "▁recursos",
        -8.000797271728516
      ],
      [
        "▁Convention",
        -7.85303258895874
      ],
      [
        "▁Su",
        -8.059843063354492
      ],
      [
        "▁presente",
        -7.967138290405273
      ],
      [
        "▁got",
        -8.058886528015137
      ],
      [
        "▁hace",
        -7.910646915435791
      ],
      [
        "3",
        -8.485115051269531
      ],
      [
        "▁Un",
        -8.066473960876465
      ],
      [
        "é",
        -8.15384292602539
      ],
      [
        "▁ni",
        -7.971425533294678
      ],
      [
        "▁regional",
        -8.259465217590332
      ],
      [
        "E",
        -8.46198558807373
      ],
      [
        "▁14",
        -8.550065040588379
      ],
      [
        "▁Gobierno",
        -8.009383201599121
      ],
      [
        "▁16",
        -8.599831581115723
      ],
      [
        "B",
        -8.69468879699707
      ],
      [
        "”",
        -8.268686294555664
      ],
      [
        "▁programas",
        -8.034310340881348
      ],
      [
        "▁Government",
        -7.871528148651123
      ],
      [
        "▁plan",
        -8.588356018066406
      ],
      [
        "▁All",
        -8.01220417022705
      ],
      [
        "▁F",
        -8.67041015625
      ],
      [
        "▁relación",
        -8.022798538208008
      ],
      [
        "▁day",
        -7.941280364990234
      ],
      [
        "dos",
        -8.018366813659668
      ],
      [
        "▁without",
        -7.924680233001709
      ],
      [
        "▁después",
        -8.007566452026367
      ],
      [
        "▁datos",
        -8.032761573791504
      ],
      [
        "▁nuevo",
        -7.991795063018799
      ],
      [
        "▁L",
        -8.497063636779785
      ],
      [
        "▁T",
        -8.445328712463379
      ],
      [
        "▁economic",
        -7.903802394866943
      ],
      [
        "▁following",
        -7.907203197479248
      ],
      [
        "▁going",
        -8.066502571105957
      ],
      [
        "▁important",
        -7.927201271057129
      ],
      [
        "ra",
        -8.179671287536621
      ],
      [
        "▁session",
        -7.8970794677734375
      ],
      [
        "▁manera",
        -8.011222839355469
      ],
      [
        "▁situación",
        -8.043014526367188
      ],
      [
        "▁estos",
        -8.050841331481934
      ],
      [
        "▁each",
        -7.947714805603027
      ],
      [
        "▁otra",
        -7.982595443725586
      ],
      [
        "▁local",
        -8.331398963928223
      ],
      [
        "▁Re",
        -8.665945053100586
      ],
      [
        "▁Assembly",
        -7.925899505615234
      ],
      [
        "das",
        -8.064809799194336
      ],
      [
        "▁tres",
        -8.041383743286133
      ],
      [
        "▁otro",
        -8.00363540649414
      ],
      [
        "▁three",
        -7.974982738494873
      ],
      [
        "▁ellos",
        -8.048707962036133
      ],
      [
        "▁nacional",
        -8.077339172363281
      ],
      [
        "▁case",
        -7.967450141906738
      ],
      [
        "▁tipo",
        -8.020145416259766
      ],
      [
        "▁17",
        -8.679838180541992
      ],
      [
        "▁Asamblea",
        -8.076385498046875
      ],
      [
        "▁help",
        -7.999747276306152
      ],
      [
        "▁19",
        -8.715697288513184
      ],
      [
        "▁proceso",
        -8.073426246643066
      ],
      [
        "▁both",
        -7.97310733795166
      ],
      [
        "▁tener",
        -8.020121574401855
      ],
      [
        "▁Este",
        -8.082345962524414
      ],
      [
        "▁New",
        -8.120339393615723
      ],
      [
        "▁process",
        -7.947177886962891
      ],
      [
        "▁donde",
        -8.046093940734863
      ],
      [
        "▁política",
        -8.069844245910645
      ],
      [
        "­",
        -8.6632661819458
      ],
      [
        "▁provide",
        -7.938654899597168
      ],
      [
        "▁tienen",
        -8.067291259765625
      ],
      [
        "ta",
        -8.382304191589355
      ],
      [
        "co",
        -8.52149486541748
      ],
      [
        "▁casa",
        -7.975536346435547
      ],
      [
        "▁non",
        -7.961400508880615
      ],
      [
        "▁usted",
        -8.013201713562012
      ],
      [
        "▁She",
        -8.180845260620117
      ],
      [
        "▁13",
        -8.673158645629883
      ],
      [
        "▁meeting",
        -7.9652838706970215
      ],
      [
        "▁ver",
        -8.047844886779785
      ],
      [
        "▁set",
        -7.972986698150635
      ],
      [
        "▁importante",
        -8.069514274597168
      ],
      [
        "▁Presidente",
        -8.09514045715332
      ],
      [
        "▁level",
        -7.971982955932617
      ],
      [
        "▁say",
        -8.083969116210938
      ],
      [
        "▁base",
        -8.293685913085938
      ],
      [
        "▁número",
        -8.10604190826416
      ],
      [
        "▁b",
        -8.31868839263916
      ],
      [
        "▁own",
        -8.029362678527832
      ],
      [
        "ía",
        -8.209796905517578
      ],
      [
        "▁security",
        -7.9958600997924805
      ],
      [
        "▁does",
        -8.03794002532959
      ],
      [
        "▁G",
        -8.732697486877441
      ],
      [
        "▁Unión",
        -8.112890243530273
      ],
      [
        "▁cualquier",
        -8.113982200622559
      ],
      [
        "▁nuestro",
        -8.090505599975586
      ],
      [
        "▁Social",
        -8.558952331542969
      ],
      [
        "com",
        -8.873944282531738
      ],
      [
        "▁25",
        -8.74263858795166
      ],
      [
        "▁tan",
        -8.056565284729004
      ],
      [
        "ar",
        -8.492578506469727
      ],
      [
        "▁organizaciones",
        -8.143584251403809
      ],
      [
        "No",
        -8.052677154541016
      ],
      [
        "▁24",
        -8.686647415161133
      ],
      [
        "▁health",
        -8.024307250976562
      ],
      [
        "▁provided",
        -8.02181625366211
      ],
      [
        "▁productos",
        -8.164316177368164
      ],
      [
        "▁mucho",
        -8.042200088500977
      ],
      [
        "▁Esta",
        -8.126445770263672
      ],
      [
        "Y",
        -8.269105911254883
      ],
      [
        "▁Sin",
        -8.204782485961914
      ],
      [
        "▁M",
        -8.608072280883789
      ],
      [
        "▁programme",
        -8.00566577911377
      ],
      [
        "General",
        -8.026225090026855
      ],
      [
        "▁much",
        -8.103859901428223
      ],
      [
        "▁p",
        -8.50142765045166
      ],
      [
        "▁different",
        -8.052139282226562
      ],
      [
        "k",
        -8.74390697479248
      ],
      [
        "▁How",
        -8.18235969543457
      ],
      [
        "▁policy",
        -8.041704177856445
      ],
      [
        "▁embargo",
        -8.220609664916992
      ],
      [
        "▁real",
        -8.530956268310547
      ],
      [
        "▁cooperación",
        -8.17087459564209
      ],
      [
        "▁medio",
        -8.15731430053711
      ],
      [
        "▁protección",
        -8.18682861328125
      ],
      [
        "▁favor",
        -8.14103889465332
      ],
      [
        "▁high",
        -8.067962646484375
      ],
      [
        "▁Well",
        -8.27573299407959
      ],
      [
        "▁legal",
        -8.243450164794922
      ],
      [
        "▁Te",
        -8.170769691467285
      ],
      [
        "▁Union",
        -8.040741920471191
      ],
      [
        "▁financial",
        -8.044062614440918
      ],
      [
        "▁ensure",
        -8.03963851928711
      ],
      [
        "ron",
        -8.259521484375
      ],
      [
        "▁Grupo",
        -8.193474769592285
      ],
      [
        "▁cooperation",
        -8.053359031677246
      ],
      [
        "▁long",
        -8.126544952392578
      ],
      [
        "▁Secretary",
        -8.06396484375
      ],
      [
        "el",
        -8.566547393798828
      ],
      [
        "D",
        -8.720685958862305
      ],
      [
        "▁still",
        -8.140161514282227
      ],
      [
        "▁period",
        -8.046677589416504
      ],
      [
        "na",
        -8.58060073852539
      ],
      [
        "▁decir",
        -8.091917991638184
      ],
      [
        "▁Le",
        -8.425686836242676
      ],
      [
        "▁taken",
        -8.078978538513184
      ],
      [
        "▁toda",
        -8.153319358825684
      ],
      [
        "▁Secretario",
        -8.192583084106445
      ],
      [
        "▁internacionales",
        -8.203532218933105
      ],
      [
        "▁condiciones",
        -8.199773788452148
      ],
      [
        "▁President",
        -8.074586868286133
      ],
      [
        "▁available",
        -8.092337608337402
      ],
      [
        "▁días",
        -8.191280364990234
      ],
      [
        "▁solo",
        -8.174306869506836
      ],
      [
        "▁members",
        -8.090156555175781
      ],
      [
        "▁paz",
        -8.190759658813477
      ],
      [
        "▁final",
        -8.705944061279297
      ],
      [
        "▁data",
        -8.128946304321289
      ],
      [
        "▁find",
        -8.14126968383789
      ],
      [
        "▁millones",
        -8.213604927062988
      ],
      [
        "▁ejemplo",
        -8.19475269317627
      ],
      [
        "▁nuestra",
        -8.167855262756348
      ],
      [
        "▁Reglamento",
        -8.187873840332031
      ],
      [
        "▁On",
        -8.144254684448242
      ],
      [
        "▁last",
        -8.156085014343262
      ],
      [
        "▁possible",
        -8.100998878479004
      ],
      [
        "▁nacionales",
        -8.234256744384766
      ],
      [
        "▁end",
        -8.11827278137207
      ],
      [
        "▁Internacional",
        -8.232037544250488
      ],
      [
        "▁posible",
        -8.201374053955078
      ],
      [
        "▁Convención",
        -8.237436294555664
      ],
      [
        "▁civil",
        -8.835657119750977
      ],
      [
        "▁mediante",
        -8.230362892150879
      ],
      [
        "▁Mi",
        -8.315670013427734
      ],
      [
        "▁momento",
        -8.160979270935059
      ],
      [
        "▁Europea",
        -8.2109956741333
      ],
      [
        "▁areas",
        -8.127172470092773
      ],
      [
        "▁give",
        -8.166380882263184
      ],
      [
        "▁c",
        -8.455249786376953
      ],
      [
        "▁Yeah",
        -8.31829833984375
      ],
      [
        "▁free",
        -8.157529830932617
      ],
      [
        "▁resources",
        -8.110590934753418
      ],
      [
        "▁nombre",
        -8.202180862426758
      ],
      [
        "▁estaba",
        -8.131303787231445
      ],
      [
        "is",
        -8.70605182647705
      ],
      [
        "▁further",
        -8.117396354675293
      ],
      [
        "▁República",
        -8.207925796508789
      ],
      [
        "▁31",
        -8.842012405395508
      ],
      [
        "▁Una",
        -8.196015357971191
      ],
      [
        "as",
        -8.703047752380371
      ],
      [
        "▁estas",
        -8.277039527893066
      ],
      [
        "▁Republic",
        -8.067617416381836
      ],
      [
        "▁ella",
        -8.158411979675293
      ],
      [
        "▁asistencia",
        -8.255483627319336
      ],
      [
        "▁Do",
        -8.404247283935547
      ],
      [
        "▁since",
        -8.14537525177002
      ],
      [
        "▁deben",
        -8.26132869720459
      ],
      [
        "▁mujer",
        -8.212189674377441
      ],
      [
        "▁Community",
        -8.128376007080078
      ],
      [
        "▁am",
        -8.336251258850098
      ],
      [
        "\",",
        -8.734199523925781
      ],
      [
        "▁calidad",
        -8.275364875793457
      ],
      [
        "▁political",
        -8.143179893493652
      ],
      [
        "▁les",
        -8.253066062927246
      ],
      [
        "▁siempre",
        -8.202081680297852
      ],
      [
        "▁estar",
        -8.190549850463867
      ],
      [
        "▁cosas",
        -8.192482948303223
      ],
      [
        "▁great",
        -8.202720642089844
      ],
      [
        "▁salud",
        -8.281682014465332
      ],
      [
        "▁_",
        -8.892254829406738
      ],
      [
        "▁access",
        -8.154812812805176
      ],
      [
        "▁U",
        -8.724678039550781
      ],
      [
        "▁too",
        -8.303118705749512
      ],
      [
        "▁«",
        -8.29671859741211
      ],
      [
        "▁while",
        -8.200196266174316
      ],
      [
        "▁estado",
        -8.244328498840332
      ],
      [
        "▁San",
        -8.836074829101562
      ],
      [
        "▁decision",
        -8.13712215423584
      ],
      [
        "▁uso",
        -8.283735275268555
      ],
      [
        "▁online",
        -8.503338813781738
      ],
      [
        "▁21",
        -8.824496269226074
      ],
      [
        "▁II",
        -8.862653732299805
      ],
      [
        "f",
        -8.77450180053711
      ],
      [
        "▁algunos",
        -8.28971004486084
      ],
      [
        "▁view",
        -8.172165870666504
      ],
      [
        "▁Además",
        -8.300863265991211
      ],
      [
        "h",
        -8.75058650970459
      ],
      [
        "ma",
        -8.679399490356445
      ],
      [
        "z",
        -8.8025484085083
      ],
      [
        "án",
        -8.319158554077148
      ],
      [
        "▁DE",
        -8.36049747467041
      ],
      [
        "▁nada",
        -8.131272315979004
      ],
      [
        "▁action",
        -8.166397094726562
      ],
      [
        "▁protection",
        -8.174569129943848
      ],
      [
        "▁party",
        -8.21288013458252
      ],
      [
        "▁Yo",
        -8.21440601348877
      ],
      [
        "▁Rights",
        -8.221658706665039
      ],
      [
        "▁December",
        -8.182706832885742
      ],
      [
        "▁capacidad",
        -8.320053100585938
      ],
      [
        "(",
        -8.826231002807617
      ],
      [
        "▁N",
        -8.786227226257324
      ],
      [
        "▁cuestiones",
        -8.31678295135498
      ],
      [
        "▁working",
        -8.220233917236328
      ],
      [
        "▁education",
        -8.188883781433105
      ],
      [
        "▁párrafo",
        -8.300573348999023
      ],
      [
        "▁necessary",
        -8.181275367736816
      ],
      [
        "▁ex",
        -8.709138870239258
      ],
      [
        "▁Regulation",
        -8.132445335388184
      ],
      [
        "▁nosotros",
        -8.260086059570312
      ],
      [
        "▁marco",
        -8.308732032775879
      ],
      [
        "▁22",
        -8.901213645935059
      ],
      [
        "▁organizations",
        -8.19570255279541
      ],
      [
        "u",
        -8.758447647094727
      ],
      [
        "P",
        -8.804967880249023
      ],
      [
        "▁d",
        -8.70257568359375
      ],
      [
        "▁R",
        -8.76192855834961
      ],
      [
        "▁situation",
        -8.184887886047363
      ],
      [
        "p",
        -8.769351959228516
      ],
      [
        "ciones",
        -8.433852195739746
      ],
      [
        "▁special",
        -8.216286659240723
      ],
      [
        "▁My",
        -8.397214889526367
      ],
      [
        "▁web",
        -8.756302833557129
      ],
      [
        "▁&",
        -8.231034278869629
      ],
      [
        "▁article",
        -8.192171096801758
      ],
      [
        "os",
        -8.674711227416992
      ],
      [
        "▁paragraph",
        -8.17824649810791
      ],
      [
        "▁issues",
        -8.217785835266113
      ],
      [
        "▁conformidad",
        -8.331472396850586
      ],
      [
        "▁va",
        -8.219093322753906
      ],
      [
        "▁efforts",
        -8.224635124206543
      ],
      [
        "x",
        -9.026516914367676
      ],
      [
        "▁acceso",
        -8.354393005371094
      ],
      [
        "▁políticas",
        -8.360147476196289
      ],
      [
        "▁primera",
        -8.316487312316895
      ],
      [
        "▁Security",
        -8.234806060791016
      ],
      [
        "▁diciembre",
        -8.351303100585938
      ],
      [
        "▁sí",
        -8.25013256072998
      ],
      [
        "▁dólares",
        -8.336949348449707
      ],
      [
        "▁every",
        -8.27114486694336
      ],
      [
        "1",
        -8.721771240234375
      ],
      [
        "▁dijo",
        -8.291133880615234
      ],
      [
        "▁V",
        -8.844853401184082
      ],
      [
        "▁among",
        -8.23911190032959
      ],
      [
        "▁será",
        -8.305781364440918
      ],
      [
        "▁Unidos",
        -8.388822555541992
      ],
      [
        "▁atención",
        -8.350569725036621
      ],
      [
        "▁También",
        -8.3607177734375
      ],
      [
        "di",
        -8.738760948181152
      ],
      [
        "▁partes",
        -8.381752014160156
      ],
      [
        "▁casos",
        -8.385750770568848
      ],
      [
        "▁means",
        -8.26249885559082
      ],
      [
        "▁family",
        -8.284601211547852
      ],
      [
        "▁Israel",
        -8.962899208068848
      ],
      [
        "▁K",
        -8.8928804397583
      ],
      [
        "▁business",
        -8.261153221130371
      ],
      [
        "Por",
        -8.168856620788574
      ],
      [
        "▁full",
        -8.266721725463867
      ],
      [
        "O",
        -8.773715019226074
      ],
      [
        "▁training",
        -8.240421295166016
      ],
      [
        "▁something",
        -8.36935806274414
      ],
      [
        "▁service",
        -8.240570068359375
      ],
      [
        "▁cual",
        -8.366569519042969
      ],
      [
        "▁problemas",
        -8.35515308380127
      ],
      [
        "▁ayuda",
        -8.307390213012695
      ],
      [
        "▁materia",
        -8.373481750488281
      ],
      [
        "▁tal",
        -8.319149017333984
      ],
      [
        "▁/",
        -9.08703327178955
      ],
      [
        "▁Seguridad",
        -8.389777183532715
      ],
      [
        "▁0",
        -9.017208099365234
      ],
      [
        "▁car",
        -8.4701509475708
      ],
      [
        "▁hotel",
        -8.97319507598877
      ],
      [
        "▁primer",
        -8.367178916931152
      ],
      [
        "▁Development",
        -8.267520904541016
      ],
      [
        "▁hacia",
        -8.361780166625977
      ],
      [
        "▁pre",
        -9.117844581604004
      ],
      [
        "▁adopted",
        -8.249813079833984
      ],
      [
        "▁regard",
        -8.2334566116333
      ],
      [
        "▁accordance",
        -8.245713233947754
      ],
      [
        "▁products",
        -8.257763862609863
      ],
      [
        "▁market",
        -8.23619556427002
      ],
      [
        "man",
        -9.023680686950684
      ],
      [
        "▁hombre",
        -8.269946098327637
      ],
      [
        "▁Derechos",
        -8.411615371704102
      ],
      [
        "▁cuestión",
        -8.382349967956543
      ],
      [
        "▁present",
        -8.259391784667969
      ],
      [
        "mo",
        -8.753753662109375
      ],
      [
        "▁little",
        -8.384512901306152
      ],
      [
        "▁Group",
        -8.292366027832031
      ],
      [
        "▁grupo",
        -8.380287170410156
      ],
      [
        "▁never",
        -8.390962600708008
      ],
      [
        "The",
        -8.354272842407227
      ],
      [
        "ca",
        -8.69467830657959
      ],
      [
        "▁H",
        -8.871271133422852
      ],
      [
        "▁really",
        -8.404264450073242
      ],
      [
        "▁pro",
        -8.898415565490723
      ],
      [
        "▁esos",
        -8.398212432861328
      ],
      [
        "▁:",
        -9.18515682220459
      ],
      [
        "▁management",
        -8.282876968383789
      ],
      [
        "ro",
        -8.810686111450195
      ],
      [
        "▁assistance",
        -8.27688217163086
      ],
      [
        "▁global",
        -8.664833068847656
      ],
      [
        "▁persona",
        -8.369948387145996
      ],
      [
        "▁draft",
        -8.277246475219727
      ],
      [
        "▁cent",
        -8.356099128723145
      ],
      [
        "▁better",
        -8.354342460632324
      ],
      [
        "▁water",
        -8.303170204162598
      ],
      [
        "▁ante",
        -8.414777755737305
      ],
      [
        "▁group",
        -8.28238296508789
      ],
      [
        "▁28",
        -9.018572807312012
      ],
      [
        "▁punto",
        -8.37448501586914
      ],
      [
        "▁another",
        -8.349197387695312
      ],
      [
        "▁poco",
        -8.302037239074707
      ],
      [
        "ce",
        -8.882643699645996
      ],
      [
        "▁dentro",
        -8.394968032836914
      ],
      [
        "nos",
        -8.446651458740234
      ],
      [
        "▁person",
        -8.318070411682129
      ],
      [
        "▁23",
        -9.005783081054688
      ],
      [
        "▁resultados",
        -8.43528938293457
      ],
      [
        "▁respect",
        -8.281298637390137
      ],
      [
        "▁based",
        -8.313227653503418
      ],
      [
        "▁co",
        -9.10061264038086
      ],
      [
        "the",
        -8.415508270263672
      ],
      [
        "▁persons",
        -8.323620796203613
      ],
      [
        "CE",
        -8.515917778015137
      ],
      [
        "▁decisión",
        -8.416278839111328
      ],
      [
        "que",
        -8.74066162109375
      ],
      [
        "▁Conference",
        -8.28623104095459
      ],
      [
        "▁off",
        -8.443146705627441
      ],
      [
        "+",
        -100
      ],
      [
        "▁Human",
        -8.353191375732422
      ],
      [
        "▁child",
        -8.335110664367676
      ],
      [
        "▁conditions",
        -8.310693740844727
      ],
      [
        "▁When",
        -8.377789497375488
      ],
      [
        "▁sino",
        -8.429725646972656
      ],
      [
        "▁given",
        -8.316943168640137
      ],
      [
        "▁million",
        -8.317641258239746
      ],
      [
        "€",
        -100
      ],
      [
        "▁mercado",
        -8.427521705627441
      ],
      [
        "▁muchos",
        -8.442051887512207
      ],
      [
        "▁community",
        -8.322635650634766
      ],
      [
        "▁held",
        -8.327764511108398
      ],
      [
        "▁Como",
        -8.40295696258545
      ],
      [
        "▁bajo",
        -8.424818992614746
      ],
      [
        "les",
        -8.622385025024414
      ],
      [
        "▁m",
        -9.05472469329834
      ],
      [
        "▁home",
        -8.417978286743164
      ],
      [
        "▁simple",
        -8.94392204284668
      ],
      [
        "▁relevant",
        -8.322952270507812
      ],
      [
        "▁love",
        -8.422608375549316
      ],
      [
        "▁inter",
        -9.020626068115234
      ],
      [
        "▁ciudad",
        -8.459247589111328
      ],
      [
        "▁gonna",
        -8.530667304992676
      ],
      [
        "▁través",
        -8.471403121948242
      ],
      [
        "▁natural",
        -8.80588436126709
      ],
      [
        "▁podría",
        -8.389015197753906
      ],
      [
        "▁point",
        -8.338109016418457
      ],
      [
        "▁Yes",
        -8.536998748779297
      ],
      [
        "▁programmes",
        -8.350380897521973
      ],
      [
        "▁around",
        -8.419073104858398
      ],
      [
        "▁línea",
        -8.483572959899902
      ],
      [
        "▁World",
        -8.451202392578125
      ],
      [
        "▁National",
        -8.436426162719727
      ],
      [
        "▁empresas",
        -8.485040664672852
      ],
      [
        "▁poder",
        -8.456060409545898
      ],
      [
        ");",
        -9.068958282470703
      ],
      [
        "▁agua",
        -8.452818870544434
      ],
      [
        "▁put",
        -8.40186882019043
      ],
      [
        "▁Cuando",
        -8.405777931213379
      ],
      [
        "▁name",
        -8.417146682739258
      ],
      [
        "▁horas",
        -8.473520278930664
      ],
      [
        "▁related",
        -8.367081642150879
      ],
      [
        "▁look",
        -8.454188346862793
      ],
      [
        "▁normas",
        -8.485325813293457
      ],
      [
        "▁50",
        -9.074216842651367
      ],
      [
        "▁second",
        -8.380366325378418
      ],
      [
        "▁account",
        -8.341028213500977
      ],
      [
        "▁increase",
        -8.346529006958008
      ],
      [
        "▁fuera",
        -8.410122871398926
      ],
      [
        "▁change",
        -8.3714017868042
      ],
      [
        "▁%",
        -9.024145126342773
      ],
      [
        "▁especial",
        -8.470532417297363
      ],
      [
        "▁EU",
        -8.405913352966309
      ],
      [
        "ne",
        -8.977622985839844
      ],
      [
        "▁27",
        -9.078071594238281
      ],
      [
        "▁already",
        -8.398496627807617
      ],
      [
        "us",
        -9.031007766723633
      ],
      [
        "▁quality",
        -8.369330406188965
      ],
      [
        "▁again",
        -8.454054832458496
      ],
      [
        "▁gestión",
        -8.500682830810547
      ],
      [
        "▁cómo",
        -8.427290916442871
      ],
      [
        "▁days",
        -8.432303428649902
      ],
      [
        "▁nuestros",
        -8.49232292175293
      ],
      [
        "▁found",
        -8.413215637207031
      ],
      [
        "ers",
        -8.549321174621582
      ],
      [
        "▁cases",
        -8.399782180786133
      ],
      [
        "▁Hotel",
        -9.072273254394531
      ],
      [
        "▁material",
        -9.02269458770752
      ],
      [
        "▁needs",
        -8.438414573669434
      ],
      [
        "▁idea",
        -9.024428367614746
      ],
      [
        "▁sé",
        -8.305456161499023
      ],
      [
        "▁continue",
        -8.36672592163086
      ],
      [
        "EC",
        -8.474495887756348
      ],
      [
        "▁veces",
        -8.471733093261719
      ],
      [
        "▁haber",
        -8.446120262145996
      ],
      [
        "▁Así",
        -8.411825180053711
      ],
      [
        "▁necesario",
        -8.49329662322998
      ],
      [
        "▁tell",
        -8.533476829528809
      ],
      [
        "▁always",
        -8.466764450073242
      ],
      [
        "▁proyectos",
        -8.548537254333496
      ],
      [
        "▁apartado",
        -8.487720489501953
      ],
      [
        "▁Conferencia",
        -8.522613525390625
      ],
      [
        "▁grupos",
        -8.547115325927734
      ],
      [
        "▁26",
        -9.109013557434082
      ],
      [
        "▁i",
        -9.072248458862305
      ],
      [
        "▁servicio",
        -8.518327713012695
      ],
      [
        "▁Ya",
        -8.523015975952148
      ],
      [
        "▁educación",
        -8.536134719848633
      ],
      [
        "▁1.",
        -9.280241966247559
      ],
      [
        "▁basis",
        -8.392454147338867
      ],
      [
        "able",
        -8.727660179138184
      ],
      [
        "K",
        -9.240887641906738
      ],
      [
        "▁disposiciones",
        -8.522477149963379
      ],
      [
        "▁Esto",
        -8.463715553283691
      ],
      [
        "▁May",
        -8.47704792022705
      ],
      [
        "▁nueva",
        -8.515097618103027
      ],
      [
        "▁things",
        -8.49475383758545
      ],
      [
        "▁dice",
        -8.46423625946045
      ],
      [
        "▁investigación",
        -8.539989471435547
      ],
      [
        "un",
        -9.154256820678711
      ],
      [
        "▁peace",
        -8.407443046569824
      ],
      [
        "ban",
        -8.564468383789062
      ],
      [
        "▁siguiente",
        -8.520132064819336
      ],
      [
        "▁parties",
        -8.410408973693848
      ],
      [
        "▁gente",
        -8.438915252685547
      ],
      [
        "▁esas",
        -8.546277046203613
      ],
      [
        "▁Office",
        -8.452722549438477
      ],
      [
        "▁armas",
        -8.53014850616455
      ],
      [
        "▁June",
        -8.421930313110352
      ],
      [
        "▁small",
        -8.441450119018555
      ],
      [
        "▁Europa",
        -8.571078300476074
      ],
      [
        "▁tema",
        -8.538415908813477
      ],
      [
        "▁established",
        -8.421769142150879
      ],
      [
        "▁Tribunal",
        -8.844433784484863
      ],
      [
        "▁future",
        -8.428897857666016
      ],
      [
        "▁problema",
        -8.480892181396484
      ],
      [
        "▁Europe",
        -8.449524879455566
      ],
      [
        "▁estoy",
        -8.363808631896973
      ],
      [
        "▁These",
        -8.439958572387695
      ],
      [
        "▁según",
        -8.564167976379395
      ],
      [
        "▁let",
        -8.547125816345215
      ],
      [
        "▁Desarrollo",
        -8.568968772888184
      ],
      [
        "▁población",
        -8.577103614807129
      ],
      [
        "▁China",
        -9.12664794921875
      ],
      [
        "▁why",
        -8.535396575927734
      ],
      [
        "▁called",
        -8.474132537841797
      ],
      [
        "T",
        -8.987397193908691
      ],
      [
        "▁However",
        -8.43526554107666
      ],
      [
        "▁role",
        -8.422760009765625
      ],
      [
        "▁ti",
        -8.458949089050293
      ],
      [
        "▁objetivos",
        -8.57294750213623
      ],
      [
        "▁care",
        -8.487796783447266
      ],
      [
        "▁fueron",
        -8.576125144958496
      ],
      [
        "▁sociedad",
        -8.574714660644531
      ],
      [
        "▁might",
        -8.490489959716797
      ],
      [
        "▁didn",
        -8.625056266784668
      ],
      [
        "los",
        -8.609757423400879
      ],
      [
        "▁Special",
        -8.45113754272461
      ],
      [
        "▁Why",
        -8.61925983428955
      ],
      [
        "▁objetivo",
        -8.559325218200684
      ],
      [
        "▁together",
        -8.484689712524414
      ],
      [
        "▁haya",
        -8.526755332946777
      ],
      [
        "▁Bueno",
        -8.356182098388672
      ],
      [
        "▁example",
        -8.44799518585205
      ],
      [
        "▁participación",
        -8.583666801452637
      ],
      [
        "▁project",
        -8.445584297180176
      ],
      [
        "▁fact",
        -8.44992446899414
      ],
      [
        "▁ley",
        -8.573945999145508
      ],
      [
        "▁specific",
        -8.443614959716797
      ],
      [
        "up",
        -8.642131805419922
      ],
      [
        "▁junio",
        -8.592090606689453
      ],
      [
        "▁trata",
        -8.566582679748535
      ],
      [
        "▁2.",
        -9.300313949584961
      ],
      [
        "▁With",
        -8.491108894348145
      ],
      [
        "▁developing",
        -8.459664344787598
      ],
      [
        "ga",
        -8.947673797607422
      ],
      [
        "▁acerca",
        -8.55705738067627
      ],
      [
        "F",
        -9.131363868713379
      ],
      [
        "▁appropriate",
        -8.455775260925293
      ],
      [
        "ci",
        -8.996171951293945
      ],
      [
        "▁include",
        -8.451684951782227
      ],
      [
        "▁review",
        -8.466763496398926
      ],
      [
        "▁course",
        -8.511741638183594
      ],
      [
        "▁upon",
        -8.478528022766113
      ],
      [
        "▁crisis",
        -9.189302444458008
      ],
      [
        "▁labor",
        -8.724175453186035
      ],
      [
        "▁mejorar",
        -8.609386444091797
      ],
      [
        "▁doing",
        -8.61620044708252
      ],
      [
        "▁Ha",
        -8.865828514099121
      ],
      [
        "▁necesidad",
        -8.606292724609375
      ],
      [
        "▁staff",
        -8.481782913208008
      ],
      [
        "▁ello",
        -8.63127613067627
      ],
      [
        "▁groups",
        -8.4970703125
      ],
      [
        "▁29",
        -9.202157974243164
      ],
      [
        "▁authorities",
        -8.468238830566406
      ],
      [
        "▁mean",
        -8.613409996032715
      ],
      [
        "▁ir",
        -8.507999420166016
      ],
      [
        "▁able",
        -8.511154174804688
      ],
      [
        "▁question",
        -8.485227584838867
      ],
      [
        "▁government",
        -8.48554515838623
      ],
      [
        "▁men",
        -8.54293441772461
      ],
      [
        "▁comunidad",
        -8.610184669494629
      ],
      [
        "▁Oficina",
        -8.630663871765137
      ],
      [
        "▁familia",
        -8.575465202331543
      ],
      [
        "▁actual",
        -8.888792037963867
      ],
      [
        "▁away",
        -8.584810256958008
      ],
      [
        "▁nuclear",
        -8.871758460998535
      ],
      [
        "▁trade",
        -8.491659164428711
      ],
      [
        "▁Internet",
        -9.265556335449219
      ],
      [
        "▁examen",
        -8.634866714477539
      ],
      [
        "▁Now",
        -8.626748085021973
      ],
      [
        "▁Don",
        -8.825129508972168
      ],
      [
        "▁mí",
        -8.460139274597168
      ],
      [
        "▁York",
        -9.213846206665039
      ],
      [
        "▁puedo",
        -8.43995189666748
      ],
      [
        "▁provisions",
        -8.50295639038086
      ],
      [
        "▁siguientes",
        -8.651617050170898
      ],
      [
        "▁Programa",
        -8.621064186096191
      ],
      [
        "▁acción",
        -8.63374137878418
      ],
      [
        "•",
        -100
      ],
      [
        "▁An",
        -8.781078338623047
      ],
      [
        "▁autoridades",
        -8.638555526733398
      ],
      [
        "▁certain",
        -8.501727104187012
      ],
      [
        "▁importancia",
        -8.626840591430664
      ],
      [
        "go",
        -9.028783798217773
      ],
      [
        "▁reunión",
        -8.621139526367188
      ],
      [
        "G",
        -9.268343925476074
      ],
      [
        "▁effective",
        -8.50832748413086
      ],
      [
        "▁informes",
        -8.668561935424805
      ],
      [
        "▁cambio",
        -8.613998413085938
      ],
      [
        "▁capital",
        -9.162293434143066
      ],
      [
        "▁call",
        -8.596062660217285
      ],
      [
        "▁principal",
        -8.81906509399414
      ],
      [
        "▁body",
        -8.547741889953613
      ],
      [
        "▁misma",
        -8.599363327026367
      ],
      [
        "▁aún",
        -8.610207557678223
      ],
      [
        "H",
        -9.224000930786133
      ],
      [
        "M",
        -8.985684394836426
      ],
      [
        "▁next",
        -8.571601867675781
      ],
      [
        "▁capacity",
        -8.515090942382812
      ],
      [
        "La",
        -8.72500991821289
      ],
      [
        "▁common",
        -8.51540470123291
      ],
      [
        "▁fecha",
        -8.643594741821289
      ],
      [
        "▁Hey",
        -8.866053581237793
      ],
      [
        "▁July",
        -8.528767585754395
      ],
      [
        "▁Co",
        -9.142624855041504
      ],
      [
        "▁mis",
        -8.735453605651855
      ],
      [
        "▁Your",
        -8.628302574157715
      ],
      [
        "▁necesidades",
        -8.654275894165039
      ],
      [
        "▁concerned",
        -8.516273498535156
      ],
      [
        "▁mientras",
        -8.633910179138184
      ],
      [
        "▁therefore",
        -8.522021293640137
      ],
      [
        "▁hoy",
        -8.589701652526855
      ],
      [
        "▁city",
        -8.570211410522461
      ],
      [
        "▁One",
        -8.62940788269043
      ],
      [
        "▁*",
        -9.30097770690918
      ],
      [
        "▁Court",
        -8.557710647583008
      ],
      [
        "▁main",
        -8.548093795776367
      ],
      [
        "▁power",
        -8.553860664367676
      ],
      [
        "▁society",
        -8.549897193908691
      ],
      [
        "▁diferentes",
        -8.669677734375
      ],
      [
        "▁Go",
        -9.08830738067627
      ],
      [
        "El",
        -8.674275398254395
      ],
      [
        "▁unos",
        -8.651534080505371
      ],
      [
        "con",
        -9.190535545349121
      ],
      [
        "»",
        -8.944512367248535
      ],
      [
        "▁institutions",
        -8.542267799377441
      ],
      [
        "▁instituciones",
        -8.675447463989258
      ],
      [
        "▁Let",
        -8.695709228515625
      ],
      [
        "▁debate",
        -9.173881530761719
      ],
      [
        "▁efectos",
        -8.676898002624512
      ],
      [
        "▁whether",
        -8.536697387695312
      ],
      [
        "▁technical",
        -8.547468185424805
      ],
      [
        "▁región",
        -8.685420989990234
      ],
      [
        "▁equipo",
        -8.656394958496094
      ],
      [
        "▁form",
        -8.602023124694824
      ],
      [
        "▁today",
        -8.611650466918945
      ],
      [
        "Cómo",
        -8.500622749328613
      ],
      [
        "▁location",
        -8.530755996704102
      ],
      [
        "▁done",
        -8.623714447021484
      ],
      [
        "▁house",
        -8.617508888244629
      ],
      [
        "▁debería",
        -8.623200416564941
      ],
      [
        "▁algunas",
        -8.663039207458496
      ],
      [
        "▁nuevas",
        -8.69035530090332
      ],
      [
        "▁tú",
        -8.484212875366211
      ],
      [
        "▁Especial",
        -8.689178466796875
      ],
      [
        "▁experience",
        -8.551518440246582
      ],
      [
        "▁tengo",
        -8.48567008972168
      ],
      [
        "▁thing",
        -8.684045791625977
      ],
      [
        "▁plazo",
        -8.669306755065918
      ],
      [
        "▁room",
        -8.61444091796875
      ],
      [
        "▁medios",
        -8.71092414855957
      ],
      [
        "▁open",
        -8.583459854125977
      ],
      [
        "▁third",
        -8.556490898132324
      ],
      [
        "▁medida",
        -8.669373512268066
      ],
      [
        "▁esfuerzos",
        -8.685737609863281
      ],
      [
        "▁various",
        -8.551100730895996
      ],
      [
        "▁Artículo",
        -8.667487144470215
      ],
      [
        "▁above",
        -8.56583023071289
      ],
      [
        "▁Gracias",
        -8.507682800292969
      ],
      [
        "▁agenda",
        -8.729890823364258
      ],
      [
        "▁sesión",
        -8.694966316223145
      ],
      [
        "▁abogados",
        -8.684477806091309
      ],
      [
        "W",
        -9.408990859985352
      ],
      [
        "▁Come",
        -8.855463027954102
      ],
      [
        "▁reports",
        -8.620898246765137
      ],
      [
        "▁results",
        -8.589661598205566
      ],
      [
        "▁J",
        -9.20560359954834
      ],
      [
        "▁incluso",
        -8.690045356750488
      ],
      [
        "▁Ley",
        -8.72193431854248
      ],
      [
        "▁entonces",
        -8.640731811523438
      ],
      [
        "▁40",
        -9.292633056640625
      ],
      [
        "▁sociales",
        -8.71940803527832
      ],
      [
        "▁considered",
        -8.582164764404297
      ],
      [
        "▁result",
        -8.573513984680176
      ],
      [
        "▁dicho",
        -8.625399589538574
      ],
      [
        "▁taking",
        -8.611078262329102
      ],
      [
        "▁dar",
        -8.676291465759277
      ],
      [
        "▁rules",
        -8.580915451049805
      ],
      [
        "▁progress",
        -8.591222763061523
      ],
      [
        "—",
        -8.984024047851562
      ],
      [
        "▁libre",
        -8.704283714294434
      ],
      [
        "▁julio",
        -8.727738380432129
      ],
      [
        "▁Señor",
        -8.66811752319336
      ],
      [
        "▁current",
        -8.600086212158203
      ],
      [
        "▁October",
        -8.602211952209473
      ],
      [
        "▁hombres",
        -8.698773384094238
      ],
      [
        "▁1,",
        -9.60913372039795
      ],
      [
        "▁meses",
        -8.70254898071289
      ],
      [
        "▁responsabilidad",
        -8.69675064086914
      ],
      [
        "st",
        -9.261929512023926
      ],
      [
        "▁become",
        -8.584052085876465
      ],
      [
        "▁few",
        -8.643402099609375
      ],
      [
        "▁Africa",
        -8.645247459411621
      ],
      [
        "▁until",
        -8.639689445495605
      ],
      [
        "▁modo",
        -8.693074226379395
      ],
      [
        "▁noche",
        -8.574787139892578
      ],
      [
        "▁di",
        -9.123353004455566
      ],
      [
        "▁especialmente",
        -8.721295356750488
      ],
      [
        "▁mayoría",
        -8.726568222045898
      ],
      [
        "▁region",
        -8.58314323425293
      ],
      [
        "N",
        -9.182921409606934
      ],
      [
        "▁100",
        -9.319366455078125
      ],
      [
        "▁anti",
        -9.28182315826416
      ],
      [
        "▁issue",
        -8.584968566894531
      ],
      [
        "▁old",
        -8.694306373596191
      ],
      [
        "ia",
        -9.31181526184082
      ],
      [
        "°",
        -100
      ],
      [
        "▁times",
        -8.734942436218262
      ],
      [
        "▁November",
        -8.599247932434082
      ],
      [
        "▁violencia",
        -8.755899429321289
      ],
      [
        "▁English",
        -8.864557266235352
      ],
      [
        "▁application",
        -8.575698852539062
      ],
      [
        "▁Parlamento",
        -8.716659545898438
      ],
      [
        "▁September",
        -8.616755485534668
      ],
      [
        "▁producción",
        -8.73151683807373
      ],
      [
        "▁cultural",
        -9.055225372314453
      ],
      [
        "▁pueblo",
        -8.696650505065918
      ],
      [
        "▁lista",
        -8.70732307434082
      ],
      [
        "▁Humanos",
        -8.74283504486084
      ],
      [
        "▁zona",
        -8.727156639099121
      ],
      [
        "▁media",
        -9.15665340423584
      ],
      [
        "▁field",
        -8.60262680053711
      ],
      [
        "▁cabo",
        -8.743499755859375
      ],
      [
        "▁required",
        -8.60628890991211
      ],
      [
        "▁private",
        -8.62278938293457
      ],
      [
        "▁March",
        -8.64100170135498
      ],
      [
        "▁least",
        -8.635960578918457
      ],
      [
        "▁mundial",
        -8.745965003967285
      ],
      [
        "▁verdad",
        -8.599004745483398
      ],
      [
        "▁Mundial",
        -8.74411678314209
      ],
      [
        "▁Hay",
        -8.695582389831543
      ],
      [
        "▁centro",
        -8.750837326049805
      ],
      [
        "▁”",
        -9.013040542602539
      ],
      [
        "▁Europeo",
        -8.717362403869629
      ],
      [
        "ic",
        -9.023367881774902
      ],
      [
        "▁2000",
        -9.185117721557617
      ],
      [
        "▁improve",
        -8.619330406188965
      ],
      [
        "▁red",
        -9.183768272399902
      ],
      [
        "▁large",
        -8.62235164642334
      ],
      [
        "▁experiencia",
        -8.736808776855469
      ],
      [
        "▁valor",
        -8.742892265319824
      ],
      [
        "▁empresa",
        -8.730311393737793
      ],
      [
        "▁problem",
        -8.648947715759277
      ],
      [
        "▁tus",
        -8.749564170837402
      ],
      [
        "▁individual",
        -8.896748542785645
      ],
      [
        "▁Car",
        -9.192434310913086
      ],
      [
        "▁addition",
        -8.62639331817627
      ],
      [
        "▁food",
        -8.626073837280273
      ],
      [
        "ity",
        -8.894932746887207
      ],
      [
        "▁2005",
        -9.227509498596191
      ],
      [
        "▁nuevos",
        -8.771269798278809
      ],
      [
        "▁pasado",
        -8.688321113586426
      ],
      [
        "#",
        -100
      ],
      [
        "▁light",
        -8.63085651397705
      ],
      [
        "▁evaluación",
        -8.760885238647461
      ],
      [
        "▁estás",
        -8.638235092163086
      ],
      [
        "▁largo",
        -8.742353439331055
      ],
      [
        "▁state",
        -8.639832496643066
      ],
      [
        "▁nunca",
        -8.640363693237305
      ],
      [
        "▁central",
        -9.365471839904785
      ],
      [
        "▁octubre",
        -8.789796829223633
      ],
      [
        "▁play",
        -8.720800399780273
      ],
      [
        "▁subject",
        -8.617120742797852
      ],
      [
        "▁force",
        -8.627471923828125
      ],
      [
        "▁Parliament",
        -8.605311393737793
      ],
      [
        "▁took",
        -8.703574180603027
      ],
      [
        "▁believe",
        -8.701004028320312
      ],
      [
        "▁fundamental",
        -9.354671478271484
      ],
      [
        "▁budget",
        -8.626996040344238
      ],
      [
        "▁population",
        -8.639183044433594
      ],
      [
        "▁whole",
        -8.685402870178223
      ],
      [
        "▁night",
        -8.757563591003418
      ],
      [
        "▁organización",
        -8.762918472290039
      ],
      [
        "V",
        -9.341983795166016
      ],
      [
        "▁principales",
        -8.78406047821045
      ],
      [
        "▁sexual",
        -9.351653099060059
      ],
      [
        "▁problems",
        -8.63530158996582
      ],
      [
        "▁having",
        -8.686126708984375
      ],
      [
        "▁lucha",
        -8.755855560302734
      ],
      [
        "▁público",
        -8.766495704650879
      ],
      [
        "▁hand",
        -8.675835609436035
      ],
      [
        "▁noviembre",
        -8.790661811828613
      ],
      [
        "▁2007",
        -9.324899673461914
      ],
      [
        "▁sitio",
        -8.743814468383789
      ],
      [
        "ja",
        -9.070693969726562
      ],
      [
        "▁policies",
        -8.640523910522461
      ],
      [
        "pa",
        -9.04478931427002
      ],
      [
        "▁garantizar",
        -8.79106330871582
      ],
      [
        "4",
        -9.087661743164062
      ],
      [
        "▁Economic",
        -8.660194396972656
      ],
      [
        "--",
        -9.69934368133545
      ],
      [
        "las",
        -8.834406852722168
      ],
      [
        "ation",
        -8.972723960876465
      ],
      [
        "▁Ahora",
        -8.639979362487793
      ],
      [
        "▁km",
        -9.39564323425293
      ],
      [
        "▁anexo",
        -8.751304626464844
      ],
      [
        "▁documento",
        -8.767558097839355
      ],
      [
        "▁left",
        -8.740888595581055
      ],
      [
        "▁objeto",
        -8.773268699645996
      ],
      [
        "▁etc",
        -9.36002254486084
      ],
      [
        "▁show",
        -8.782270431518555
      ],
      [
        "▁3.",
        -9.53275203704834
      ],
      [
        "▁production",
        -8.645090103149414
      ],
      [
        "▁grandes",
        -8.780750274658203
      ],
      [
        "▁using",
        -8.681044578552246
      ],
      [
        "▁Organización",
        -8.783248901367188
      ],
      [
        "▁papel",
        -8.785980224609375
      ],
      [
        "▁several",
        -8.679105758666992
      ],
      [
        "▁Nacional",
        -8.862932205200195
      ],
      [
        "▁Pro",
        -9.319794654846191
      ],
      [
        "▁quiero",
        -8.592920303344727
      ],
      [
        "▁Jesus",
        -8.723825454711914
      ],
      [
        "▁Plan",
        -9.415122985839844
      ],
      [
        "▁septiembre",
        -8.812247276306152
      ],
      [
        "▁four",
        -8.703333854675293
      ],
      [
        "▁empleo",
        -8.788789749145508
      ],
      [
        "▁money",
        -8.75570011138916
      ],
      [
        "▁Can",
        -9.048736572265625
      ],
      [
        "▁2006",
        -9.243735313415527
      ],
      [
        "▁cuatro",
        -8.78464412689209
      ],
      [
        "▁sub",
        -9.400269508361816
      ],
      [
        "▁violence",
        -8.695130348205566
      ],
      [
        "▁January",
        -8.681164741516113
      ],
      [
        "▁Programme",
        -8.65184211730957
      ],
      [
        "▁producto",
        -8.80621337890625
      ],
      [
        "▁treatment",
        -8.652392387390137
      ],
      [
        "▁Está",
        -8.597522735595703
      ],
      [
        "▁respuesta",
        -8.784385681152344
      ],
      [
        "rá",
        -8.60183048248291
      ],
      [
        "▁formación",
        -8.821527481079102
      ],
      [
        "▁miembro",
        -8.778486251831055
      ],
      [
        "w",
        -9.398563385009766
      ],
      [
        "▁projects",
        -8.696036338806152
      ],
      [
        "▁months",
        -8.72367000579834
      ],
      [
        "):",
        -9.558754920959473
      ],
      [
        "▁2004",
        -9.268592834472656
      ],
      [
        "▁Eso",
        -8.605863571166992
      ],
      [
        "▁levels",
        -8.707947731018066
      ],
      [
        "ter",
        -9.327423095703125
      ],
      [
        "▁research",
        -8.682548522949219
      ],
      [
        "ti",
        -9.285468101501465
      ],
      [
        "▁Comunidad",
        -8.806234359741211
      ],
      [
        "▁sentido",
        -8.762951850891113
      ],
      [
        "▁Nueva",
        -8.819284439086914
      ],
      [
        "▁risk",
        -8.681865692138672
      ],
      [
        "▁habían",
        -8.828234672546387
      ],
      [
        "▁además",
        -8.816471099853516
      ],
      [
        "▁came",
        -8.769594192504883
      ],
      [
        "▁South",
        -8.780084609985352
      ],
      [
        "▁cuanto",
        -8.78333854675293
      ],
      [
        "▁frente",
        -8.799678802490234
      ],
      [
        "▁address",
        -8.703949928283691
      ],
      [
        "▁others",
        -8.8338623046875
      ],
      [
        "▁propuesta",
        -8.808039665222168
      ],
      [
        "▁Where",
        -8.81921672821045
      ],
      [
        "▁due",
        -8.692926406860352
      ],
      [
        "▁muchas",
        -8.800857543945312
      ],
      [
        "▁creación",
        -8.820016860961914
      ],
      [
        "▁siendo",
        -8.811699867248535
      ],
      [
        "▁particularly",
        -8.694416999816895
      ],
      [
        "$",
        -10.019636154174805
      ],
      [
        "▁THE",
        -8.730496406555176
      ],
      [
        "▁requirements",
        -8.68929386138916
      ],
      [
        "idad",
        -9.070503234863281
      ],
      [
        "▁juego",
        -8.801301002502441
      ],
      [
        "▁falta",
        -8.803107261657715
      ],
      [
        "▁dinero",
        -8.711318016052246
      ],
      [
        "▁da",
        -8.959218978881836
      ],
      [
        "▁energy",
        -8.70552921295166
      ],
      [
        "▁cannot",
        -8.71882438659668
      ],
      [
        "▁young",
        -8.74637222290039
      ],
      [
        "▁framework",
        -8.69294261932373
      ],
      [
        "▁gastos",
        -8.844239234924316
      ],
      [
        "▁--",
        -9.33741569519043
      ],
      [
        "▁zonas",
        -8.872701644897461
      ],
      [
        "▁recomendaciones",
        -8.848194122314453
      ],
      [
        "▁ofrece",
        -8.846248626708984
      ],
      [
        "▁living",
        -8.747090339660645
      ],
      [
        "▁tenemos",
        -8.73128890991211
      ],
      [
        "▁terms",
        -8.726873397827148
      ],
      [
        "▁función",
        -8.848596572875977
      ],
      [
        "▁segundo",
        -8.798227310180664
      ],
      [
        "▁enero",
        -8.881672859191895
      ],
      [
        "▁matter",
        -8.736348152160645
      ],
      [
        "▁sistemas",
        -8.877002716064453
      ],
      [
        "▁police",
        -8.755722999572754
      ],
      [
        "▁Partes",
        -8.850581169128418
      ],
      [
        "ste",
        -8.851859092712402
      ],
      [
        "▁mayo",
        -8.861095428466797
      ],
      [
        "▁less",
        -8.736686706542969
      ],
      [
        "so",
        -9.16667366027832
      ],
      [
        "▁marzo",
        -8.864104270935059
      ],
      [
        "▁school",
        -8.765833854675293
      ],
      [
        "▁hizo",
        -8.792415618896484
      ],
      [
        "▁More",
        -8.8373384475708
      ],
      [
        "▁tierra",
        -8.83694076538086
      ],
      [
        "▁recommendations",
        -8.741124153137207
      ],
      [
        "▁far",
        -8.763460159301758
      ],
      [
        "va",
        -9.152915954589844
      ],
      [
        "▁n",
        -9.175644874572754
      ],
      [
        "▁keep",
        -8.801789283752441
      ],
      [
        "▁varios",
        -8.858991622924805
      ],
      [
        "▁His",
        -8.790680885314941
      ],
      [
        "▁yet",
        -8.781913757324219
      ],
      [
        "it",
        -9.233019828796387
      ],
      [
        "▁común",
        -8.838932037353516
      ],
      [
        "▁systems",
        -8.779129028320312
      ],
      [
        "▁práctica",
        -8.841508865356445
      ],
      [
        "▁live",
        -8.767781257629395
      ],
      [
        "v",
        -9.348398208618164
      ],
      [
        "▁hemos",
        -8.799163818359375
      ],
      [
        "▁saber",
        -8.788168907165527
      ],
      [
        "▁received",
        -8.743461608886719
      ],
      [
        "▁tratamiento",
        -8.847272872924805
      ],
      [
        "▁2008",
        -9.352192878723145
      ],
      [
        "▁especially",
        -8.745137214660645
      ],
      [
        "pe",
        -9.31186294555664
      ],
      [
        "▁virtud",
        -8.859582901000977
      ],
      [
        "▁W",
        -9.266225814819336
      ],
      [
        "▁importantes",
        -8.892402648925781
      ],
      [
        "▁estudio",
        -8.862796783447266
      ],
      [
        ".1",
        -9.49433708190918
      ],
      [
        "dor",
        -8.884187698364258
      ],
      [
        "▁product",
        -8.733916282653809
      ],
      [
        "▁2,",
        -9.718343734741211
      ],
      [
        "▁concerning",
        -8.725117683410645
      ],
      [
        "▁Mar",
        -9.336909294128418
      ],
      [
        "▁developed",
        -8.75163459777832
      ],
      [
        "▁obtener",
        -8.877821922302246
      ],
      [
        "▁principio",
        -8.84843921661377
      ],
      [
        "ol",
        -9.094433784484863
      ],
      [
        "ado",
        -8.94434928894043
      ],
      [
        "tu",
        -9.261332511901855
      ],
      [
        "▁sure",
        -8.872955322265625
      ],
      [
        "▁principios",
        -8.894164085388184
      ],
      [
        "▁April",
        -8.780970573425293
      ],
      [
        "▁clear",
        -8.770666122436523
      ],
      [
        "▁list",
        -8.760421752929688
      ],
      [
        "▁arreglo",
        -8.857563018798828
      ],
      [
        "▁major",
        -8.755036354064941
      ],
      [
        "▁edad",
        -8.881569862365723
      ],
      [
        "▁making",
        -8.786178588867188
      ],
      [
        "ría",
        -8.834969520568848
      ],
      [
        "▁file",
        -8.749757766723633
      ],
      [
        "▁buena",
        -8.787172317504883
      ],
      [
        "▁ambiente",
        -8.888790130615234
      ],
      [
        "▁heart",
        -8.793352127075195
      ],
      [
        "De",
        -8.951201438903809
      ],
      [
        "▁kind",
        -8.82188606262207
      ],
      [
        "▁thought",
        -8.869568824768066
      ],
      [
        "▁partir",
        -8.879361152648926
      ],
      [
        "▁demás",
        -8.858072280883789
      ],
      [
        "▁towards",
        -8.76702880859375
      ],
      [
        "▁America",
        -8.81236457824707
      ],
      [
        "▁UE",
        -8.880529403686523
      ],
      [
        "▁five",
        -8.791378021240234
      ],
      [
        "▁Organization",
        -8.74850845336914
      ],
      [
        "▁tomar",
        -8.854952812194824
      ],
      [
        "▁agreement",
        -8.748926162719727
      ],
      [
        "▁sigue",
        -8.86960220336914
      ],
      [
        "▁line",
        -8.766887664794922
      ],
      [
        "▁2009",
        -9.417354583740234
      ],
      [
        "▁age",
        -8.784866333007812
      ],
      [
        "▁land",
        -8.773494720458984
      ],
      [
        "▁date",
        -8.765619277954102
      ],
      [
        "▁importance",
        -8.766979217529297
      ],
      [
        "▁2003",
        -9.357853889465332
      ],
      [
        "mi",
        -9.246101379394531
      ],
      [
        "▁soy",
        -8.708975791931152
      ],
      [
        "▁crear",
        -8.910120964050293
      ],
      [
        "▁request",
        -8.747998237609863
      ],
      [
        "▁hablar",
        -8.748237609863281
      ],
      [
        ".2",
        -9.695794105529785
      ],
      [
        "▁último",
        -8.866790771484375
      ],
      [
        "▁2002",
        -9.347607612609863
      ],
      [
        "▁presupuesto",
        -8.890585899353027
      ],
      [
        "▁historia",
        -8.843520164489746
      ],
      [
        "▁libertad",
        -8.912016868591309
      ],
      [
        "▁post",
        -9.037908554077148
      ],
      [
        "▁seguir",
        -8.870436668395996
      ],
      [
        "▁pueda",
        -8.845772743225098
      ],
      [
        "▁company",
        -8.793573379516602
      ],
      [
        "▁riesgo",
        -8.887502670288086
      ],
      [
        "▁u",
        -9.00815200805664
      ],
      [
        "▁study",
        -8.785225868225098
      ],
      [
        "▁environment",
        -8.754015922546387
      ],
      [
        "▁proposed",
        -8.776412963867188
      ],
      [
        "▁Nos",
        -8.977259635925293
      ],
      [
        "ble",
        -9.270934104919434
      ],
      [
        "nte",
        -8.88718032836914
      ],
      [
        "▁ejecución",
        -8.916272163391113
      ],
      [
        "▁aumentar",
        -8.92318058013916
      ],
      [
        "▁mar",
        -8.997893333435059
      ],
      [
        "▁aunque",
        -8.89525032043457
      ],
      [
        "▁gobierno",
        -8.901914596557617
      ],
      [
        "▁Okay",
        -9.003713607788086
      ],
      [
        "▁position",
        -8.776322364807129
      ],
      [
        "▁Asia",
        -9.552745819091797
      ],
      [
        "▁encontrar",
        -8.858942985534668
      ],
      [
        "▁África",
        -8.915817260742188
      ],
      [
        "por",
        -8.978096008300781
      ],
      [
        "▁cinco",
        -8.900357246398926
      ],
      [
        "▁interés",
        -8.921359062194824
      ],
      [
        "▁additional",
        -8.793671607971191
      ],
      [
        "▁III",
        -9.49472427368164
      ],
      [
        "▁2010",
        -9.448898315429688
      ],
      [
        "▁tenía",
        -8.820656776428223
      ],
      [
        "*",
        -9.499122619628906
      ],
      [
        "▁hijo",
        -8.821684837341309
      ],
      [
        "ria",
        -9.330129623413086
      ],
      [
        "▁decisiones",
        -8.930462837219238
      ],
      [
        "▁futuro",
        -8.87739086151123
      ],
      [
        "▁gracias",
        -8.828776359558105
      ],
      [
        "▁promover",
        -8.934353828430176
      ],
      [
        "▁ever",
        -8.908330917358398
      ],
      [
        "”.",
        -9.577532768249512
      ],
      [
        "▁feel",
        -8.893628120422363
      ],
      [
        "▁policía",
        -8.8770751953125
      ],
      [
        "▁regionales",
        -8.949800491333008
      ],
      [
        "▁artículos",
        -8.998405456542969
      ],
      [
        "▁parece",
        -8.81061840057373
      ],
      [
        "▁attention",
        -8.810288429260254
      ],
      [
        "▁efecto",
        -8.9080171585083
      ],
      [
        "▁aumento",
        -8.922322273254395
      ],
      [
        "▁formas",
        -8.971455574035645
      ],
      [
        "▁orden",
        -8.91763687133789
      ],
      [
        "▁relativas",
        -8.94901180267334
      ],
      [
        "R",
        -9.20054817199707
      ],
      [
        "▁Na",
        -9.440018653869629
      ],
      [
        "ton",
        -9.52416706085205
      ],
      [
        "ry",
        -9.514151573181152
      ],
      [
        "▁Our",
        -8.849695205688477
      ],
      [
        "▁key",
        -8.823348045349121
      ],
      [
        "▁interest",
        -8.795660018920898
      ],
      [
        "En",
        -8.949463844299316
      ],
      [
        "▁nota",
        -8.930401802062988
      ],
      [
        "▁legislation",
        -8.80846118927002
      ],
      [
        "▁included",
        -8.827397346496582
      ],
      [
        "▁meet",
        -8.852838516235352
      ],
      [
        "▁Central",
        -9.221601486206055
      ],
      [
        "▁close",
        -8.876444816589355
      ],
      [
        "▁ninguna",
        -8.900534629821777
      ],
      [
        "▁mal",
        -8.926087379455566
      ],
      [
        "▁cerca",
        -8.921503067016602
      ],
      [
        "▁abril",
        -8.96586799621582
      ],
      [
        "▁providing",
        -8.824007034301758
      ],
      [
        "be",
        -9.49936294555664
      ],
      [
        "ten",
        -9.371352195739746
      ],
      [
        "▁military",
        -8.840340614318848
      ],
      [
        "▁software",
        -9.41470718383789
      ],
      [
        "▁Not",
        -8.986212730407715
      ],
      [
        "net",
        -9.558431625366211
      ],
      [
        "▁tras",
        -8.962163925170898
      ],
      [
        "▁impact",
        -8.811822891235352
      ],
      [
        "▁Dr",
        -9.49881649017334
      ],
      [
        "▁niño",
        -8.89414119720459
      ],
      [
        "▁operaciones",
        -8.953201293945312
      ],
      [
        "▁Más",
        -8.972293853759766
      ],
      [
        "▁bodies",
        -8.828829765319824
      ],
      [
        "ü",
        -100
      ],
      [
        "▁legislación",
        -8.950301170349121
      ],
      [
        "▁similar",
        -9.182459831237793
      ],
      [
        "▁hijos",
        -8.95174503326416
      ],
      [
        "▁told",
        -8.965836524963379
      ],
      [
        "▁debido",
        -8.961389541625977
      ],
      [
        "res",
        -8.904946327209473
      ],
      [
        "▁vista",
        -8.930562973022461
      ],
      [
        "▁quien",
        -8.898633003234863
      ],
      [
        "▁puedes",
        -8.90024471282959
      ],
      [
        "▁Que",
        -8.868152618408203
      ],
      [
        "▁comunicación",
        -8.96185302734375
      ],
      [
        "▁tienes",
        -8.830282211303711
      ],
      [
        "▁anything",
        -8.981317520141602
      ],
      [
        "▁hora",
        -8.8627347946167
      ],
      [
        "▁once",
        -8.93828296661377
      ],
      [
        "▁item",
        -8.820892333984375
      ],
      [
        "▁procedimiento",
        -8.95137882232666
      ],
      [
        "▁energía",
        -8.935160636901855
      ],
      [
        "▁Please",
        -8.927605628967285
      ],
      [
        "▁haciendo",
        -8.838483810424805
      ],
      [
        "▁organismos",
        -8.965682029724121
      ],
      [
        "▁X",
        -9.57473373413086
      ],
      [
        "▁Act",
        -8.836259841918945
      ],
      [
        "▁Di",
        -9.435718536376953
      ],
      [
        "▁member",
        -8.83260440826416
      ],
      [
        "▁Iraq",
        -9.446271896362305
      ],
      [
        "▁2001",
        -9.404833793640137
      ],
      [
        "▁correspondiente",
        -8.97301959991455
      ],
      [
        "▁fondos",
        -8.989059448242188
      ],
      [
        "▁approach",
        -8.840394973754883
      ],
      [
        "▁Law",
        -8.889662742614746
      ],
      [
        "▁lawyers",
        -8.833508491516113
      ],
      [
        "▁costs",
        -8.855446815490723
      ],
      [
        "▁podemos",
        -8.890506744384766
      ],
      [
        "í",
        -9.197004318237305
      ],
      [
        "▁promote",
        -8.832627296447754
      ],
      [
        "▁space",
        -8.855737686157227
      ],
      [
        "▁Board",
        -8.851981163024902
      ],
      [
        "▁transporte",
        -8.932565689086914
      ],
      [
        "▁lado",
        -9.087969779968262
      ],
      [
        "▁jóvenes",
        -8.965975761413574
      ],
      [
        "▁Trabajo",
        -8.965929985046387
      ],
      [
        "▁pública",
        -8.960232734680176
      ],
      [
        "▁60",
        -9.54163646697998
      ],
      [
        "▁death",
        -8.881946563720703
      ],
      [
        "▁superior",
        -9.082694053649902
      ],
      [
        "▁alto",
        -8.956586837768555
      ],
      [
        "rse",
        -8.763497352600098
      ],
      [
        "▁archivo",
        -8.967914581298828
      ],
      [
        "▁establecimiento",
        -8.985572814941406
      ],
      [
        "▁resultado",
        -8.970953941345215
      ],
      [
        "▁Parte",
        -8.944835662841797
      ],
      [
        "▁TV",
        -9.415891647338867
      ],
      [
        "ment",
        -9.342182159423828
      ],
      [
        "▁Directiva",
        -8.939976692199707
      ],
      [
        "▁fe",
        -9.188824653625488
      ],
      [
        "▁participation",
        -8.853653907775879
      ],
      [
        "▁señor",
        -8.799198150634766
      ],
      [
        "▁análisis",
        -8.983609199523926
      ],
      [
        "▁amount",
        -8.83068561553955
      ],
      [
        "▁Miembros",
        -8.992398262023926
      ],
      [
        "▁aid",
        -8.826626777648926
      ],
      [
        "▁original",
        -9.425854682922363
      ],
      [
        "ya",
        -9.404096603393555
      ],
      [
        "▁fully",
        -8.862414360046387
      ],
      [
        "▁lograr",
        -8.983209609985352
      ],
      [
        "▁financiación",
        -8.977646827697754
      ],
      [
        "▁document",
        -8.841114044189453
      ],
      [
        "▁estamos",
        -8.89304256439209
      ],
      [
        "▁provides",
        -8.886796951293945
      ],
      [
        "▁categoría",
        -8.966541290283203
      ],
      [
        "▁start",
        -8.906139373779297
      ],
      [
        "▁serie",
        -8.986639976501465
      ],
      [
        "▁Vamos",
        -8.756136894226074
      ],
      [
        "X",
        -9.585572242736816
      ],
      [
        "▁locales",
        -9.004646301269531
      ],
      [
        "▁espacio",
        -8.959446907043457
      ],
      [
        "▁prácticas",
        -9.017489433288574
      ],
      [
        "▁talk",
        -8.990689277648926
      ],
      [
        "ver",
        -9.255914688110352
      ],
      [
        "tra",
        -9.386443138122559
      ],
      [
        "▁encuentra",
        -8.997743606567383
      ],
      [
        "▁please",
        -8.98276424407959
      ],
      [
        "▁Directive",
        -8.813214302062988
      ],
      [
        "il",
        -9.607378005981445
      ],
      [
        "▁precios",
        -9.00313949584961
      ],
      [
        "bo",
        -9.261610984802246
      ],
      [
        "▁sean",
        -9.007160186767578
      ],
      [
        "▁mind",
        -8.937284469604492
      ],
      [
        "▁meetings",
        -8.897990226745605
      ],
      [
        "▁lot",
        -8.961034774780273
      ],
      [
        "▁bring",
        -8.910463333129883
      ],
      [
        "▁video",
        -9.308097839355469
      ],
      [
        "▁padre",
        -8.84707260131836
      ],
      [
        "fi",
        -9.570511817932129
      ],
      [
        "▁seguro",
        -8.907171249389648
      ],
      [
        "▁cost",
        -8.863435745239258
      ],
      [
        "▁Just",
        -9.060820579528809
      ],
      [
        "sa",
        -9.011475563049316
      ],
      [
        "▁Ver",
        -9.255184173583984
      ],
      [
        "▁muerte",
        -8.943605422973633
      ],
      [
        "per",
        -9.680970191955566
      ],
      [
        "▁razón",
        -8.908190727233887
      ],
      [
        "▁submitted",
        -8.865386962890625
      ],
      [
        "▁referred",
        -8.841409683227539
      ],
      [
        "▁puesto",
        -8.972718238830566
      ],
      [
        "▁Director",
        -9.474200248718262
      ],
      [
        "▁podrá",
        -8.973034858703613
      ],
      [
        "▁context",
        -8.868760108947754
      ],
      [
        "▁procedure",
        -8.849366188049316
      ],
      [
        "J",
        -9.61136245727539
      ],
      [
        "ré",
        -8.937725067138672
      ],
      [
        "▁alguien",
        -8.844063758850098
      ],
      [
        "▁mantenimiento",
        -9.008752822875977
      ],
      [
        "▁offers",
        -8.906661987304688
      ],
      [
        "Es",
        -8.898482322692871
      ],
      [
        "▁leave",
        -8.979872703552246
      ],
      [
        "▁establecer",
        -9.017864227294922
      ],
      [
        "▁posibilidad",
        -9.001091957092285
      ],
      [
        "▁everything",
        -8.993762969970703
      ],
      [
        "▁often",
        -8.912046432495117
      ],
      [
        "▁according",
        -8.884421348571777
      ],
      [
        "▁Tratado",
        -8.989980697631836
      ],
      [
        "▁luego",
        -8.922900199890137
      ],
      [
        "▁procedimientos",
        -9.029945373535156
      ],
      [
        "▁2011",
        -9.555100440979004
      ],
      [
        "▁económica",
        -9.002419471740723
      ],
      [
        "▁texto",
        -9.0036039352417
      ],
      [
        "▁comercio",
        -9.023223876953125
      ],
      [
        "▁color",
        -9.45626449584961
      ],
      [
        "▁value",
        -8.881546974182129
      ],
      [
        "▁gender",
        -8.899550437927246
      ],
      [
        "▁side",
        -8.921549797058105
      ],
      [
        "cha",
        -9.47599983215332
      ],
      [
        "cu",
        -9.32581615447998
      ],
      [
        "▁discriminación",
        -9.038939476013184
      ],
      [
        "▁guerra",
        -8.97192668914795
      ],
      [
        "▁todavía",
        -8.978062629699707
      ],
      [
        "▁carácter",
        -9.033371925354004
      ],
      [
        "li",
        -9.527403831481934
      ],
      [
        "▁however",
        -8.893089294433594
      ],
      [
        "▁área",
        -9.002203941345215
      ],
      [
        "▁understand",
        -8.968843460083008
      ],
      [
        "▁siento",
        -8.809175491333008
      ],
      [
        "▁relacionados",
        -9.053051948547363
      ],
      [
        "▁alguna",
        -8.943229675292969
      ],
      [
        "za",
        -9.3938627243042
      ],
      [
        "▁technology",
        -8.908989906311035
      ],
      [
        "▁ámbito",
        -9.009883880615234
      ],
      [
        "▁Are",
        -9.066364288330078
      ],
      [
        "▁offer",
        -8.910414695739746
      ],
      [
        "▁Entonces",
        -8.892642974853516
      ],
      [
        "▁ningún",
        -8.979207992553711
      ],
      [
        "▁llegar",
        -8.996246337890625
      ],
      [
        "▁Treaty",
        -8.883345603942871
      ],
      [
        "▁hours",
        -8.95004940032959
      ],
      [
        "▁Home",
        -9.168757438659668
      ],
      [
        "▁sería",
        -8.986227035522461
      ],
      [
        "▁price",
        -8.912893295288086
      ],
      [
        "si",
        -9.285759925842285
      ],
      [
        "▁Estoy",
        -8.84259033203125
      ],
      [
        "▁Desde",
        -9.019303321838379
      ],
      [
        "▁proposal",
        -8.88100814819336
      ],
      [
        "and",
        -9.080455780029297
      ],
      [
        "▁February",
        -8.921599388122559
      ],
      [
        "▁4.",
        -9.72581672668457
      ],
      [
        "▁Centro",
        -9.100133895874023
      ],
      [
        "▁realidad",
        -8.985957145690918
      ],
      [
        "▁judicial",
        -9.644417762756348
      ],
      [
        "▁nothing",
        -9.031147003173828
      ],
      [
        "&",
        -12.219831466674805
      ],
      [
        "▁contexto",
        -9.054060935974121
      ],
      [
        "▁known",
        -8.957396507263184
      ],
      [
        "▁American",
        -9.01933479309082
      ],
      [
        "▁past",
        -8.92771053314209
      ],
      [
        "▁Then",
        -9.041488647460938
      ],
      [
        "▁Parties",
        -8.907015800476074
      ],
      [
        "je",
        -9.28017520904541
      ],
      [
        "▁relativa",
        -9.014725685119629
      ],
      [
        "▁órganos",
        -9.0571870803833
      ],
      [
        "▁African",
        -8.92233943939209
      ],
      [
        "▁justicia",
        -9.039593696594238
      ],
      [
        "▁games",
        -8.989208221435547
      ],
      [
        "▁América",
        -9.071473121643066
      ],
      [
        "▁Tu",
        -9.126160621643066
      ],
      [
        "▁quiere",
        -8.893824577331543
      ],
      [
        "▁eran",
        -9.05070972442627
      ],
      [
        "▁air",
        -8.947257995605469
      ],
      [
        "▁consideration",
        -8.90571117401123
      ],
      [
        "▁logo",
        -9.43267822265625
      ],
      [
        "▁minutos",
        -9.014579772949219
      ],
      [
        "▁igual",
        -9.002412796020508
      ],
      [
        "▁Annex",
        -8.897805213928223
      ],
      [
        "▁crecimiento",
        -9.041624069213867
      ],
      [
        "▁dis",
        -9.857102394104004
      ],
      [
        "▁By",
        -9.016936302185059
      ],
      [
        "ch",
        -9.549531936645508
      ],
      [
        "▁ayudar",
        -9.032157897949219
      ],
      [
        "▁later",
        -8.991694450378418
      ],
      [
        "emos",
        -8.948131561279297
      ],
      [
        "▁voy",
        -8.850052833557129
      ],
      [
        "▁follow",
        -8.921731948852539
      ],
      [
        "▁Ni",
        -9.28552532196045
      ],
      [
        "▁2012",
        -9.630480766296387
      ],
      [
        ".5",
        -9.817715644836426
      ],
      [
        "▁workers",
        -8.931609153747559
      ],
      [
        "▁type",
        -8.935957908630371
      ],
      [
        "▁war",
        -8.968274116516113
      ],
      [
        "▁note",
        -8.952199935913086
      ],
      [
        "ness",
        -9.032441139221191
      ],
      [
        "▁August",
        -8.990049362182617
      ],
      [
        "▁Who",
        -9.116144180297852
      ],
      [
        "son",
        -9.79301643371582
      ],
      [
        "ist",
        -9.264957427978516
      ],
      [
        "▁juegos",
        -9.117828369140625
      ],
      [
        "▁económico",
        -9.060609817504883
      ],
      [
        "▁seen",
        -9.009248733520508
      ],
      [
        "▁Man",
        -9.551799774169922
      ],
      [
        "▁Be",
        -9.39763355255127
      ],
      [
        "ck",
        -9.363974571228027
      ],
      [
        "▁High",
        -8.98880672454834
      ],
      [
        "ir",
        -9.520890235900879
      ],
      [
        "▁referencia",
        -9.057326316833496
      ],
      [
        "▁criminal",
        -9.071756362915039
      ],
      [
        "▁gas",
        -9.590798377990723
      ],
      [
        "▁growth",
        -8.94661808013916
      ],
      [
        "▁pobreza",
        -9.07007884979248
      ],
      [
        "▁nature",
        -8.941632270812988
      ],
      [
        "ada",
        -9.250176429748535
      ],
      [
        "▁pertinentes",
        -9.078486442565918
      ],
      [
        "▁building",
        -8.95362377166748
      ],
      [
        "▁Or",
        -9.484447479248047
      ],
      [
        "▁creo",
        -8.905269622802734
      ],
      [
        "▁últimos",
        -9.074237823486328
      ],
      [
        "▁pues",
        -9.05733585357666
      ],
      [
        "▁words",
        -8.987020492553711
      ],
      [
        "▁knowledge",
        -8.955283164978027
      ],
      [
        "▁g",
        -9.548291206359863
      ],
      [
        "▁dado",
        -9.045845031738281
      ],
      [
        "▁trabajadores",
        -9.091782569885254
      ],
      [
        "▁único",
        -9.012227058410645
      ],
      [
        "▁tecnología",
        -9.058082580566406
      ],
      [
        "ri",
        -9.455025672912598
      ],
      [
        "▁status",
        -8.957367897033691
      ],
      [
        ".4",
        -9.877008438110352
      ],
      [
        "▁Jesús",
        -9.091633796691895
      ],
      [
        "▁After",
        -8.992074012756348
      ],
      [
        "▁nuestras",
        -9.07125473022461
      ],
      [
        "ka",
        -9.677318572998047
      ],
      [
        "ie",
        -9.472322463989258
      ],
      [
        "▁rate",
        -8.949970245361328
      ],
      [
        "▁low",
        -8.96497917175293
      ],
      [
        "▁increased",
        -8.960049629211426
      ],
      [
        "▁permite",
        -9.080036163330078
      ],
      [
        "▁casi",
        -9.034126281738281
      ],
      [
        "▁Argentina",
        -9.633539199829102
      ],
      [
        "▁Él",
        -8.98770809173584
      ],
      [
        "▁stay",
        -9.03112506866455
      ],
      [
        "▁declaración",
        -9.081700325012207
      ],
      [
        "▁won",
        -9.116231918334961
      ],
      [
        "▁‘",
        -8.920969009399414
      ],
      [
        "▁located",
        -9.006204605102539
      ],
      [
        "▁camino",
        -9.024674415588379
      ],
      [
        "▁niveles",
        -9.103058815002441
      ],
      [
        "_",
        -9.636735916137695
      ],
      [
        "▁US",
        -9.215112686157227
      ],
      [
        "▁cuales",
        -9.095836639404297
      ],
      [
        "▁Fund",
        -8.94981861114502
      ],
      [
        "▁Son",
        -9.491920471191406
      ],
      [
        "▁consider",
        -8.953981399536133
      ],
      [
        "▁allí",
        -8.960853576660156
      ],
      [
        "▁site",
        -8.97189998626709
      ],
      [
        "▁página",
        -9.07152271270752
      ],
      [
        "▁effect",
        -8.945915222167969
      ],
      [
        "▁reuniones",
        -9.097396850585938
      ],
      [
        "▁técnica",
        -9.079496383666992
      ],
      [
        "▁Vi",
        -9.516519546508789
      ],
      [
        "▁alta",
        -9.057323455810547
      ],
      [
        "▁junto",
        -9.080497741699219
      ],
      [
        "▁aplicar",
        -9.116096496582031
      ],
      [
        "▁luz",
        -9.0739164352417
      ],
      [
        "ni",
        -9.439597129821777
      ],
      [
        "▁UN",
        -9.293509483337402
      ],
      [
        "▁realizar",
        -9.096227645874023
      ],
      [
        "▁febrero",
        -9.124556541442871
      ],
      [
        "▁environmental",
        -8.960183143615723
      ],
      [
        "▁game",
        -9.016175270080566
      ],
      [
        "▁procedures",
        -8.982193946838379
      ],
      [
        "▁provisional",
        -9.597859382629395
      ],
      [
        "▁Bar",
        -9.82578182220459
      ],
      [
        "▁mantener",
        -9.07820987701416
      ],
      [
        "▁representantes",
        -9.113668441772461
      ],
      [
        "▁2013",
        -9.632601737976074
      ],
      [
        "▁relating",
        -8.964277267456055
      ],
      [
        "sen",
        -9.593992233276367
      ],
      [
        "▁amor",
        -9.009405136108398
      ],
      [
        "▁cuerpo",
        -9.058283805847168
      ],
      [
        "▁ask",
        -9.053669929504395
      ],
      [
        "▁Women",
        -9.010980606079102
      ],
      [
        "▁Thank",
        -9.135307312011719
      ],
      [
        "▁palabras",
        -9.088193893432617
      ],
      [
        "▁Some",
        -9.017166137695312
      ],
      [
        "▁eres",
        -8.90539836883545
      ],
      [
        "▁See",
        -9.045777320861816
      ],
      [
        "ur",
        -9.811259269714355
      ],
      [
        "▁Ministerio",
        -9.124491691589355
      ],
      [
        "▁operations",
        -8.983549118041992
      ],
      [
        "▁Cuba",
        -9.696929931640625
      ],
      [
        "▁sustainable",
        -8.980488777160645
      ],
      [
        "▁existing",
        -8.9849271774292
      ],
      [
        "▁involved",
        -8.994690895080566
      ],
      [
        "▁utilizar",
        -9.13221263885498
      ],
      [
        "▁actividad",
        -9.12129020690918
      ],
      [
        "▁property",
        -9.000275611877441
      ],
      [
        "▁went",
        -9.095911026000977
      ],
      [
        "▁corazón",
        -9.064343452453613
      ],
      [
        "▁needed",
        -9.00787353515625
      ],
      [
        "▁single",
        -8.997176170349121
      ],
      [
        "▁equipment",
        -8.994544982910156
      ],
      [
        "▁decided",
        -9.003235816955566
      ],
      [
        "▁documentos",
        -9.13709545135498
      ],
      [
        "”,",
        -9.715470314025879
      ],
      [
        "▁conflict",
        -8.984639167785645
      ],
      [
        "▁marketing",
        -9.500125885009766
      ],
      [
        "▁funcionarios",
        -9.126827239990234
      ],
      [
        "▁responsible",
        -9.002164840698242
      ],
      [
        "ven",
        -9.649901390075684
      ],
      [
        "▁regular",
        -9.287619590759277
      ],
      [
        "▁igualdad",
        -9.13146686553955
      ],
      [
        "▁hope",
        -9.043365478515625
      ],
      [
        "▁practice",
        -8.988053321838379
      ],
      [
        "▁poverty",
        -8.997288703918457
      ],
      [
        "see",
        -9.016555786132812
      ],
      [
        "▁Bien",
        -8.90000057220459
      ],
      [
        "▁noted",
        -9.025064468383789
      ],
      [
        "▁India",
        -9.728827476501465
      ],
      [
        "▁responsibility",
        -8.99262809753418
      ],
      [
        "▁puedan",
        -9.124602317810059
      ],
      [
        "vi",
        -9.507701873779297
      ],
      [
        "▁estudios",
        -9.150875091552734
      ],
      [
        "▁cosa",
        -8.970315933227539
      ],
      [
        "▁tales",
        -9.131895065307617
      ],
      [
        "▁big",
        -9.102967262268066
      ],
      [
        "▁Fondo",
        -9.119354248046875
      ],
      [
        "▁funciones",
        -9.147397994995117
      ],
      [
        "▁dirección",
        -9.114853858947754
      ],
      [
        "▁opinión",
        -9.112159729003906
      ],
      [
        "▁coming",
        -9.104410171508789
      ],
      [
        "▁f",
        -9.422578811645508
      ],
      [
        ">",
        -100
      ],
      [
        "▁Add",
        -9.1990966796875
      ],
      [
        "10",
        -9.717850685119629
      ],
      [
        "ism",
        -9.150474548339844
      ],
      [
        "▁standards",
        -9.022537231445312
      ],
      [
        "▁mejores",
        -9.137855529785156
      ],
      [
        "▁Other",
        -8.996222496032715
      ],
      [
        "▁precio",
        -9.105321884155273
      ],
      [
        "▁face",
        -9.059203147888184
      ],
      [
        "ion",
        -9.241118431091309
      ],
      [
        "po",
        -9.643558502197266
      ],
      [
        "▁oportunidad",
        -9.08657455444336
      ],
      [
        "▁gobiernos",
        -9.131949424743652
      ],
      [
        "In",
        -9.550582885742188
      ],
      [
        "▁cumplimiento",
        -9.135993003845215
      ],
      [
        "▁pay",
        -9.046411514282227
      ],
      [
        "▁Todos",
        -9.086846351623535
      ],
      [
        "ge",
        -9.758177757263184
      ],
      [
        "▁head",
        -9.079564094543457
      ],
      [
        "▁OF",
        -8.996932983398438
      ],
      [
        "pro",
        -9.872222900390625
      ],
      [
        ",\"",
        -9.282543182373047
      ],
      [
        "▁varias",
        -9.148219108581543
      ],
      [
        "▁madre",
        -8.98765754699707
      ],
      [
        "▁conjunto",
        -9.139505386352539
      ],
      [
        ".3",
        -9.987798690795898
      ],
      [
        "▁solución",
        -9.132365226745605
      ],
      [
        "▁From",
        -9.06386661529541
      ],
      [
        "▁enough",
        -9.103106498718262
      ],
      [
        "▁serious",
        -9.033008575439453
      ],
      [
        "▁carried",
        -9.005288124084473
      ],
      [
        "▁LA",
        -9.220459938049316
      ],
      [
        "▁Lord",
        -9.103458404541016
      ],
      [
        "▁office",
        -9.054299354553223
      ],
      [
        "▁víctimas",
        -9.159619331359863
      ],
      [
        "▁significa",
        -9.082815170288086
      ],
      [
        "▁vamos",
        -8.951584815979004
      ],
      [
        "▁Spain",
        -9.063161849975586
      ],
      [
        "▁especiales",
        -9.155658721923828
      ],
      [
        "▁Christ",
        -9.05429744720459
      ],
      [
        "▁self",
        -9.03497314453125
      ],
      [
        "ntes",
        -9.23993968963623
      ],
      [
        "▁organization",
        -9.007160186767578
      ],
      [
        "men",
        -9.890829086303711
      ],
      [
        "▁Sólo",
        -8.940746307373047
      ],
      [
        "▁purpose",
        -8.99575138092041
      ],
      [
        "▁actions",
        -9.055066108703613
      ],
      [
        "▁Good",
        -9.217134475708008
      ],
      [
        "▁recent",
        -9.033123970031738
      ],
      [
        "▁early",
        -9.057770729064941
      ],
      [
        "▁relaciones",
        -9.148275375366211
      ],
      [
        "▁poner",
        -9.107767105102539
      ],
      [
        "▁principles",
        -9.025962829589844
      ],
      [
        "▁Ma",
        -9.447970390319824
      ],
      [
        "▁changes",
        -9.068671226501465
      ],
      [
        "▁administración",
        -9.156598091125488
      ],
      [
        "▁1999",
        -9.621620178222656
      ],
      [
        "▁Action",
        -9.015615463256836
      ],
      [
        "▁reducir",
        -9.16129207611084
      ],
      [
        "▁cargo",
        -9.237629890441895
      ],
      [
        "tro",
        -9.761119842529297
      ],
      [
        "▁ahí",
        -8.974823951721191
      ],
      [
        "▁section",
        -9.010004997253418
      ],
      [
        "▁agreed",
        -9.027449607849121
      ],
      [
        "▁instrumentos",
        -9.159422874450684
      ],
      [
        "▁coordinación",
        -9.166324615478516
      ],
      [
        "ista",
        -9.43552303314209
      ],
      [
        "▁l",
        -9.686454772949219
      ],
      [
        "▁companies",
        -9.035176277160645
      ],
      [
        "▁ago",
        -9.117083549499512
      ],
      [
        "▁elementos",
        -9.182316780090332
      ],
      [
        "▁regarding",
        -9.037795066833496
      ],
      [
        "▁Ra",
        -9.465693473815918
      ],
      [
        "▁category",
        -9.022804260253906
      ],
      [
        "at",
        -9.470379829406738
      ],
      [
        "▁France",
        -9.130669593811035
      ],
      [
        "▁mañana",
        -9.029430389404297
      ],
      [
        "▁employment",
        -9.03823471069336
      ],
      [
        "▁España",
        -9.173906326293945
      ],
      [
        "ad",
        -9.731764793395996
      ],
      [
        "▁true",
        -9.100358963012695
      ],
      [
        "vo",
        -9.62816047668457
      ],
      [
        "▁obstante",
        -9.168059349060059
      ],
      [
        "▁questions",
        -9.079724311828613
      ],
      [
        "▁concern",
        -9.031301498413086
      ],
      [
        "CN",
        -9.760676383972168
      ],
      [
        "ismo",
        -9.31411075592041
      ],
      [
        "Te",
        -9.092918395996094
      ],
      [
        "▁safety",
        -9.030261039733887
      ],
      [
        "▁significant",
        -9.041813850402832
      ],
      [
        "▁Junta",
        -9.18901538848877
      ],
      [
        "▁sostenible",
        -9.172989845275879
      ],
      [
        "▁Mo",
        -9.678728103637695
      ],
      [
        "▁Department",
        -9.042098999023438
      ],
      [
        "▁buen",
        -9.079288482666016
      ],
      [
        "▁aspectos",
        -9.176695823669434
      ],
      [
        "6",
        -9.202394485473633
      ],
      [
        "▁Sa",
        -9.506579399108887
      ],
      [
        "▁mandato",
        -9.172099113464355
      ],
      [
        "▁mano",
        -9.109631538391113
      ],
      [
        "▁causa",
        -9.162238121032715
      ],
      [
        "rio",
        -9.570578575134277
      ],
      [
        "jo",
        -9.500723838806152
      ],
      [
        "▁says",
        -9.155355453491211
      ],
      [
        "▁monitoring",
        -9.053913116455078
      ],
      [
        "▁propuestas",
        -9.186609268188477
      ],
      [
        "▁semana",
        -9.099007606506348
      ],
      [
        "▁representatives",
        -9.063183784484863
      ],
      [
        "▁género",
        -9.205948829650879
      ],
      [
        "▁agencies",
        -9.04858684539795
      ],
      [
        "▁itself",
        -9.05827808380127
      ],
      [
        "▁pasa",
        -8.973360061645508
      ],
      [
        ".”",
        -9.394268035888672
      ],
      [
        "che",
        -9.558099746704102
      ],
      [
        "▁delegation",
        -9.02861213684082
      ],
      [
        "▁interior",
        -9.368200302124023
      ],
      [
        "▁Barcelona",
        -9.76372241973877
      ],
      [
        "▁realmente",
        -9.088032722473145
      ],
      [
        "▁3,",
        -10.185186386108398
      ],
      [
        "▁ellas",
        -9.242684364318848
      ],
      [
        "▁greater",
        -9.048048973083496
      ],
      [
        "▁apply",
        -9.059751510620117
      ],
      [
        "▁gubernamentales",
        -9.16987133026123
      ],
      [
        "▁contacto",
        -9.18235969543457
      ],
      [
        "▁van",
        -9.327951431274414
      ],
      [
        "car",
        -9.588603019714355
      ],
      [
        "▁looking",
        -9.169713020324707
      ],
      [
        "▁Report",
        -9.108323097229004
      ],
      [
        "▁posición",
        -9.191977500915527
      ],
      [
        "▁reducción",
        -9.181378364562988
      ],
      [
        "▁Working",
        -9.065077781677246
      ],
      [
        "▁llevar",
        -9.145635604858398
      ],
      [
        "▁industrial",
        -9.649969100952148
      ],
      [
        "▁Sra",
        -9.145500183105469
      ],
      [
        "▁Ministry",
        -9.094808578491211
      ],
      [
        "▁Puede",
        -9.178123474121094
      ],
      [
        "▁response",
        -9.060139656066895
      ],
      [
        "um",
        -9.776921272277832
      ],
      [
        "▁justice",
        -9.083742141723633
      ],
      [
        "lu",
        -9.739459037780762
      ],
      [
        "▁range",
        -9.057062149047852
      ],
      [
        "▁5.",
        -9.94813060760498
      ],
      [
        "▁promoción",
        -9.219005584716797
      ],
      [
        "▁evitar",
        -9.19658374786377
      ],
      [
        "▁última",
        -9.144124031066895
      ],
      [
        "▁auto",
        -9.31937313079834
      ],
      [
        "▁provision",
        -9.04438304901123
      ],
      [
        "▁statement",
        -9.060460090637207
      ],
      [
        "▁pregunta",
        -9.153414726257324
      ],
      [
        "▁language",
        -9.073570251464844
      ],
      [
        "▁hacerlo",
        -9.076640129089355
      ],
      [
        "▁tarde",
        -9.086194038391113
      ],
      [
        "▁develop",
        -9.06533145904541
      ],
      [
        "▁establishment",
        -9.061613082885742
      ],
      [
        "▁pacientes",
        -9.189261436462402
      ],
      [
        "▁below",
        -9.082013130187988
      ],
      [
        "▁Departamento",
        -9.20239543914795
      ],
      [
        "▁makes",
        -9.200480461120605
      ],
      [
        "▁transport",
        -9.064358711242676
      ],
      [
        "▁elegir",
        -9.170977592468262
      ],
      [
        "▁share",
        -9.072979927062988
      ],
      [
        "▁Spanish",
        -9.119338989257812
      ],
      [
        "▁basic",
        -9.06534194946289
      ],
      [
        "♪",
        -100
      ],
      [
        "▁espera",
        -9.110041618347168
      ],
      [
        "▁territorio",
        -9.189508438110352
      ],
      [
        "▁contact",
        -9.112711906433105
      ],
      [
        "j",
        -9.751184463500977
      ],
      [
        "ina",
        -9.693074226379395
      ],
      [
        "▁job",
        -9.15466594696045
      ],
      [
        "▁asked",
        -9.136734008789062
      ],
      [
        "▁Reino",
        -9.207738876342773
      ],
      [
        "ñ",
        -11.085474967956543
      ],
      [
        "▁continued",
        -9.10205078125
      ],
      [
        "▁either",
        -9.111754417419434
      ],
      [
        "▁create",
        -9.069761276245117
      ],
      [
        "▁fuerza",
        -9.16087818145752
      ],
      [
        "▁sorry",
        -9.266796112060547
      ],
      [
        "▁Tengo",
        -9.004210472106934
      ],
      [
        "▁text",
        -9.083276748657227
      ],
      [
        "▁estrategia",
        -9.206696510314941
      ],
      [
        "▁opinion",
        -9.06872844696045
      ],
      [
        "▁delegación",
        -9.2046537399292
      ],
      [
        "▁rural",
        -9.477583885192871
      ],
      [
        "qué",
        -9.079495429992676
      ],
      [
        "▁Bank",
        -9.227693557739258
      ],
      [
        "▁ciudadanos",
        -9.21481990814209
      ],
      [
        "▁return",
        -9.085905075073242
      ],
      [
        "▁team",
        -9.135819435119629
      ],
      [
        "▁competencia",
        -9.192065238952637
      ],
      [
        "▁themselves",
        -9.097187042236328
      ],
      [
        "▁régimen",
        -9.21629810333252
      ],
      [
        "▁segunda",
        -9.21886920928955
      ],
      [
        "▁lack",
        -9.097773551940918
      ],
      [
        "fa",
        -9.732166290283203
      ],
      [
        "▁Here",
        -9.233202934265137
      ],
      [
        "▁Colombia",
        -9.777029037475586
      ],
      [
        "▁prices",
        -9.113243103027344
      ],
      [
        "▁minutes",
        -9.159335136413574
      ],
      [
        "▁cantidad",
        -9.223528861999512
      ],
      [
        "▁Of",
        -9.231404304504395
      ],
      [
        "▁Pre",
        -9.911754608154297
      ],
      [
        "▁John",
        -9.592613220214844
      ],
      [
        "▁agosto",
        -9.243170738220215
      ],
      [
        "▁utilización",
        -9.226805686950684
      ],
      [
        "▁visit",
        -9.128974914550781
      ],
      [
        "▁decisions",
        -9.12597370147705
      ],
      [
        "▁Information",
        -9.129533767700195
      ],
      [
        "▁::",
        -9.906634330749512
      ],
      [
        "5",
        -9.148374557495117
      ],
      [
        "▁trabajar",
        -9.196709632873535
      ],
      [
        "▁obligaciones",
        -9.23037338256836
      ],
      [
        "ty",
        -9.556173324584961
      ],
      [
        "▁doesn",
        -9.244593620300293
      ],
      [
        "▁reason",
        -9.12109375
      ],
      [
        "▁requested",
        -9.095743179321289
      ],
      [
        "▁considera",
        -9.175603866577148
      ],
      [
        "▁éxito",
        -9.205449104309082
      ],
      [
        "land",
        -9.865408897399902
      ],
      [
        "▁wish",
        -9.133877754211426
      ],
      [
        "▁refiere",
        -9.196537017822266
      ],
      [
        "▁effects",
        -9.110416412353516
      ],
      [
        "▁relacionadas",
        -9.237691879272461
      ],
      [
        "U",
        -9.752494812011719
      ],
      [
        "▁necesita",
        -9.176081657409668
      ],
      [
        "am",
        -9.576242446899414
      ],
      [
        "▁design",
        -9.108800888061523
      ],
      [
        "▁works",
        -9.234829902648926
      ],
      [
        "▁allow",
        -9.08745288848877
      ],
      [
        "▁contenido",
        -9.227100372314453
      ],
      [
        "▁act",
        -9.114360809326172
      ],
      [
        "▁analysis",
        -9.093716621398926
      ],
      [
        "▁page",
        -9.104637145996094
      ],
      [
        "▁fuerzas",
        -9.245331764221191
      ],
      [
        "▁clientes",
        -9.234082221984863
      ],
      [
        "▁father",
        -9.213335990905762
      ],
      [
        "▁short",
        -9.128752708435059
      ],
      [
        "▁construcción",
        -9.267511367797852
      ],
      [
        "▁propia",
        -9.20948314666748
      ],
      [
        "▁stop",
        -9.19924545288086
      ],
      [
        "▁Look",
        -9.290911674499512
      ],
      [
        "▁acuerdos",
        -9.303271293640137
      ],
      [
        "▁white",
        -9.149636268615723
      ],
      [
        "▁Asuntos",
        -9.231939315795898
      ],
      [
        "▁Hola",
        -9.010123252868652
      ],
      [
        "▁sección",
        -9.237342834472656
      ],
      [
        "▁blood",
        -9.173503875732422
      ],
      [
        "▁prevent",
        -9.093746185302734
      ],
      [
        "▁top",
        -9.268753051757812
      ],
      [
        "▁domestic",
        -9.121685028076172
      ],
      [
        "▁brought",
        -9.153943061828613
      ],
      [
        "▁Acuerdo",
        -9.222071647644043
      ],
      [
        "▁profesional",
        -9.25511360168457
      ],
      [
        "▁Durante",
        -9.250818252563477
      ],
      [
        "▁strategy",
        -9.130719184875488
      ],
      [
        "▁six",
        -9.134872436523438
      ],
      [
        "▁acciones",
        -9.240711212158203
      ],
      [
        "▁bueno",
        -9.068751335144043
      ],
      [
        "▁industry",
        -9.092979431152344
      ],
      [
        "▁curso",
        -9.23045825958252
      ],
      [
        "▁wanted",
        -9.260866165161133
      ],
      [
        "▁miles",
        -9.782779693603516
      ],
      [
        "▁presentación",
        -9.251733779907227
      ],
      [
        "▁direct",
        -9.122442245483398
      ],
      [
        "ha",
        -9.800567626953125
      ],
      [
        "▁Secretaría",
        -9.249751091003418
      ],
      [
        "▁visto",
        -9.1387357711792
      ],
      [
        "Ã",
        -100
      ],
      [
        "▁representative",
        -9.092052459716797
      ],
      [
        "▁seis",
        -9.228584289550781
      ],
      [
        "▁pueblos",
        -9.286150932312012
      ],
      [
        "▁Santa",
        -9.730345726013184
      ],
      [
        "▁Protocol",
        -9.118117332458496
      ],
      [
        "▁vi",
        -9.31738567352295
      ],
      [
        "▁difícil",
        -9.187882423400879
      ],
      [
        "▁establecido",
        -9.2376708984375
      ],
      [
        "▁humanitarian",
        -9.125781059265137
      ],
      [
        "▁performance",
        -9.14875316619873
      ],
      [
        "▁authority",
        -9.11849308013916
      ],
      [
        "▁Información",
        -9.286046028137207
      ],
      [
        "▁receive",
        -9.12234115600586
      ],
      [
        "▁cambios",
        -9.272520065307617
      ],
      [
        "▁discrimination",
        -9.135194778442383
      ],
      [
        "▁2015",
        -9.775362968444824
      ],
      [
        "▁consecuencia",
        -9.246129035949707
      ],
      [
        "▁along",
        -9.17774772644043
      ],
      [
        "▁Service",
        -9.183402061462402
      ],
      [
        "▁temas",
        -9.28663158416748
      ],
      [
        "▁okay",
        -9.325080871582031
      ],
      [
        "ko",
        -9.791080474853516
      ],
      [
        "▁centros",
        -9.291984558105469
      ],
      [
        "ine",
        -9.91239070892334
      ],
      [
        "▁woman",
        -9.225069046020508
      ],
      [
        "▁palabra",
        -9.208012580871582
      ],
      [
        "▁contained",
        -9.132766723632812
      ],
      [
        "▁hard",
        -9.216796875
      ],
      [
        "▁Declaración",
        -9.258838653564453
      ],
      [
        "▁Australia",
        -9.86996078491211
      ],
      [
        "▁tipos",
        -9.282129287719727
      ],
      [
        "40",
        -9.928540229797363
      ],
      [
        "▁Get",
        -9.308669090270996
      ],
      [
        "▁Creo",
        -9.07516860961914
      ],
      [
        "▁quieres",
        -9.102398872375488
      ],
      [
        "▁propio",
        -9.228565216064453
      ],
      [
        "zo",
        -9.543927192687988
      ],
      [
        "▁expressed",
        -9.135740280151367
      ],
      [
        "▁facilitar",
        -9.28525161743164
      ],
      [
        "▁Agreement",
        -9.101771354675293
      ],
      [
        "dores",
        -9.27243709564209
      ],
      [
        "▁cumplir",
        -9.270219802856445
      ],
      [
        "▁Affairs",
        -9.116093635559082
      ],
      [
        "▁potential",
        -9.133471488952637
      ],
      [
        "ex",
        -9.959503173828125
      ],
      [
        "▁Secretariat",
        -9.124907493591309
      ],
      [
        "▁hear",
        -9.251349449157715
      ],
      [
        "▁expertos",
        -9.27105712890625
      ],
      [
        "▁event",
        -9.138701438903809
      ],
      [
        "▁1998",
        -9.748706817626953
      ],
      [
        "▁normal",
        -9.758868217468262
      ],
      [
        "▁thus",
        -9.128878593444824
      ],
      [
        "▁mother",
        -9.239312171936035
      ],
      [
        "▁assessment",
        -9.124691009521484
      ],
      [
        "▁inglés",
        -9.272623062133789
      ],
      [
        "▁aire",
        -9.260050773620605
      ],
      [
        "▁outside",
        -9.179594039916992
      ],
      [
        "▁generales",
        -9.284636497497559
      ],
      [
        "▁read",
        -9.1726655960083
      ],
      [
        "▁Protocolo",
        -9.27973747253418
      ],
      [
        "▁ma",
        -9.769970893859863
      ],
      [
        "▁actos",
        -9.285141944885254
      ],
      [
        "▁investment",
        -9.126134872436523
      ],
      [
        "AC",
        -9.941694259643555
      ],
      [
        "▁try",
        -9.234085083007812
      ],
      [
        "▁capacitación",
        -9.2855863571167
      ],
      [
        "▁entrada",
        -9.275245666503906
      ],
      [
        "▁puestos",
        -9.309429168701172
      ],
      [
        "▁compromiso",
        -9.25621223449707
      ],
      [
        "▁privado",
        -9.263123512268066
      ],
      [
        "▁iniciativas",
        -9.287050247192383
      ],
      [
        "▁puntos",
        -9.313729286193848
      ],
      [
        "▁official",
        -9.151114463806152
      ],
      [
        "▁Aunque",
        -9.25314712524414
      ],
      [
        "▁directly",
        -9.170427322387695
      ],
      [
        "▁colaboración",
        -9.285614013671875
      ],
      [
        "▁padres",
        -9.258949279785156
      ],
      [
        "▁adoptar",
        -9.279404640197754
      ],
      [
        "ner",
        -9.930886268615723
      ],
      [
        "▁presentar",
        -9.283736228942871
      ],
      [
        "ting",
        -9.496023178100586
      ],
      [
        "▁funds",
        -9.162065505981445
      ],
      [
        "▁patients",
        -9.1549654006958
      ],
      [
        "Add",
        -9.600057601928711
      ],
      [
        "▁bar",
        -9.829803466796875
      ],
      [
        "▁algún",
        -9.185873031616211
      ],
      [
        "Me",
        -9.277518272399902
      ],
      [
        "▁35",
        -9.851441383361816
      ],
      [
        "▁Free",
        -9.346297264099121
      ],
      [
        "▁rule",
        -9.14171028137207
      ],
      [
        "▁x",
        -9.934947967529297
      ],
      [
        "▁essential",
        -9.145975112915039
      ],
      [
        "▁whose",
        -9.169178009033203
      ],
      [
        "▁reported",
        -9.176728248596191
      ],
      [
        "▁Todo",
        -9.144216537475586
      ],
      [
        "▁Mission",
        -9.163926124572754
      ],
      [
        "▁doctor",
        -9.537225723266602
      ],
      [
        "▁higher",
        -9.178176879882812
      ],
      [
        "ización",
        -9.381832122802734
      ],
      [
        "▁complete",
        -9.212766647338867
      ],
      [
        "▁activity",
        -9.16258716583252
      ],
      [
        "▁previous",
        -9.159638404846191
      ],
      [
        "▁events",
        -9.177870750427246
      ],
      [
        "▁history",
        -9.19044017791748
      ],
      [
        "▁extra",
        -9.8715238571167
      ],
      [
        "▁radio",
        -9.848665237426758
      ],
      [
        "▁economía",
        -9.285058975219727
      ],
      [
        "▁principle",
        -9.13375186920166
      ],
      [
        "▁ejercicio",
        -9.285027503967285
      ],
      [
        "▁anterior",
        -9.283503532409668
      ],
      [
        "▁nadie",
        -9.143067359924316
      ],
      [
        "▁weapons",
        -9.172896385192871
      ],
      [
        "20",
        -9.899490356445312
      ],
      [
        "cho",
        -9.75158405303955
      ],
      [
        "▁ingresos",
        -9.318815231323242
      ],
      [
        "▁ideas",
        -9.951459884643555
      ],
      [
        "▁mecanismos",
        -9.313074111938477
      ],
      [
        "▁created",
        -9.192922592163086
      ],
      [
        "▁campo",
        -9.270798683166504
      ],
      [
        "▁2014",
        -9.840041160583496
      ],
      [
        "▁opportunity",
        -9.18034839630127
      ],
      [
        "▁sent",
        -9.207005500793457
      ],
      [
        "▁asegurar",
        -9.313739776611328
      ],
      [
        "ate",
        -9.72122859954834
      ],
      [
        "▁Global",
        -9.448868751525879
      ],
      [
        "▁origen",
        -9.301297187805176
      ],
      [
        "▁solicitud",
        -9.29776382446289
      ],
      [
        "▁nucleares",
        -9.295931816101074
      ],
      [
        "▁forms",
        -9.197609901428223
      ],
      [
        "▁Después",
        -9.269745826721191
      ],
      [
        "▁primero",
        -9.23721981048584
      ],
      [
        "ke",
        -9.832878112792969
      ],
      [
        "▁practices",
        -9.197345733642578
      ],
      [
        "▁points",
        -9.204889297485352
      ],
      [
        "▁tenido",
        -9.244636535644531
      ],
      [
        "▁soon",
        -9.241327285766602
      ],
      [
        "50",
        -9.85438346862793
      ],
      [
        "ran",
        -9.62646198272705
      ],
      [
        "▁move",
        -9.24012565612793
      ],
      [
        "▁diálogo",
        -9.302019119262695
      ],
      [
        "▁French",
        -9.21314525604248
      ],
      [
        "tó",
        -9.394990921020508
      ],
      [
        "▁lead",
        -9.183568000793457
      ],
      [
        "term",
        -9.21385669708252
      ],
      [
        "▁lugares",
        -9.312629699707031
      ],
      [
        "▁ubicación",
        -9.298280715942383
      ],
      [
        "▁St",
        -9.568984031677246
      ],
      [
        "▁marca",
        -9.301556587219238
      ],
      [
        "▁pesar",
        -9.304794311523438
      ],
      [
        "tion",
        -10.099222183227539
      ],
      [
        "▁rest",
        -9.256982803344727
      ],
      [
        "▁grande",
        -9.248896598815918
      ],
      [
        "▁East",
        -9.27415943145752
      ],
      [
        "▁directamente",
        -9.297728538513184
      ],
      [
        "▁content",
        -9.222161293029785
      ],
      [
        "▁examinar",
        -9.310914039611816
      ],
      [
        "▁court",
        -9.194735527038574
      ],
      [
        "▁Kingdom",
        -9.184615135192871
      ],
      [
        "▁disponibles",
        -9.36430549621582
      ],
      [
        "▁objectives",
        -9.182929039001465
      ],
      [
        "▁hayan",
        -9.311366081237793
      ],
      [
        "▁foreign",
        -9.193099021911621
      ],
      [
        "▁evidence",
        -9.212091445922852
      ],
      [
        "▁incluidos",
        -9.354763984680176
      ],
      [
        "@",
        -100
      ],
      [
        "▁dispuesto",
        -9.287917137145996
      ],
      [
        "▁Sur",
        -9.530996322631836
      ],
      [
        "▁planes",
        -9.38418960571289
      ],
      [
        "▁propiedad",
        -9.321322441101074
      ],
      [
        "qui",
        -9.853528022766113
      ],
      [
        "▁leyes",
        -9.321627616882324
      ],
      [
        "▁adopción",
        -9.317276000976562
      ],
      [
        "▁victims",
        -9.221536636352539
      ],
      [
        "▁book",
        -9.223808288574219
      ],
      [
        "et",
        -9.728611946105957
      ],
      [
        "▁amigo",
        -9.151710510253906
      ],
      [
        "▁saw",
        -9.303963661193848
      ],
      [
        "▁32",
        -9.865951538085938
      ],
      [
        "tes",
        -9.560171127319336
      ],
      [
        "▁1995",
        -9.779515266418457
      ],
      [
        "▁communication",
        -9.179744720458984
      ],
      [
        "ber",
        -9.963257789611816
      ],
      [
        "▁demasiado",
        -9.214496612548828
      ],
      [
        "▁City",
        -9.483619689941406
      ],
      [
        "ían",
        -9.316088676452637
      ],
      [
        "▁documents",
        -9.212784767150879
      ],
      [
        "▁test",
        -9.330434799194336
      ],
      [
        "▁week",
        -9.237290382385254
      ],
      [
        "Z",
        -9.930069923400879
      ],
      [
        "▁mes",
        -9.451580047607422
      ],
      [
        "▁easy",
        -9.263319969177246
      ],
      [
        "▁teniendo",
        -9.318875312805176
      ],
      [
        "▁turn",
        -9.240226745605469
      ],
      [
        "▁proteger",
        -9.323993682861328
      ],
      [
        "▁word",
        -9.239080429077148
      ],
      [
        "▁wrong",
        -9.336010932922363
      ],
      [
        "▁reference",
        -9.182723999023438
      ],
      [
        "▁implement",
        -9.223759651184082
      ],
      [
        "▁half",
        -9.260441780090332
      ],
      [
        "▁continuación",
        -9.332776069641113
      ],
      [
        "▁prevención",
        -9.332769393920898
      ],
      [
        "em",
        -9.868571281433105
      ],
      [
        "▁heard",
        -9.295173645019531
      ],
      [
        "▁regiones",
        -9.341978073120117
      ],
      [
        "▁esté",
        -9.260270118713379
      ],
      [
        "▁Informe",
        -9.320323944091797
      ],
      [
        "▁financieros",
        -9.343426704406738
      ],
      [
        "▁45",
        -9.937124252319336
      ],
      [
        "▁Francia",
        -9.337228775024414
      ],
      [
        "▁adoption",
        -9.213964462280273
      ],
      [
        "▁currently",
        -9.213699340820312
      ],
      [
        "▁Li",
        -9.738696098327637
      ],
      [
        "▁While",
        -9.211048126220703
      ],
      [
        "▁estaban",
        -9.299586296081543
      ],
      [
        "▁gusta",
        -9.136785507202148
      ],
      [
        "▁Mexico",
        -9.272370338439941
      ],
      [
        "▁forward",
        -9.228285789489746
      ],
      [
        "min",
        -9.95837688446045
      ],
      [
        "▁administrative",
        -9.201478004455566
      ],
      [
        "▁laws",
        -9.283421516418457
      ],
      [
        "▁médico",
        -9.314351081848145
      ],
      [
        "▁freedom",
        -9.204087257385254
      ],
      [
        "▁amigos",
        -9.2797269821167
      ],
      [
        "▁muestra",
        -9.33718490600586
      ],
      [
        "ero",
        -9.748068809509277
      ],
      [
        "▁term",
        -9.21148681640625
      ],
      [
        "▁serán",
        -9.351773262023926
      ],
      [
        "▁Ta",
        -9.767889022827148
      ],
      [
        "tas",
        -9.516757011413574
      ],
      [
        "▁Wi",
        -10.002579689025879
      ],
      [
        "▁recibir",
        -9.343031883239746
      ],
      [
        "▁facilities",
        -9.226303100585938
      ],
      [
        "▁fácil",
        -9.284021377563477
      ],
      [
        "▁venta",
        -9.339119911193848
      ],
      [
        "▁Since",
        -9.23281192779541
      ],
      [
        "▁existe",
        -9.32698917388916
      ],
      [
        "▁comprehensive",
        -9.206814765930176
      ],
      [
        "▁obligations",
        -9.235033988952637
      ],
      [
        "▁prueba",
        -9.297592163085938
      ],
      [
        "▁behalf",
        -9.215907096862793
      ],
      [
        "▁determinar",
        -9.360075950622559
      ],
      [
        "▁cierto",
        -9.252355575561523
      ],
      [
        "▁active",
        -9.262960433959961
      ],
      [
        "▁seguimiento",
        -9.363120079040527
      ],
      [
        "▁hubiera",
        -9.2488374710083
      ],
      [
        "▁Quiero",
        -9.15651798248291
      ],
      [
        "ul",
        -10.038150787353516
      ],
      [
        "▁achieve",
        -9.212567329406738
      ],
      [
        "▁forces",
        -9.252080917358398
      ],
      [
        "▁6.",
        -10.064910888671875
      ],
      [
        "▁longer",
        -9.257864952087402
      ],
      [
        "▁universal",
        -9.906353950500488
      ],
      [
        "nes",
        -9.70666217803955
      ],
      [
        "▁reduce",
        -9.398884773254395
      ],
      [
        "▁comes",
        -9.336612701416016
      ],
      [
        "▁dialogue",
        -9.230629920959473
      ],
      [
        "▁mission",
        -9.2379789352417
      ],
      [
        "▁usar",
        -9.33704948425293
      ],
      [
        "▁amplia",
        -9.336369514465332
      ],
      [
        "▁cause",
        -9.268038749694824
      ],
      [
        "▁80",
        -9.923784255981445
      ],
      [
        "▁Porque",
        -9.205026626586914
      ],
      [
        "▁First",
        -9.285745620727539
      ],
      [
        "ú",
        -9.810226440429688
      ],
      [
        "Re",
        -9.96701717376709
      ],
      [
        "▁art",
        -9.434255599975586
      ],
      [
        "▁1997",
        -9.793267250061035
      ],
      [
        "▁deberá",
        -9.338469505310059
      ],
      [
        "▁rather",
        -9.250337600708008
      ],
      [
        "▁Inter",
        -9.704813957214355
      ],
      [
        "ana",
        -9.952569961547852
      ],
      [
        "▁strong",
        -9.260244369506836
      ],
      [
        "▁matters",
        -9.247125625610352
      ],
      [
        "▁autor",
        -9.417411804199219
      ],
      [
        "▁Costa",
        -9.974214553833008
      ],
      [
        "▁medical",
        -9.24940013885498
      ],
      [
        "▁Madrid",
        -9.967658042907715
      ],
      [
        "▁rental",
        -9.263138771057129
      ],
      [
        "▁Mac",
        -9.991252899169922
      ],
      [
        "▁suficiente",
        -9.278002738952637
      ],
      [
        "den",
        -10.009446144104004
      ],
      [
        "▁relativo",
        -9.339125633239746
      ],
      [
        "▁figura",
        -9.343426704406738
      ],
      [
        "▁strengthen",
        -9.237018585205078
      ],
      [
        "▁Declaration",
        -9.233723640441895
      ],
      [
        "▁Z",
        -9.835563659667969
      ],
      [
        "miento",
        -9.563189506530762
      ],
      [
        "▁clase",
        -9.28763484954834
      ],
      [
        "▁representante",
        -9.331865310668945
      ],
      [
        "▁sectores",
        -9.370546340942383
      ],
      [
        "▁vigor",
        -9.364891052246094
      ],
      [
        "▁Según",
        -9.36876106262207
      ],
      [
        "▁Bo",
        -9.813200950622559
      ],
      [
        "▁focus",
        -9.244888305664062
      ],
      [
        "▁commitment",
        -9.227944374084473
      ],
      [
        "▁marcha",
        -9.344740867614746
      ],
      [
        "▁Misión",
        -9.388558387756348
      ],
      [
        "▁fines",
        -9.447895050048828
      ],
      [
        "▁entitled",
        -9.240614891052246
      ],
      [
        "▁conflictos",
        -9.380613327026367
      ],
      [
        "▁Code",
        -9.260896682739258
      ],
      [
        "du",
        -9.835429191589355
      ],
      [
        "▁difficult",
        -9.270029067993164
      ],
      [
        "▁Contact",
        -9.346334457397461
      ],
      [
        "based",
        -9.241954803466797
      ],
      [
        "▁Estamos",
        -9.294783592224121
      ],
      [
        ".6",
        -10.164362907409668
      ],
      [
        "30",
        -9.879984855651855
      ],
      [
        "▁misión",
        -9.368127822875977
      ],
      [
        "▁beautiful",
        -9.309109687805176
      ],
      [
        "Se",
        -9.385416984558105
      ],
      [
        "▁IV",
        -9.95305061340332
      ],
      [
        "▁Per",
        -9.913981437683105
      ],
      [
        "▁establish",
        -9.235244750976562
      ],
      [
        "▁designed",
        -9.267422676086426
      ],
      [
        "▁protect",
        -9.261347770690918
      ],
      [
        "▁incluye",
        -9.37890338897705
      ],
      [
        "▁throughout",
        -9.259048461914062
      ],
      [
        "▁internal",
        -9.23222827911377
      ],
      [
        "▁coordination",
        -9.226218223571777
      ],
      [
        "▁presencia",
        -9.367745399475098
      ],
      [
        "ster",
        -10.199577331542969
      ],
      [
        "▁connection",
        -9.241247177124023
      ],
      [
        "▁someone",
        -9.38031005859375
      ],
      [
        "▁Usted",
        -9.291114807128906
      ],
      [
        "▁sabes",
        -9.180578231811523
      ],
      [
        "▁podrían",
        -9.385625839233398
      ],
      [
        "▁imagen",
        -9.389604568481445
      ],
      [
        "▁oficial",
        -9.366259574890137
      ],
      [
        "▁comunidades",
        -9.392034530639648
      ],
      [
        "▁happened",
        -9.40067195892334
      ],
      [
        "▁fotos",
        -9.553841590881348
      ],
      [
        "▁México",
        -9.415523529052734
      ],
      [
        "ling",
        -9.685670852661133
      ],
      [
        "▁Código",
        -9.401795387268066
      ],
      [
        "90",
        -10.067547798156738
      ],
      [
        "▁Centre",
        -9.342635154724121
      ],
      [
        "▁36",
        -9.999573707580566
      ],
      [
        "▁met",
        -9.384492874145508
      ],
      [
        "▁Health",
        -9.327363967895508
      ],
      [
        "▁Penal",
        -9.606346130371094
      ],
      [
        "▁Chile",
        -9.926963806152344
      ],
      [
        ".7",
        -10.08481216430664
      ],
      [
        "▁reform",
        -9.238505363464355
      ],
      [
        "▁viaje",
        -9.341174125671387
      ],
      [
        "▁equal",
        -9.267019271850586
      ],
      [
        "▁rooms",
        -9.314804077148438
      ],
      [
        "▁addressed",
        -9.256887435913086
      ],
      [
        "▁2018",
        -9.968947410583496
      ],
      [
        "▁reforma",
        -9.385047912597656
      ],
      [
        "▁única",
        -9.330564498901367
      ],
      [
        "▁preocupación",
        -9.392053604125977
      ],
      [
        "▁trying",
        -9.368712425231934
      ],
      [
        "▁90",
        -9.975716590881348
      ],
      [
        "▁agreements",
        -9.26409912109375
      ],
      [
        "▁terrorismo",
        -9.379128456115723
      ],
      [
        "▁Entre",
        -9.419184684753418
      ],
      [
        "▁instruments",
        -9.269370079040527
      ],
      [
        "▁presented",
        -9.266487121582031
      ],
      [
        "sh",
        -9.834298133850098
      ],
      [
        "▁deal",
        -9.30610179901123
      ],
      [
        "▁mm",
        -10.029096603393555
      ],
      [
        "▁acts",
        -9.26801872253418
      ],
      [
        "▁Pe",
        -9.933862686157227
      ],
      [
        "▁girls",
        -9.334519386291504
      ],
      [
        "▁1994",
        -9.838114738464355
      ],
      [
        "▁limited",
        -9.267349243164062
      ],
      [
        "▁sabe",
        -9.216734886169434
      ],
      [
        "▁naturaleza",
        -9.39148998260498
      ],
      [
        "▁Ms",
        -9.4139404296875
      ],
      [
        "▁paso",
        -9.35035228729248
      ],
      [
        "▁ustedes",
        -9.297050476074219
      ],
      [
        "der",
        -9.76383113861084
      ],
      [
        "▁friend",
        -9.369573593139648
      ],
      [
        "▁EUR",
        -9.846814155578613
      ],
      [
        "▁alcanzar",
        -9.393111228942871
      ],
      [
        "▁citizens",
        -9.269866943359375
      ],
      [
        "Í",
        -100
      ],
      [
        "▁independiente",
        -9.401448249816895
      ],
      [
        "▁resolutions",
        -9.325207710266113
      ],
      [
        "▁actually",
        -9.330845832824707
      ],
      [
        "▁run",
        -9.33910846710205
      ],
      [
        "▁almost",
        -9.332667350769043
      ],
      [
        "▁proposals",
        -9.27177619934082
      ],
      [
        "▁Qué",
        -9.252453804016113
      ],
      [
        "▁Ex",
        -10.005226135253906
      ],
      [
        "▁habitaciones",
        -9.430365562438965
      ],
      [
        "▁saying",
        -9.378865242004395
      ],
      [
        "▁financiera",
        -9.39582347869873
      ],
      [
        "▁modelo",
        -9.419024467468262
      ],
      [
        "▁Convenio",
        -9.39586353302002
      ],
      [
        "▁pruebas",
        -9.391589164733887
      ],
      [
        "▁model",
        -9.33953857421875
      ],
      [
        "▁Commissioner",
        -9.27614688873291
      ],
      [
        "▁Servicios",
        -9.42646312713623
      ],
      [
        "▁attorneys",
        -9.251715660095215
      ],
      [
        "▁lives",
        -9.34976863861084
      ],
      [
        "▁conocimiento",
        -9.39604663848877
      ],
      [
        "▁toma",
        -9.333935737609863
      ],
      [
        "age",
        -9.637194633483887
      ],
      [
        "▁Decision",
        -9.237479209899902
      ],
      [
        "▁steps",
        -9.300332069396973
      ],
      [
        "▁David",
        -10.031265258789062
      ],
      [
        "Con",
        -9.722792625427246
      ],
      [
        "▁reserva",
        -9.389239311218262
      ],
      [
        "▁eficaz",
        -9.409419059753418
      ],
      [
        "▁pasar",
        -9.314886093139648
      ],
      [
        "▁ways",
        -9.360642433166504
      ],
      [
        "▁girl",
        -9.41800308227539
      ],
      [
        "▁bad",
        -9.424799919128418
      ],
      [
        "art",
        -9.908421516418457
      ],
      [
        "▁funcionamiento",
        -9.410806655883789
      ],
      [
        "▁bienes",
        -9.418899536132812
      ],
      [
        "▁students",
        -9.306038856506348
      ],
      [
        "▁Carta",
        -9.407209396362305
      ],
      [
        "▁fine",
        -9.411158561706543
      ],
      [
        "▁deberían",
        -9.403026580810547
      ],
      [
        "▁program",
        -9.322279930114746
      ],
      [
        "▁approved",
        -9.28320026397705
      ],
      [
        "▁fondo",
        -9.389850616455078
      ],
      [
        "▁Po",
        -9.866894721984863
      ],
      [
        "▁par",
        -9.600480079650879
      ],
      [
        "id",
        -9.796712875366211
      ],
      [
        "▁labour",
        -9.274335861206055
      ],
      [
        "▁quienes",
        -9.421805381774902
      ],
      [
        "▁takes",
        -9.432144165039062
      ],
      [
        "line",
        -9.828027725219727
      ],
      [
        "▁During",
        -9.29697322845459
      ],
      [
        "▁economy",
        -9.290149688720703
      ],
      [
        "▁exchange",
        -9.267843246459961
      ],
      [
        "▁Acción",
        -9.405583381652832
      ],
      [
        "▁grave",
        -9.79313850402832
      ],
      [
        "▁indigenous",
        -9.3064603805542
      ],
      [
        "▁gave",
        -9.358071327209473
      ],
      [
        "▁benefits",
        -9.313867568969727
      ],
      [
        "▁37",
        -10.000322341918945
      ],
      [
        "▁getting",
        -9.430838584899902
      ],
      [
        "▁regions",
        -9.3060884475708
      ],
      [
        "▁Decisión",
        -9.40865421295166
      ],
      [
        "▁annual",
        -9.307535171508789
      ],
      [
        "gar",
        -9.858773231506348
      ],
      [
        "▁families",
        -9.317197799682617
      ],
      [
        "▁enfoque",
        -9.415060043334961
      ],
      [
        "▁disposición",
        -9.4185791015625
      ],
      [
        "▁views",
        -9.345452308654785
      ],
      [
        "▁políticos",
        -9.424062728881836
      ],
      [
        "▁fight",
        -9.357365608215332
      ],
      [
        "▁familias",
        -9.481698036193848
      ],
      [
        "▁valores",
        -9.42918586730957
      ],
      [
        "ian",
        -9.718976974487305
      ],
      [
        "by",
        -9.756967544555664
      ],
      [
        "▁parts",
        -9.370646476745605
      ],
      [
        "▁pago",
        -9.409097671508789
      ],
      [
        "▁else",
        -9.441575050354004
      ],
      [
        "▁volver",
        -9.318607330322266
      ],
      [
        "▁armed",
        -9.317570686340332
      ],
      [
        "▁moment",
        -9.336576461791992
      ],
      [
        "▁Gran",
        -9.598484992980957
      ],
      [
        "▁balance",
        -9.534221649169922
      ],
      [
        "▁items",
        -9.352015495300293
      ],
      [
        "▁committed",
        -9.304275512695312
      ],
      [
        "▁Executive",
        -9.300966262817383
      ],
      [
        "▁though",
        -9.355584144592285
      ],
      [
        "▁Governments",
        -9.344474792480469
      ],
      [
        "ES",
        -9.881745338439941
      ],
      [
        "▁Unido",
        -9.414634704589844
      ],
      [
        "▁friends",
        -9.401530265808105
      ],
      [
        "▁Estos",
        -9.45485782623291
      ],
      [
        "▁communities",
        -9.322244644165039
      ],
      [
        "▁challenges",
        -9.331145286560059
      ],
      [
        "mer",
        -10.110403060913086
      ],
      [
        "▁crime",
        -9.327421188354492
      ],
      [
        "▁fundamentales",
        -9.434401512145996
      ],
      [
        "▁asuntos",
        -9.432174682617188
      ],
      [
        "▁mandate",
        -9.292152404785156
      ],
      [
        "▁70",
        -10.033065795898438
      ],
      [
        "▁intereses",
        -9.433371543884277
      ],
      [
        "org",
        -10.183562278747559
      ],
      [
        "▁website",
        -9.349127769470215
      ],
      [
        "▁Minister",
        -9.276738166809082
      ],
      [
        "▁Because",
        -9.421700477600098
      ],
      [
        "fe",
        -9.917062759399414
      ],
      [
        "▁escala",
        -9.427836418151855
      ],
      [
        "▁vote",
        -9.2875337600708
      ],
      [
        "▁quién",
        -9.263864517211914
      ],
      [
        "▁plans",
        -9.356217384338379
      ],
      [
        "▁Rapporteur",
        -9.30582046508789
      ],
      [
        "▁obra",
        -9.406767845153809
      ],
      [
        "9",
        -9.496203422546387
      ],
      [
        "▁1996",
        -9.881760597229004
      ],
      [
        "▁includes",
        -9.350910186767578
      ],
      [
        "▁Soy",
        -9.282803535461426
      ],
      [
        "▁enjoy",
        -9.310826301574707
      ],
      [
        "▁issued",
        -9.325611114501953
      ],
      [
        "▁menores",
        -9.453916549682617
      ],
      [
        "▁coche",
        -9.360748291015625
      ],
      [
        "▁consecuencias",
        -9.450031280517578
      ],
      [
        "▁EN",
        -9.792771339416504
      ],
      [
        "▁average",
        -9.334725379943848
      ],
      [
        "▁remain",
        -9.318897247314453
      ],
      [
        "▁tuvo",
        -9.42449951171875
      ],
      [
        "▁mechanisms",
        -9.332197189331055
      ],
      [
        "▁7.",
        -10.112181663513184
      ],
      [
        "▁materials",
        -9.312745094299316
      ],
      [
        "▁goods",
        -9.382309913635254
      ],
      [
        "▁sale",
        -9.568201065063477
      ],
      [
        "▁autoridad",
        -9.425149917602539
      ],
      [
        "▁positive",
        -9.31649398803711
      ],
      [
        "tor",
        -9.840301513671875
      ],
      [
        "▁planning",
        -9.331695556640625
      ],
      [
        "▁alquiler",
        -9.465324401855469
      ],
      [
        "▁necesarias",
        -9.435590744018555
      ],
      [
        "nd",
        -9.794910430908203
      ],
      [
        "▁expected",
        -9.317004203796387
      ],
      [
        "▁2005,",
        -10.156596183776855
      ],
      [
        "▁dead",
        -9.470937728881836
      ],
      [
        "▁gratis",
        -9.554180145263672
      ],
      [
        "▁hacen",
        -9.396247863769531
      ],
      [
        "▁conflicto",
        -9.442333221435547
      ],
      [
        "▁diseño",
        -9.448990821838379
      ],
      [
        "▁joint",
        -9.326286315917969
      ],
      [
        "▁procesos",
        -9.52371597290039
      ],
      [
        "▁aprobación",
        -9.45718765258789
      ],
      [
        "35",
        -10.156311988830566
      ],
      [
        "▁establece",
        -9.444817543029785
      ],
      [
        "▁near",
        -9.394608497619629
      ],
      [
        "▁2006,",
        -10.150672912597656
      ],
      [
        "▁According",
        -9.34376335144043
      ],
      [
        "▁claro",
        -9.359832763671875
      ],
      [
        "chi",
        -9.972264289855957
      ],
      [
        "im",
        -10.05904483795166
      ],
      [
        "▁participar",
        -9.464164733886719
      ],
      [
        "▁político",
        -9.437243461608887
      ],
      [
        "▁added",
        -9.322410583496094
      ],
      [
        "▁dejar",
        -9.377891540527344
      ],
      [
        "▁2016",
        -10.033114433288574
      ],
      [
        "▁dicha",
        -9.444012641906738
      ],
      [
        "▁Ne",
        -10.102987289428711
      ],
      [
        "19",
        -9.952862739562988
      ],
      [
        "▁reporting",
        -9.346606254577637
      ],
      [
        "80",
        -10.096592903137207
      ],
      [
        "▁network",
        -9.317205429077148
      ],
      [
        "▁industria",
        -9.432616233825684
      ],
      [
        "▁alrededor",
        -9.454839706420898
      ],
      [
        "▁solution",
        -9.316351890563965
      ],
      [
        "ación",
        -9.436424255371094
      ],
      [
        "▁ad",
        -10.435855865478516
      ],
      [
        "▁siglo",
        -9.47482681274414
      ],
      [
        "▁conseguir",
        -9.406814575195312
      ],
      [
        "▁connect",
        -9.325515747070312
      ],
      [
        "▁materiales",
        -9.459373474121094
      ],
      [
        "▁yourself",
        -9.44930362701416
      ],
      [
        "▁2017",
        -10.084918975830078
      ],
      [
        "ary",
        -9.752392768859863
      ],
      [
        "Fi",
        -10.133017539978027
      ],
      [
        "▁Web",
        -10.089374542236328
      ],
      [
        "Quién",
        -9.23568344116211
      ],
      [
        "▁Red",
        -10.013115882873535
      ],
      [
        "▁popular",
        -9.915079116821289
      ],
      [
        "▁Pi",
        -9.874374389648438
      ],
      [
        "▁understanding",
        -9.354668617248535
      ],
      [
        "▁prepared",
        -9.341915130615234
      ],
      [
        "▁UNICEF",
        -10.031167984008789
      ],
      [
        "▁details",
        -9.376907348632812
      ],
      [
        "0",
        -9.579551696777344
      ],
      [
        "▁participantes",
        -9.474187850952148
      ],
      [
        "▁mg",
        -10.014431953430176
      ],
      [
        "▁table",
        -9.356803894042969
      ],
      [
        "▁beginning",
        -9.356249809265137
      ],
      [
        "▁4,",
        -10.4718017578125
      ],
      [
        "▁Regional",
        -9.793526649475098
      ],
      [
        "▁presentado",
        -9.463726997375488
      ],
      [
        "▁Germany",
        -9.32104206085205
      ],
      [
        "▁diversos",
        -9.478082656860352
      ],
      [
        "▁operation",
        -9.331643104553223
      ],
      [
        "▁inversión",
        -9.46307373046875
      ],
      [
        "▁completa",
        -9.451964378356934
      ],
      [
        "▁indígenas",
        -9.491849899291992
      ],
      [
        "▁partners",
        -9.354413032531738
      ],
      [
        "▁Ella",
        -9.345869064331055
      ],
      [
        "▁Mira",
        -9.335268020629883
      ],
      [
        "ho",
        -9.98727035522461
      ],
      [
        "▁trans",
        -10.228974342346191
      ],
      [
        "one",
        -9.620692253112793
      ],
      [
        "▁cabeza",
        -9.33859634399414
      ],
      [
        "▁Ca",
        -9.715035438537598
      ],
      [
        "▁physical",
        -9.345961570739746
      ],
      [
        "▁former",
        -9.348043441772461
      ],
      [
        "▁morning",
        -9.455385208129883
      ],
      [
        "Dónde",
        -9.255131721496582
      ],
      [
        "▁33",
        -10.030779838562012
      ],
      [
        "▁movement",
        -9.33788013458252
      ],
      [
        "▁guy",
        -9.522917747497559
      ],
      [
        "▁benefit",
        -9.330484390258789
      ],
      [
        "▁aspects",
        -9.350934982299805
      ],
      [
        "▁studies",
        -9.34277629852295
      ],
      [
        "▁alone",
        -9.442842483520508
      ],
      [
        "▁supuesto",
        -9.35432243347168
      ],
      [
        "▁reduction",
        -9.32744026184082
      ],
      [
        "ler",
        -10.07398509979248
      ],
      [
        "▁remember",
        -9.478216171264648
      ],
      [
        "▁enseñanza",
        -9.487241744995117
      ],
      [
        "▁Hi",
        -10.009164810180664
      ],
      [
        "▁started",
        -9.422390937805176
      ],
      [
        "▁series",
        -9.487974166870117
      ],
      [
        "▁tenga",
        -9.40611457824707
      ],
      [
        "▁militar",
        -9.519044876098633
      ],
      [
        "we",
        -10.1244535446167
      ],
      [
        "▁bed",
        -9.56573486328125
      ],
      [
        "▁transfer",
        -9.333808898925781
      ],
      [
        "▁parents",
        -9.407934188842773
      ],
      [
        "▁North",
        -9.550893783569336
      ],
      [
        "▁Start",
        -9.38341236114502
      ],
      [
        "▁Ar",
        -9.829812049865723
      ],
      [
        "▁blanco",
        -9.461282730102539
      ],
      [
        "▁personnel",
        -9.362757682800293
      ],
      [
        "▁centre",
        -9.417010307312012
      ],
      [
        "▁People",
        -9.381632804870605
      ],
      [
        "▁Party",
        -9.391572952270508
      ],
      [
        "▁initiatives",
        -9.361299514770508
      ],
      [
        "▁priority",
        -9.372591972351074
      ],
      [
        "▁escuela",
        -9.42877197265625
      ],
      [
        "▁concepto",
        -9.480379104614258
      ],
      [
        "▁conocer",
        -9.461572647094727
      ],
      [
        "▁iniciativa",
        -9.478104591369629
      ],
      [
        "EEC",
        -9.326373100280762
      ],
      [
        "▁requisitos",
        -9.475852966308594
      ],
      [
        "▁lost",
        -9.44149398803711
      ],
      [
        "▁front",
        -9.42410659790039
      ],
      [
        "▁Ad",
        -9.974516868591309
      ],
      [
        "▁negocio",
        -9.455321311950684
      ],
      [
        "▁200",
        -10.091155052185059
      ],
      [
        "▁resoluciones",
        -9.501399993896484
      ],
      [
        "▁usuarios",
        -9.503350257873535
      ],
      [
        "▁contributions",
        -9.376465797424316
      ],
      [
        "▁ready",
        -9.454740524291992
      ],
      [
        "▁Alemania",
        -9.486007690429688
      ],
      [
        "▁conocimientos",
        -9.526144027709961
      ],
      [
        "▁cookies",
        -10.110405921936035
      ],
      [
        "▁truth",
        -9.425631523132324
      ],
      [
        "▁Juan",
        -9.886984825134277
      ],
      [
        "▁step",
        -9.386930465698242
      ],
      [
        "ley",
        -10.058387756347656
      ],
      [
        "▁Paul",
        -9.760841369628906
      ],
      [
        "▁Services",
        -9.459762573242188
      ],
      [
        "▁tendrá",
        -9.442185401916504
      ],
      [
        "▁Federal",
        -9.913338661193848
      ],
      [
        "▁oportunidades",
        -9.503948211669922
      ],
      [
        "▁tax",
        -9.443448066711426
      ],
      [
        "▁Ho",
        -10.035298347473145
      ],
      [
        "▁Google",
        -10.079750061035156
      ],
      [
        "▁purposes",
        -9.377917289733887
      ],
      [
        "ive",
        -9.631336212158203
      ],
      [
        "▁Da",
        -9.85370922088623
      ],
      [
        "▁across",
        -9.402820587158203
      ],
      [
        "▁independent",
        -9.389249801635742
      ],
      [
        "▁fuerte",
        -9.438983917236328
      ],
      [
        "▁search",
        -9.397464752197266
      ],
      [
        "▁promotion",
        -9.372987747192383
      ],
      [
        "rán",
        -9.293859481811523
      ],
      [
        "▁published",
        -9.38660717010498
      ],
      [
        "gan",
        -9.792152404785156
      ],
      [
        "▁á",
        -9.569252014160156
      ],
      [
        "70",
        -10.2345552444458
      ],
      [
        "▁interests",
        -9.395572662353516
      ],
      [
        "▁ideal",
        -10.140579223632812
      ],
      [
        "▁recommended",
        -9.395071983337402
      ],
      [
        "▁2004,",
        -10.210741996765137
      ],
      [
        "▁produce",
        -9.844996452331543
      ],
      [
        "▁error",
        -9.886733055114746
      ],
      [
        "▁trabajos",
        -9.594300270080566
      ],
      [
        "▁38",
        -10.093894958496094
      ],
      [
        "▁month",
        -9.405299186706543
      ],
      [
        "for",
        -9.690414428710938
      ],
      [
        "ras",
        -9.658159255981445
      ],
      [
        "▁Congo",
        -10.060563087463379
      ],
      [
        "▁Salvador",
        -10.104610443115234
      ],
      [
        "CEE",
        -9.46809196472168
      ],
      [
        "▁diversas",
        -9.514175415039062
      ],
      [
        "▁objective",
        -9.350606918334961
      ],
      [
        "▁respeto",
        -9.482095718383789
      ],
      [
        "▁pursuant",
        -9.369425773620605
      ],
      [
        "▁hospital",
        -10.105079650878906
      ],
      [
        "▁covered",
        -9.384568214416504
      ],
      [
        "▁48",
        -10.108396530151367
      ],
      [
        "▁aquellos",
        -9.522448539733887
      ],
      [
        "▁entidades",
        -9.517105102539062
      ],
      [
        "▁búsqueda",
        -9.5390625
      ],
      [
        "▁Jehová",
        -9.492311477661133
      ],
      [
        "▁dedicated",
        -9.411545753479004
      ],
      [
        "▁refugiados",
        -9.5177583694458
      ],
      [
        "tal",
        -9.984618186950684
      ],
      [
        "▁agentes",
        -9.52548885345459
      ],
      [
        "▁ca",
        -9.787557601928711
      ],
      [
        "▁Did",
        -9.56605052947998
      ],
      [
        "ization",
        -9.46914291381836
      ],
      [
        "▁places",
        -9.47136116027832
      ],
      [
        "▁Medio",
        -9.486918449401855
      ],
      [
        "▁dónde",
        -9.36794376373291
      ],
      [
        "▁actualmente",
        -9.510536193847656
      ],
      [
        "▁mismos",
        -9.577315330505371
      ],
      [
        "Lo",
        -9.441594123840332
      ],
      [
        "▁carta",
        -9.47070026397705
      ],
      [
        "▁Aquí",
        -9.353487968444824
      ],
      [
        "▁os",
        -9.972372055053711
      ],
      [
        "▁34",
        -10.078017234802246
      ],
      [
        "▁hold",
        -9.442148208618164
      ],
      [
        "▁constituye",
        -9.537364959716797
      ],
      [
        "▁applicable",
        -9.371206283569336
      ],
      [
        "▁creation",
        -9.394137382507324
      ],
      [
        "▁pequeño",
        -9.4365873336792
      ],
      [
        "▁Church",
        -9.439654350280762
      ],
      [
        "▁plenamente",
        -9.518294334411621
      ],
      [
        "▁penal",
        -9.680754661560059
      ],
      [
        "▁completo",
        -9.496806144714355
      ],
      [
        "▁Ben",
        -10.183638572692871
      ],
      [
        "–",
        -10.18554401397705
      ],
      [
        "▁town",
        -9.46210765838623
      ],
      [
        "▁articles",
        -9.438786506652832
      ],
      [
        "▁Latin",
        -9.396809577941895
      ],
      [
        "▁applied",
        -9.37459659576416
      ],
      [
        "▁opportunities",
        -9.397931098937988
      ],
      [
        "▁Total",
        -9.980430603027344
      ],
      [
        "▁sangre",
        -9.445176124572754
      ],
      [
        "▁preparación",
        -9.528461456298828
      ],
      [
        "▁vas",
        -9.359240531921387
      ],
      [
        "▁Russian",
        -9.38782787322998
      ],
      [
        "▁cover",
        -9.405485153198242
      ],
      [
        "▁standard",
        -9.397730827331543
      ],
      [
        "▁Italia",
        -9.543452262878418
      ],
      [
        "▁1993",
        -9.959917068481445
      ],
      [
        "60",
        -10.214241981506348
      ],
      [
        "est",
        -9.672176361083984
      ],
      [
        "▁comerciales",
        -9.523805618286133
      ],
      [
        "▁infraestructura",
        -9.525984764099121
      ],
      [
        "▁2007,",
        -10.229646682739258
      ],
      [
        "▁manos",
        -9.444178581237793
      ],
      [
        "▁observaciones",
        -9.540131568908691
      ],
      [
        "▁podía",
        -9.444355010986328
      ],
      [
        "▁reasons",
        -9.423501014709473
      ],
      [
        "▁consultas",
        -9.540848731994629
      ],
      [
        "▁cambiar",
        -9.509134292602539
      ],
      [
        "▁peoples",
        -9.544971466064453
      ],
      [
        "▁Justice",
        -9.438063621520996
      ],
      [
        "▁máximo",
        -9.5149507522583
      ],
      [
        "▁income",
        -9.393396377563477
      ],
      [
        "▁talking",
        -9.547735214233398
      ],
      [
        "gen",
        -10.32707405090332
      ],
      [
        "▁reconocimiento",
        -9.533856391906738
      ],
      [
        "▁poor",
        -9.43506908416748
      ],
      [
        "of",
        -9.579087257385254
      ],
      [
        "▁travel",
        -9.39671802520752
      ],
      [
        "15",
        -10.116843223571777
      ],
      [
        "▁West",
        -9.725640296936035
      ],
      [
        "▁news",
        -9.624784469604492
      ],
      [
        "▁registro",
        -9.522621154785156
      ],
      [
        "▁prevention",
        -9.411831855773926
      ],
      [
        "▁Portugal",
        -10.06494426727295
      ],
      [
        "▁2000,",
        -10.241313934326172
      ],
      [
        "▁eficacia",
        -9.533395767211914
      ],
      [
        "▁multi",
        -9.86904239654541
      ],
      [
        "bi",
        -9.975757598876953
      ],
      [
        "▁coches",
        -9.55155086517334
      ],
      [
        "ant",
        -9.78200912475586
      ],
      [
        "▁exercise",
        -9.39285945892334
      ],
      [
        "mail",
        -9.90980052947998
      ],
      [
        "▁terreno",
        -9.524957656860352
      ],
      [
        "era",
        -9.885354995727539
      ],
      [
        "▁2003,",
        -10.213687896728516
      ],
      [
        "▁proporcionar",
        -9.527853965759277
      ],
      [
        "▁distintos",
        -9.55097770690918
      ],
      [
        "▁celebrada",
        -9.520822525024414
      ],
      [
        "▁diferencia",
        -9.497994422912598
      ],
      [
        "▁!",
        -10.382347106933594
      ],
      [
        "95",
        -10.189218521118164
      ],
      [
        "▁dio",
        -9.498971939086914
      ],
      [
        "▁Pacto",
        -9.559167861938477
      ],
      [
        "▁Económico",
        -9.513211250305176
      ],
      [
        "▁century",
        -9.448972702026367
      ],
      [
        "25",
        -10.077988624572754
      ],
      [
        "▁Ja",
        -10.134514808654785
      ],
      [
        "▁apoyar",
        -9.543072700500488
      ],
      [
        "▁perfect",
        -9.448193550109863
      ],
      [
        "▁download",
        -9.438050270080566
      ],
      [
        "▁Cu",
        -9.992658615112305
      ],
      [
        "▁consiguiente",
        -9.552183151245117
      ],
      [
        "▁Windows",
        -10.131701469421387
      ],
      [
        "▁importa",
        -9.36225414276123
      ],
      [
        "▁Paris",
        -9.649415969848633
      ],
      [
        "▁House",
        -9.637594223022461
      ],
      [
        "▁sense",
        -9.434280395507812
      ],
      [
        "▁necesarios",
        -9.566107749938965
      ],
      [
        "▁comercial",
        -9.540748596191406
      ],
      [
        "▁funding",
        -9.413633346557617
      ],
      [
        "▁territory",
        -9.408123970031738
      ],
      [
        "▁rates",
        -9.43187427520752
      ],
      [
        "▁individuals",
        -9.461766242980957
      ],
      [
        "▁road",
        -9.447702407836914
      ],
      [
        "▁associated",
        -9.412384986877441
      ],
      [
        "▁notes",
        -9.477499961853027
      ],
      [
        "▁2002,",
        -10.205227851867676
      ],
      [
        "▁elements",
        -9.426737785339355
      ],
      [
        "▁sir",
        -9.626423835754395
      ],
      [
        "▁reach",
        -9.44089412689209
      ],
      [
        "▁letter",
        -9.435175895690918
      ],
      [
        "istas",
        -9.622620582580566
      ],
      [
        "▁mas",
        -9.495640754699707
      ],
      [
        "▁oil",
        -9.415987968444824
      ],
      [
        "▁Palestinian",
        -9.394303321838379
      ],
      [
        "▁integración",
        -9.554948806762695
      ],
      [
        "▁evaluation",
        -9.406970977783203
      ],
      [
        "▁Justicia",
        -9.560445785522461
      ],
      [
        "▁supported",
        -9.423839569091797
      ],
      [
        "▁Rusia",
        -9.517946243286133
      ],
      [
        "ated",
        -9.906167984008789
      ],
      [
        "ros",
        -9.856639862060547
      ],
      [
        "▁size",
        -9.43117618560791
      ],
      [
        "▁modern",
        -9.443537712097168
      ],
      [
        "▁states",
        -9.473339080810547
      ],
      [
        "▁presenta",
        -9.50586223602295
      ],
      [
        "▁profesionales",
        -9.573814392089844
      ],
      [
        "▁Sal",
        -9.88586139678955
      ],
      [
        "▁implementing",
        -9.418396949768066
      ],
      [
        "▁professional",
        -9.426627159118652
      ],
      [
        "▁estructura",
        -9.52931022644043
      ],
      [
        "▁check",
        -9.507829666137695
      ],
      [
        "▁schools",
        -9.462930679321289
      ],
      [
        "▁Puerto",
        -10.189048767089844
      ],
      [
        "▁disponible",
        -9.56335735321045
      ],
      [
        "▁ten",
        -9.78373908996582
      ],
      [
        "▁públicos",
        -9.59389591217041
      ],
      [
        "▁cuentas",
        -9.620356559753418
      ],
      [
        "▁factor",
        -10.09205436706543
      ],
      [
        "▁discussion",
        -9.4132080078125
      ],
      [
        "▁menor",
        -9.543733596801758
      ],
      [
        "?\"",
        -10.095833778381348
      ],
      [
        "▁libro",
        -9.50121021270752
      ],
      [
        "▁carga",
        -9.547711372375488
      ],
      [
        "he",
        -9.98087215423584
      ],
      [
        "▁ve",
        -9.379434585571289
      ],
      [
        "▁map",
        -9.469569206237793
      ],
      [
        "▁2008,",
        -10.283011436462402
      ],
      [
        "▁strengthening",
        -9.434989929199219
      ],
      [
        "▁Ka",
        -9.951019287109375
      ],
      [
        "▁Cristo",
        -9.577472686767578
      ],
      [
        "▁Estas",
        -9.60998821258545
      ],
      [
        "▁visita",
        -9.52013874053955
      ],
      [
        "▁HIV",
        -9.442656517028809
      ],
      [
        "▁Ro",
        -9.98939037322998
      ],
      [
        "▁mercados",
        -9.585248947143555
      ],
      [
        "ger",
        -10.144225120544434
      ],
      [
        "▁paid",
        -9.460495948791504
      ],
      [
        "▁climate",
        -9.453285217285156
      ],
      [
        "▁criterios",
        -9.55489444732666
      ],
      [
        "▁stated",
        -9.43615436553955
      ],
      [
        "▁clave",
        -9.578068733215332
      ],
      [
        "▁calls",
        -9.480436325073242
      ],
      [
        "▁Italy",
        -9.43703842163086
      ],
      [
        "▁guys",
        -9.639449119567871
      ],
      [
        "▁tratados",
        -9.574599266052246
      ],
      [
        "▁Tal",
        -9.579705238342285
      ],
      [
        "▁culture",
        -9.442631721496582
      ],
      [
        "OS",
        -10.133110046386719
      ],
      [
        "▁himself",
        -9.491911888122559
      ],
      [
        "▁preguntas",
        -9.541391372680664
      ],
      [
        "▁affected",
        -9.437002182006836
      ],
      [
        "▁recomienda",
        -9.566149711608887
      ],
      [
        "tar",
        -9.675731658935547
      ],
      [
        "▁construction",
        -9.450693130493164
      ],
      [
        "▁vivir",
        -9.488490104675293
      ],
      [
        "▁Arab",
        -9.395461082458496
      ],
      [
        "▁stage",
        -9.433640480041504
      ],
      [
        "▁elaboración",
        -9.576070785522461
      ],
      [
        "ah",
        -10.037025451660156
      ],
      [
        "ze",
        -10.344504356384277
      ],
      [
        "tos",
        -9.676079750061035
      ],
      [
        "▁traditional",
        -9.446966171264648
      ],
      [
        "▁prestar",
        -9.578697204589844
      ],
      [
        "▁estudiantes",
        -9.573110580444336
      ],
      [
        "▁motor",
        -10.026857376098633
      ],
      [
        "▁distribución",
        -9.59607219696045
      ],
      [
        "▁phone",
        -9.529888153076172
      ],
      [
        "▁administration",
        -9.425267219543457
      ],
      [
        "▁ground",
        -9.465535163879395
      ],
      [
        "▁podrán",
        -9.556682586669922
      ],
      [
        "▁everyone",
        -9.514117240905762
      ],
      [
        "▁mo",
        -9.960606575012207
      ],
      [
        "▁animal",
        -9.956611633300781
      ],
      [
        "▁finales",
        -9.603656768798828
      ],
      [
        "▁source",
        -9.444527626037598
      ],
      [
        "▁oficiales",
        -9.569463729858398
      ],
      [
        "▁condición",
        -9.573653221130371
      ],
      [
        "▁presence",
        -9.466008186340332
      ],
      [
        "gue",
        -10.100973129272461
      ],
      [
        "des",
        -9.996155738830566
      ],
      [
        "cia",
        -9.977261543273926
      ],
      [
        "▁negociaciones",
        -9.577873229980469
      ],
      [
        "▁Right",
        -9.586434364318848
      ],
      [
        "▁safe",
        -9.496771812438965
      ],
      [
        "99",
        -10.211292266845703
      ],
      [
        "▁tratar",
        -9.542220115661621
      ],
      [
        "▁University",
        -9.550824165344238
      ],
      [
        "▁contribution",
        -9.422661781311035
      ],
      [
        "▁8.",
        -10.278451919555664
      ],
      [
        "▁manner",
        -9.453506469726562
      ],
      [
        "▁rápido",
        -9.474384307861328
      ],
      [
        "▁sur",
        -9.789548873901367
      ],
      [
        "▁anual",
        -9.585577964782715
      ],
      [
        "▁1990",
        -9.915800094604492
      ],
      [
        "mar",
        -10.073095321655273
      ],
      [
        "▁Derecho",
        -9.587672233581543
      ],
      [
        "▁Fue",
        -9.5013427734375
      ],
      [
        "ida",
        -9.9016752243042
      ],
      [
        "▁t",
        -10.037734985351562
      ],
      [
        "▁opiniones",
        -9.592262268066406
      ],
      [
        "▁mensaje",
        -9.537482261657715
      ],
      [
        "▁VI",
        -10.289145469665527
      ],
      [
        "▁drug",
        -9.460827827453613
      ],
      [
        "véase",
        -9.577985763549805
      ],
      [
        "24",
        -10.18024730682373
      ],
      [
        "▁learn",
        -9.485483169555664
      ],
      [
        "7",
        -9.461040496826172
      ],
      [
        "▁Paz",
        -9.677657127380371
      ],
      [
        "▁hands",
        -9.565267562866211
      ],
      [
        "▁anteriores",
        -9.604413032531738
      ],
      [
        "▁remains",
        -9.492716789245605
      ],
      [
        "▁organized",
        -9.463784217834473
      ],
      [
        "▁económicos",
        -9.603447914123535
      ],
      [
        "▁Under",
        -9.468579292297363
      ],
      [
        "▁Universidad",
        -9.693894386291504
      ],
      [
        "Km",
        -10.217531204223633
      ],
      [
        "▁led",
        -9.485093116760254
      ],
      [
        "▁relationship",
        -9.479491233825684
      ],
      [
        "▁queda",
        -9.660158157348633
      ],
      [
        "▁carry",
        -9.475836753845215
      ],
      [
        "▁EL",
        -9.674610137939453
      ],
      [
        "OR",
        -10.099759101867676
      ],
      [
        "▁redes",
        -9.615327835083008
      ],
      [
        "▁build",
        -9.4822359085083
      ],
      [
        "▁cultura",
        -9.57789134979248
      ],
      [
        "8",
        -9.378256797790527
      ],
      [
        "▁Association",
        -9.648075103759766
      ],
      [
        "▁aimed",
        -9.46625804901123
      ],
      [
        "▁teléfono",
        -9.519906044006348
      ],
      [
        "▁Solo",
        -9.517498970031738
      ],
      [
        "▁salir",
        -9.449806213378906
      ],
      [
        "▁Her",
        -9.838939666748047
      ],
      [
        "ji",
        -10.192008972167969
      ],
      [
        "▁desea",
        -9.554544448852539
      ],
      [
        "▁contribute",
        -9.446715354919434
      ],
      [
        "▁wife",
        -9.590017318725586
      ],
      [
        "▁played",
        -9.532376289367676
      ],
      [
        "▁oficina",
        -9.526015281677246
      ],
      [
        "ki",
        -10.108443260192871
      ],
      [
        "▁written",
        -9.48796272277832
      ],
      [
        "cion",
        -9.74268913269043
      ],
      [
        "96",
        -10.278349876403809
      ],
      [
        "▁circumstances",
        -9.468968391418457
      ],
      [
        "▁familiar",
        -9.86668586730957
      ],
      [
        "▁cuadro",
        -9.572977066040039
      ],
      [
        "▁Iglesia",
        -9.607492446899414
      ],
      [
        "UE",
        -9.668190002441406
      ],
      [
        "▁métodos",
        -9.607847213745117
      ],
      [
        "▁consumo",
        -9.608423233032227
      ],
      [
        "▁términos",
        -9.61740779876709
      ],
      [
        "▁IN",
        -9.96721363067627
      ],
      [
        "▁Civil",
        -9.833616256713867
      ],
      [
        "▁wait",
        -9.625398635864258
      ],
      [
        "▁sound",
        -9.510668754577637
      ],
      [
        "▁cross",
        -9.496085166931152
      ],
      [
        "para",
        -10.051376342773438
      ],
      [
        "▁instalaciones",
        -9.615553855895996
      ],
      [
        "governmental",
        -9.440381050109863
      ],
      [
        "year",
        -9.494231224060059
      ],
      [
        "▁competition",
        -9.47309398651123
      ],
      [
        "▁types",
        -9.499610900878906
      ],
      [
        "▁v",
        -9.918351173400879
      ],
      [
        ".9",
        -10.417901039123535
      ],
      [
        "▁comments",
        -9.47982406616211
      ],
      [
        "▁Muy",
        -9.410612106323242
      ],
      [
        "▁inside",
        -9.566401481628418
      ],
      [
        "out",
        -9.657358169555664
      ],
      [
        "▁semanas",
        -9.577140808105469
      ],
      [
        "▁alcance",
        -9.610028266906738
      ],
      [
        "▁increasing",
        -9.483345031738281
      ],
      [
        "▁incluido",
        -9.610269546508789
      ],
      [
        "▁riesgos",
        -9.629236221313477
      ],
      [
        "12",
        -10.168421745300293
      ],
      [
        "▁elecciones",
        -9.613227844238281
      ],
      [
        "▁conectar",
        -9.561508178710938
      ],
      [
        "▁Criminal",
        -9.556421279907227
      ],
      [
        "▁Du",
        -10.097554206848145
      ],
      [
        "▁ven",
        -9.608733177185059
      ],
      [
        "▁enfermedad",
        -9.589377403259277
      ],
      [
        "can",
        -10.374250411987305
      ],
      [
        "▁Corte",
        -9.635028839111328
      ],
      [
        "▁2001,",
        -10.304640769958496
      ],
      [
        "▁asunto",
        -9.538215637207031
      ],
      [
        "▁overall",
        -9.4749174118042
      ],
      [
        "▁entire",
        -9.525155067443848
      ],
      [
        "▁religious",
        -9.500978469848633
      ],
      [
        "▁implemented",
        -9.507237434387207
      ],
      [
        "▁adicionales",
        -9.61323070526123
      ],
      [
        "▁pequeña",
        -9.557711601257324
      ],
      [
        "▁tercer",
        -9.610758781433105
      ],
      [
        "▁killed",
        -9.602232933044434
      ],
      [
        "▁faith",
        -9.518589973449707
      ],
      [
        "▁strive",
        -9.471808433532715
      ],
      [
        "▁fuente",
        -9.622859954833984
      ],
      [
        "▁cocina",
        -9.610345840454102
      ],
      [
        "▁Search",
        -9.591012001037598
      ],
      [
        "▁send",
        -9.531448364257812
      ],
      [
        "▁estrategias",
        -9.637310028076172
      ],
      [
        "▁VIH",
        -9.607141494750977
      ],
      [
        "▁incluidas",
        -9.626269340515137
      ],
      [
        "▁arms",
        -9.51063060760498
      ],
      [
        "▁speak",
        -9.53577709197998
      ],
      [
        "▁processes",
        -9.488807678222656
      ],
      [
        "▁arrangements",
        -9.473692893981934
      ],
      [
        "▁quite",
        -9.60727596282959
      ],
      [
        "▁baño",
        -9.581199645996094
      ],
      [
        "▁isn",
        -9.731253623962402
      ],
      [
        "▁kill",
        -9.655501365661621
      ],
      [
        "▁nice",
        -9.639874458312988
      ],
      [
        "▁brand",
        -9.507372856140137
      ],
      [
        "▁cuarto",
        -9.5413179397583
      ],
      [
        "▁relations",
        -9.49176025390625
      ],
      [
        "▁posibles",
        -9.64684009552002
      ],
      [
        "▁awareness",
        -9.48840045928955
      ],
      [
        "▁Saint",
        -9.86909294128418
      ],
      [
        "▁situaciones",
        -9.612715721130371
      ],
      [
        "▁record",
        -9.631998062133789
      ],
      [
        "▁naturales",
        -9.62553882598877
      ],
      [
        "▁UNCTAD",
        -10.180928230285645
      ],
      [
        "▁equipos",
        -9.658464431762695
      ],
      [
        "▁versión",
        -9.673259735107422
      ],
      [
        "▁ganar",
        -9.571324348449707
      ],
      [
        "▁establishing",
        -9.475103378295898
      ],
      [
        "less",
        -9.56186294555664
      ],
      [
        "▁although",
        -9.508987426757812
      ],
      [
        "▁comunicaciones",
        -9.617844581604004
      ],
      [
        "tiva",
        -9.811114311218262
      ],
      [
        "▁militares",
        -9.612110137939453
      ],
      [
        "▁supply",
        -9.49213981628418
      ],
      [
        "io",
        -9.970808029174805
      ],
      [
        "▁Public",
[...]
