{"version": "1.0", "truncation": null, "padding": null, "added_tokens": [{"id": 0, "special": true, "content": "</s>", "single_word": false, "lstrip": false, "rstrip": false, "normalized": false}, {"id": 1, "special": true, "content": "<unk>", "single_word": false, "lstrip": false, "rstrip": false, "normalized": false}, {"id": 64109, "special": true, "content": "<pad>", "single_word": false, "lstrip": false, "rstrip": false, "normalized": false}], "normalizer": null, "pre_tokenizer": {"type": "Sequence", "pretokenizers": [{"type": "WhitespaceSplit"}, {"type": "Metaspace", "replacement": "\u2581", "add_prefix_space": true}]}, "post_processor": {"type": "TemplateProcessing", "single": [{"Sequence": {"id": "A", "type_id": 0}}, {"SpecialToken": {"id": "</s>", "type_id": 0}}], "pair": [{"Sequence": {"id": "A", "type_id": 0}}, {"SpecialToken": {"id": "</s>", "type_id": 0}}, {"Sequence": {"id": "B", "type_id": 0}}, {"SpecialToken": {"id": "</s>", "type_id": 0}}], "special_tokens": {"</s>": {"id": "</s>", "ids": [0], "tokens": ["</s>"]}}}, "decoder": {"type": "Metaspace", "replacement": "\u2581", "add_prefix_space": true}, "model": {"type": "Unigram", "unk_id": 2, "vocab": [["</s>", 0.0], ["<unk>", 0.0], [".", -3.225841999053955], [",", -3.1737072467803955], ["\u2581", -3.2807865142822266], ["\u2581the", -3.23479962348938], ["s", -4.163301944732666], ["\u2581to", -3.7941877841949463], ["\u2581of", -3.770817518234253], ["\u2581a", -4.391673564910889], ["\u2581and", -3.914572238922119], ["\u2581in", -4.330062389373779], ["?", -4.970003128051758], [":", -5.172393798828125], ["\u2581that", -4.667913913726807], ["'", -5.177247047424316], ["\u2581-", -5.675113201141357], ["\u2581is", -4.789570331573486], ["\u2581(", -5.640811920166016], ["\u2581e", -5.3572468757629395], ["-", -5.7451887130737305], ["\u2581I", -5.0756025314331055], ["\u2581for", -4.934410095214844], ["\u2581you", -4.8630757331848145], [")", -5.806147575378418], ["a", -5.200358867645264], ["\u200c", -5.24528694152832], ["\u2581\u201d", -5.428814888000488], ["t", -5.732636451721191], ["\u2581\u201c", -5.420158386230469], ["\u2581na", -5.574148178100586], ["\u2581be", -5.193592071533203], ["\u2581i", -5.6116108894348145], ["i", -5.3372321128845215], ["\u2019", -5.588820457458496], ["e", -5.535881996154785], ["\u2581not", -5.230958938598633], ["\u2581te", -5.845133304595947], ["\u2581he", -5.599492073059082], ["\u2581with", -5.290848731994629], ["\u2581on", -5.410315036773682], ["u", -5.729311466217041], ["\u2581de", -6.046237468719482], ["\u2581it", -5.390760898590088], ["\u2581we", -5.516234874725342], ["d", -6.19655704498291], [";", -5.9711503982543945], ["m", -6.148248672485352], ["\u2581o", -6.067136287689209], ["\u2581are", -5.509324073791504], ["o", -5.754322528839111], ["\u2581The", -5.547521114349365], ["\u2581an", -6.23762845993042], ["\u2581as", -5.65138053894043], ["\u2581\u2014", -6.0619072914123535], ["\u2581will", -5.509573936462402], ["\u2581have", -5.534356117248535], ["\u2581was", -5.56591272354126], ["!", -6.168089389801025], ["\u2581his", -5.560294151306152], ["na", -6.191492080688477], ["\u2581God", -5.623634338378906], ["n", -5.840822696685791], ["\u2581A", -6.648757457733154], ["\u2581ti", -6.250394344329834], ["\u2581sa", -6.3947978019714355], ["\u2581they", -5.650866508483887], ["\u2581do", -6.067251205444336], ["\u2581Jehovah", -5.75821590423584], ["\u2581me", -6.285574913024902], ["\u2581from", -5.713665962219238], ["\u2581by", -5.7708539962768555], ["\u2581this", -5.796198844909668], ["\u2581li", -6.360880374908447], ["\u2581\u2018", -6.492793560028076], ["ta", -6.397006034851074], ["\u2581ka", -6.44452428817749], ["la", -6.422183513641357], ["\u2581la", -6.498241901397705], ["\u2581so", -6.600240707397461], ["y", -6.361639022827148], ["\u2581or", -5.890603065490723], ["ka", -6.392947196960449], ["\u2581them", -5.850286960601807], ["\u2581ku", -6.396742343902588], ["\u2581nga", -6.469155311584473], ["\u2581your", -5.897881031036377], ["r", -6.297853946685791], ["\u2581who", -5.887522220611572], ["te", -6.582954406738281], ["k", -6.3401618003845215], ["ni", -6.610171794891357], ["\u2581all", -5.9881815910339355], ["\u2581their", -5.935945510864258], ["\u2581_", -6.5157976150512695], ["re", -6.924095153808594], ["\u2581can", -6.026616096496582], ["\u2581at", -6.2099432945251465], ["ti", -6.607400417327881], ["...", -6.744135856628418], ["\u2581ma", -6.5908918380737305], ["\u2581him", -6.001829147338867], ["\u2581le", -6.644685745239258], ["\u2581ni", -6.677809238433838], ["\u2581ko", -6.557723522186279], ["\u2581no", -6.730266094207764], ["\u2581ne", -6.645178318023682], ["l", -6.482790946960449], ["da", -6.639913082122803], ["\u2581se", -6.71859884262085], ["li", -6.6047844886779785], ["\u2581ta", -6.677664279937744], ["an", -6.52486515045166], ["\u2581di", -6.666240215301514], ["\u2581ki", -6.651995658874512], ["\u2581ha", -6.669620990753174], ["\u060c", -6.541634559631348], ["\u2581ya", -6.695701599121094], ["\u2581%", -6.800130367279053], ["si", -6.745084762573242], ["c", -6.701498985290527], ["\u2581n", -6.643842697143555], ["ma", -6.685999393463135], ["\u2581\"", -6.580819606781006], ["to", -6.895753860473633], ["le", -6.740879058837891], ["en", -6.676401615142822], ["\u2581E", -6.828365325927734], ["ra", -6.744529724121094], ["\u2581us", -6.191112041473389], ["ne", -6.872594833374023], ["\u2581our", -6.180761814117432], ["\u2581u", -6.758352279663086], ["g", -6.668376445770264], ["er", -6.993716239929199], ["\u2581what", -6.189846992492676], ["\u2581da", -6.9516520500183105], ["ga", -6.774934768676758], ["b", -6.846030235290527], ["ko", -6.8360466957092285], ["\u2581\u2019", -6.996752738952637], ["ing", -6.2688984870910645], ["\u2581He", -6.350541591644287], ["\u2581Jesus", -6.3643903732299805], ["se", -6.9370036125183105], ["\u2581And", -6.218356132507324], ["lo", -6.887522220611572], ["sa", -6.915256500244141], ["de", -6.927316665649414], ["\u2581my", -6.348521709442139], ["\u2581ke", -6.860964298248291], ["\u2581one", -6.276345252990723], ["\u2581pa", -6.915090084075928], ["\u2581\u0648", -6.785767555236816], ["\u2581were", -6.2972002029418945], ["\u2581has", -6.303699016571045], ["\u25811", -7.195457935333252], ["in", -7.022724628448486], ["no", -7.081066608428955], ["\u2581mo", -6.931359767913818], ["tu", -6.983242988586426], ["\u2581In", -6.572057247161865], ["\u2581[", -6.904442310333252], ["\u2581si", -7.0199198722839355], ["\u2581What", -6.362008571624756], ["/", -7.251720428466797], ["\u2581when", -6.345454692840576], ["\u2581ri", -6.98766565322876], ["\u2581had", -6.393233299255371], ["\u2581We", -6.442173004150391], ["ba", -6.954680442810059], ["wa", -6.9234161376953125], ["\u2581but", -6.397134304046631], ["\u2581ba", -6.969696521759033], ["h", -6.8282551765441895], ["\u0323", -6.808694362640381], ["ri", -7.015630722045898], ["\u2581which", -6.414839744567871], ["\u0631", -7.079418182373047], ["\u0646", -7.005487442016602], ["\u2581people", -6.408776760101318], ["\u2581mu", -7.0291643142700195], ["ro", -7.155252456665039], ["z", -6.9283528327941895], ["p", -6.921834945678711], ["\u2581en", -7.157367706298828], ["ke", -7.0588226318359375], ["\u2581s", -7.362422466278076], ["\u2581O", -7.286925792694092], ["\u06cc", -6.947230815887451], ["ya", -7.092588901519775], ["ja", -7.152316570281982], ["\u2581re", -7.268640518188477], ["mi", -7.154351711273193], ["j", -7.0625691413879395], ["ku", -7.1202569007873535], ["\u2018", -6.921645164489746], ["\u2581about", -6.527668476104736], ["]", -7.183743476867676], ["\u2581shall", -6.535523891448975], ["di", -7.152153015136719], ["\u2581may", -6.624515533447266], ["ed", -6.869318962097168], ["\u2581out", -6.584301471710205], ["\u2581You", -6.619579315185547], ["\u2581those", -6.552346229553223], ["\u0442", -7.334870338439941], ["va", -7.245486736297607], ["ar", -7.0983757972717285], ["\u2581said", -6.59523344039917], ["\u2581Bible", -6.6820831298828125], ["\u2581y", -7.304361820220947], ["\u2581man", -7.047834873199463], ["\u2581wa", -7.204606533050537], ["\u2581would", -6.612344741821289], ["ve", -7.498138904571533], ["lu", -7.285544395446777], ["\u2581d", -7.2710771560668945], ["\u2581l", -7.233891487121582], ["ki", -7.188901901245117], ["\u2581S", -7.398064613342285], ["me", -7.279168605804443], ["mo", -7.373171806335449], ["ng", -7.159170627593994], ["\u2581It", -6.701843738555908], ["\u2581up", -6.726212978363037], ["\u2581va", -7.278955936431885], ["\u0648", -7.208029747009277], ["\u02c8", -7.273192882537842], ["\u2581if", -6.672413349151611], ["al", -7.439563751220703], ["\u2581\u00ab", -7.239735126495361], ["\u2581time", -6.697725772857666], ["je", -7.402713298797607], ["ha", -7.265594005584717], ["\u2581et", -7.31587028503418], ["do", -7.394919395446777], ["\u2581un", -7.482549667358398], ["\u2581did", -6.7274065017700195], ["\u2581there", -6.754746437072754], ["ye", -7.307261943817139], ["zi", -7.314023017883301], ["\u2581tu", -7.370848178863525], ["ch", -7.357357978820801], ["\u02bc", -7.333609104156494], ["x", -7.446718692779541], ["mu", -7.408596992492676], ["\u0647", -7.274460315704346], ["ci", -7.458568572998047], ["\u043c", -7.465530872344971], ["yo", -7.372461795806885], ["\u2581been", -6.784634590148926], ["\u2581How", -6.793313503265381], ["es", -7.441338539123535], ["\u2581should", -6.799233436584473], ["v", -7.369551658630371], ["be", -7.453280925750732], ["\u2581also", -6.819669246673584], ["\u2581her", -6.8932576179504395], ["_", -7.572203159332275], ["\u0441", -7.489449501037598], ["\u2581No", -7.306321144104004], ["\u0645", -7.4999003410339355], ["pa", -7.439456939697266], ["w", -7.403813362121582], ["st", -7.540643215179443], ["\u2581more", -6.850486755371094], ["vi", -7.549766540527344], ["\u7684", -7.351505756378174], ["\u043b", -7.480830192565918], ["hi", -7.515608787536621], ["is", -7.3870978355407715], ["\u2581Na", -7.512774467468262], ["\u043a", -7.519289970397949], ["za", -7.508605480194092], ["\u2581\u0438", -7.623856067657471], ["\u2581ye", -7.760002136230469], ["\u0439", -7.584031105041504], ["\u2581But", -6.8850202560424805], ["\u2581ra", -7.577205181121826], ["\u2581b", -7.740677356719971], ["bi", -7.514509201049805], ["\u2581\u0628\u0647", -7.318320274353027], ["\u2581know", -6.900277614593506], ["\u2581bi", -7.542328834533691], ["\u2581su", -7.58536434173584], ["ly", -7.39245080947876], ["\u0445", -7.6931986808776855], ["\u2581c", -7.502941131591797], ["\u0443", -7.552999019622803], ["\u0430", -7.382490634918213], ["ny", -7.56151819229126], ["we", -7.445850849151611], ["S", -7.95526647567749], ["\u2581m", -7.548368453979492], ["so", -7.697245121002197], ["\u2581into", -6.941315650939941], ["\u2581lo", -7.56842041015625], ["\u043d", -7.527329444885254], ["\u2581life", -6.929184913635254], ["\u2581ai", -7.535213470458984], ["f", -7.514164924621582], ["\"", -7.72189474105835], ["\u2581So", -7.329092502593994], ["\u2581This", -6.973054885864258], ["\u2581Allah", -7.07573938369751], ["\u2581go", -7.422416687011719], ["bo", -7.614757537841797], ["\u2581mi", -7.628451347351074], ["\u2581t", -7.637501239776611], ["\u2581other", -6.950451850891113], ["A", -7.784340858459473], ["\u2581size", -7.681544780731201], ["go", -7.6397833824157715], ["\u0440", -7.609756946563721], ["\u2581C", -7.958150863647461], ["\u2581ga", -7.6974101066589355], ["\u2581For", -7.092354774475098], ["\u2581some", -6.993348598480225], ["\u2581good", -6.973402976989746], ["\u25812", -7.718080997467041], ["\u2581ia", -7.591984748840332], ["\u2581how", -7.008886814117432], ["ho", -7.666481018066406], ["\u0438", -7.401771545410156], ["\u0434", -7.7032623291015625], ["ca", -7.717639446258545], ["ll", -7.888762950897217], ["\u2581&", -7.661776542663574], ["\u2581mai", -7.656013011932373], ["ce", -7.7414984703063965], ["\u2581Ma", -7.752330303192139], ["nga", -7.669997692108154], ["ge", -7.687263011932373], ["\u0435", -7.58243465423584], ["on", -7.679288387298584], ["\u2581men", -7.521335601806641], ["fa", -7.781673908233643], ["\u2581'", -7.5448899269104], ["\u2581way", -7.089213848114014], ["\u2581things", -7.081761837005615], ["\u2581po", -7.701916217803955], ["\u2581like", -7.0865864753723145], ["\u2581make", -7.059838771820068], ["\u0433\u0430", -7.6126298904418945], ["\u2581je", -7.787376880645752], ["ru", -7.787530899047852], ["\u2581They", -7.067754745483398], ["\u2581\u0430", -7.921687126159668], ["\u2581help", -7.073775291442871], ["\u043d\u0438", -7.74810266494751], ["\u2581such", -7.0988569259643555], ["\u2581than", -7.124229431152344], ["as", -7.591750144958496], ["\u2581ca", -7.8164238929748535], ["q", -7.652085781097412], ["I", -7.750973701477051], ["\u2581day", -7.1266188621521], ["\u2581To", -7.785525321960449], ["gi", -7.741953372955322], ["\u2581bu", -7.743561267852783], ["vo", -7.80637264251709], ["\u2581\u043d\u0430", -7.744481563568115], ["\u2581If", -7.138845443725586], ["he", -7.819599628448486], ["pe", -7.806967258453369], ["\u2581K", -7.787320613861084], ["\u2581ar", -7.8372883796691895], ["\u2581que", -7.795975208282471], ["\u2581za", -7.829742908477783], ["man", -7.9379658699035645], ["\u2581these", -7.159448623657227], ["\u2581ang", -7.960281848907471], ["\u1295", -7.801199913024902], ["\u043f", -7.901464462280273], ["E", -8.086034774780273], ["\u2581over", -7.30336856842041], ["\u2581come", -7.194520950317383], ["C", -8.138877868652344], ["\u2581pe", -7.790930271148682], ["\u2581any", -7.219954490661621], ["il", -7.769038200378418], ["\u00e1", -7.609074592590332], ["\u2581die", -8.122029304504395], ["\u2581mga", -7.836547374725342], ["\u2581made", -7.168453216552734], ["\u2581du", -7.893888473510742], ["\u062a", -7.752093315124512], ["it", -7.712649822235107], ["du", -7.878836631774902], ["\u2581ci", -7.773239612579346], ["\u0440\u0430", -8.073626518249512], ["\u2581could", -7.194313049316406], ["\u2581then", -7.170405387878418], ["us", -7.733458995819092], ["\u2581she", -7.295130729675293], ["\u2581chi", -7.799882411956787], ["\u2581its", -7.281923294067383], ["bu", -7.839846134185791], [").", -8.448107719421387], ["\u2581only", -7.194100856781006], ["\u2581N", -7.7499237060546875], ["\u200d", -7.672359943389893], ["\u2581hi", -7.767508029937744], ["\u00ad", -7.75504732131958], ["\u2581many", -7.2006964683532715], ["\u2581does", -7.194179058074951], ["\u00e9", -7.69512939453125], ["nu", -7.906534194946289], ["\u2581Do", -7.652055740356445], ["\u2581ja", -7.996548175811768], ["\u2581work", -7.200036525726318], ["\u043d\u0430", -7.942980766296387], ["\u2581M", -7.7648491859436035], ["\u2581even", -7.220328330993652], ["\u2581B", -8.013042449951172], ["pi", -7.894103050231934], ["\u2581before", -7.231245040893555], ["\u2581say", -7.320235252380371], ["\u2581Ka", -7.920434951782227], ["\u2581U", -7.944399356842041], ["\u2581love", -7.2206950187683105], ["\u2581per", -8.052005767822266], ["\u2581k", -7.881810188293457], ["\u2581P", -7.964142799377441], ["\u2581oku", -7.693667411804199], ["\u0633", -7.909380912780762], ["\u2581name", -7.351341247558594], ["\u0433", -7.894528865814209], ["\u2581because", -7.265748977661133], ["\u0434\u0430", -7.870528697967529], ["\u2581\u0441", -7.903531551361084], ["\u2581see", -7.251378536224365], ["ir", -7.852359771728516], ["po", -8.021021842956543], ["\u2581When", -7.269514083862305], ["\u2581\u0432", -7.931076526641846], ["\u2581am", -7.834635257720947], ["wi", -7.977695941925049], ["wo", -7.925958633422852], ["\u2581yo", -8.023163795471191], ["\u2581Lord", -7.232304573059082], ["\u2581just", -7.353536605834961], ["\u3002", -7.766247272491455], ["sta", -8.105485916137695], ["\u0448", -7.962195873260498], ["\u2581fa", -7.899322509765625], ["the", -7.621361255645752], ["\u2581G", -8.076684951782227], ["\u064a", -8.060604095458984], ["\u2581er", -8.045146942138672], ["\u2581Sa", -8.061470985412598], ["\u2581need", -7.310898303985596], ["\u2581world", -7.320128917694092], ["\u2581first", -7.34733772277832], ["\u0442\u0430", -8.043092727661133], ["or", -8.121561050415039], ["at", -7.810683250427246], ["\u2581Se", -8.04826545715332], ["\u00ed", -7.796142101287842], ["fi", -8.084341049194336], ["\u2581earth", -7.3255085945129395], ["\u043b\u0430", -8.150106430053711], ["th", -8.146407127380371], ["\u2581al", -8.044821739196777], ["\u2581L", -8.15190315246582], ["\u2581right", -7.358415126800537], ["\u2581D", -8.10692310333252], ["\u2581unto", -7.373348236083984], ["ten", -8.109628677368164], ["co", -8.161666870117188], ["\u2581Ta", -8.093202590942383], ["\u2581As", -7.554176330566406], ["\u0432", -8.015012741088867], ["jo", -8.068939208984375], ["\u043d\u0435", -8.040802001953125], ["zo", -8.031940460205078], ["\u02bb", -7.915964126586914], ["\u0437", -7.9672346115112305], ["\u2581Paul", -7.496796131134033], ["nan", -8.130574226379395], ["\u2581con", -8.072779655456543], ["\u2581take", -7.372861862182617], ["\u2581bo", -8.056797981262207], ["\u2581new", -7.402695655822754], ["\u2581Ko", -8.02157211303711], ["et", -7.821301460266113], ["\u2581La", -8.115655899047852], ["\u2581tau", -7.989645481109619], ["\u2581\u00bb", -7.939836502075195], ["\u0634", -7.987300395965576], ["\u043b\u0438", -8.056303024291992], ["\u2581nu", -8.048495292663574], ["kan", -7.978585720062256], ["ji", -8.038896560668945], ["tan", -8.203906059265137], ["\u2581children", -7.409801483154297], ["\u0648\u0647", -7.732018947601318], ["\u2581g", -8.16937255859375], ["\u2581\u06a9\u0647", -7.875311374664307], ["\u2581\u0443", -8.082728385925293], ["\u2581Why", -7.423902988433838], ["ver", -8.166871070861816], ["\u2581ge", -8.137653350830078], [".\"", -7.668309688568115], ["\u2581must", -7.440016746520996], ["\u2581T", -8.047907829284668], ["\u2581years", -7.446513652801514], ["el", -7.92514181137085], ["\u2581after", -7.42917013168335], ["\u121d", -8.085643768310547], ["ngo", -8.1941556930542], ["ze", -8.051466941833496], ["ur", -7.969097137451172], ["\u2581now", -7.449885368347168], ["\u2581get", -7.490783214569092], ["\u044f", -8.122465133666992], ["\u044b", -7.989705562591553], ["\u2581\u0626\u0647", -7.791322708129883], ["\u2581two", -7.475886344909668], ["\u2581ut", -8.009016990661621], ["\u2581Christ", -7.541290283203125], ["yi", -8.12044906616211], ["\u25813", -8.186126708984375], ["un", -8.064976692199707], ["\u0644", -8.024198532104492], ["\u2581Ne", -8.167043685913086], ["ju", -8.114564895629883], ["ter", -8.164952278137207], ["\u2581down", -7.455772876739502], ["\u2581vi", -8.110107421875], ["\u2581That", -7.477166652679443], ["ad", -8.073851585388184], ["\u2581Re", -8.416044235229492], ["\u2581ny", -8.129368782043457], ["os", -7.873028755187988], ["\u2581v", -8.0529146194458], ["\u2581ho", -8.145602226257324], ["\u043c\u0430", -8.186887741088867], ["hu", -8.18504810333252], ["ste", -8.340492248535156], ["ia", -8.00062370300293], ["\u2581want", -7.497329235076904], ["\u2581file", -7.574039936065674], ["\u0161", -8.057234764099121], ["\u0436", -8.14296817779541], ["men", -8.262099266052246], ["\u2581\u0434\u0430", -8.135308265686035], ["ran", -8.298633575439453], ["am", -7.886287689208984], ["B", -8.39577865600586], ["\u2581Ba", -8.184377670288086], ["\u2581co", -8.295090675354004], ["\u0447", -8.106205940246582], ["\u2581\u0627", -8.069032669067383], ["\u2581w", -8.096131324768066], ["\u2581pro", -8.33785343170166], ["\u2581\u062f\u0647", -7.879008769989014], ["\u2581\u0437\u0430", -8.170377731323242], ["\u2581Me", -8.402973175048828], ["(", -8.277914047241211], ["nya", -8.168485641479492], ["\u2581being", -7.543053150177002], ["\u09cd", -8.654207229614258], ["\u2581Israel", -7.810779094696045], ["\u2581Li", -8.179337501525879], ["\u2581use", -7.541911602020264], ["lar", -8.24453353881836], ["\u2581Si", -8.25439453125], ["%", -8.323230743408203], ["\u2581give", -7.514379978179932], ["um", -7.933518886566162], ["\u2581og", -8.194857597351074], ["\u2581F", -8.382462501525879], ["\u2581el", -8.194503784179688], ["\u2581\u0644\u0647", -7.899300575256348], ["\u2581against", -7.539947032928467], ["\u2581ver", -8.28565788269043], ["D", -8.455643653869629], ["\u258119", -8.285529136657715], ["gu", -8.187392234802246], ["\u2581don", -7.763862609863281], ["\u2581others", -7.5840373039245605], ["\u1275", -8.246493339538574], ["chi", -8.271356582641602], ["\u2581/", -8.244217872619629], ["\u2581ro", -8.28849983215332], ["\u2581van", -8.225317001342773], ["\u2581ana", -8.305828094482422], ["Name", -8.52432632446289], ["tra", -8.305052757263184], ["\u043d\u044b", -8.337921142578125], ["\u062f\u0627", -8.12397575378418], ["\u2581\u043f\u043e", -8.240978240966797], ["vu", -8.319154739379883], ["\u201c", -8.267996788024902], ["\u2581paper", -8.58935260772705], ["su", -8.223235130310059], ["\u2581here", -7.711474418640137], ["\u2581im", -8.14228343963623], ["\u2581\u06fd", -8.162839889526367], ["dan", -8.240262985229492], ["\u2581well", -7.596709251403809], ["ndi", -8.323455810546875], ["pu", -8.282967567443848], ["cu", -8.327691078186035], ["\u2581Pa", -8.295997619628906], ["\u064f", -8.151148796081543], ["\u2581De", -8.415032386779785], ["\u2581han", -8.087677001953125], ["\u2581under", -7.763245105743408], ["\u2581z", -8.222280502319336], ["\u2581faka", -8.161163330078125], ["\u2581des", -8.412351608276367], ["\u2581An", -8.675512313842773], ["\u0627", -8.030649185180664], ["\u122d", -8.369625091552734], ["\u2581Ha", -8.329760551452637], ["\u2581para", -8.306962013244629], ["\u2581\u0628", -8.139400482177734], ["\u043a\u0430", -8.304816246032715], ["\u2581\u0645", -8.433947563171387], ["\u2581Te", -8.334355354309082], ["\u2581kon", -8.35661506652832], ["\u2581faith", -7.611402988433838], ["\u2581own", -7.620207786560059], ["\u043b\u0430\u0440", -8.196346282958984], ["\u2581came", -7.6370368003845215], ["\u2581\u1362", -8.183032035827637], ["M", -8.46445369720459], ["\u2581kan", -8.237300872802734], ["\u2581den", -8.382721900939941], ["den", -8.32512092590332], ["\u2581fi", -8.292268753051758], ["san", -8.397972106933594], ["\u0326", -8.106528282165527], ["ina", -8.194417953491211], ["\u2581yi", -8.296998977661133], ["\u2581where", -7.653893947601318], ["\u062f", -8.238789558410645], ["\u2581h", -8.409302711486816], ["\u2581lu", -8.363088607788086], ["\u2581ru", -8.307549476623535], ["\u043b\u0435", -8.407186508178711], ["\u2581pu", -8.314303398132324], ["\u2581Be", -8.7645902633667], ["\u2581Mo", -8.379293441772461], ["\u0441\u0430", -8.498940467834473], ["\u0101", -8.08061695098877], ["\u2581used", -7.676283359527588], ["\u2581atu", -8.206522941589355], ["\u0442\u0438", -8.398489952087402], ["\u120d", -8.346578598022461], ["\u2581pi", -8.371508598327637], ["\u2581All", -7.748108863830566], ["O", -8.604469299316406], ["\u2581through", -7.673332691192627], ["2", -8.656160354614258], ["id", -8.193119049072266], ["\u2581p", -8.572362899780273], ["ut", -8.096718788146973], ["\u2581set", -7.670918941497803], ["\u2581ak", -8.244892120361328], ["\u2581example", -7.674455642700195], ["\u043d\u043e", -8.3930082321167], ["\u2581son", -7.91834831237793], ["gen", -8.468154907226562], ["han", -8.40945816040039], ["\u2581family", -7.704763412475586], ["\u2581pag", -8.385031700134277], ["\u2581qui", -8.284147262573242], ["\u2581very", -7.712003231048584], ["\u2581\u0627\u0644", -8.408845901489258], ["\u00fd", -8.314998626708984], ["\u2581av", -8.257200241088867], ["\u2581another", -7.7050957679748535], ["\u00f3", -8.17766284942627], ["\u2581upon", -7.677026271820068], ["\u2581pre", -8.57124137878418], ["\u2581x", -8.446749687194824], ["ak", -8.176962852478027], ["F", -8.620828628540039], ["T", -8.507340431213379], ["\u2581spirit", -7.700360298156738], ["\u2581sin", -8.478397369384766], ["\u2581Dios", -8.269930839538574], ["\u2581gi", -8.464824676513672], ["\u2581ad", -8.26157283782959], ["\u2581\u00e0", -8.404373168945312], ["\u2581\u0410", -8.471928596496582], ["\u2581Ku", -8.302321434020996], ["\u2581nan", -8.472939491271973], ["\u2581let", -7.736407279968262], ["aga", -8.251680374145508], ["\u2581H", -8.508011817932129], ["\u2581pou", -8.377829551696777], ["\u2581ed", -8.307104110717773], ["\u2581\u0631\u0627", -8.33919906616211], ["nd", -8.304450035095215], ["\u2581says", -7.782451152801514], ["\u2581might", -7.750688552856445], ["\u044b\u043d", -8.372384071350098], ["\u17d2", -8.90018081665039], ["\u2581Christian", -7.753063201904297], ["ita", -8.364035606384277], ["\u2581Mu", -8.435966491699219], ["\u2035", -8.172287940979004], ["\u0440\u0438", -8.520878791809082], ["\u25815", -8.48697280883789], ["\u2581away", -7.763040065765381], ["\u2581back", -7.7544846534729], ["\u00fa", -8.408097267150879], ["\u2581great", -7.7690887451171875], ["\u2581heart", -7.7632880210876465], ["\u0f7c", -9.770554542541504], ["\u0928", -8.446635246276855], ["\u09a8", -8.940506935119629], ["\u2581folder", -7.815595626831055], ["\u2581Kingdom", -7.776427745819092], ["\u2581David", -8.048593521118164], ["\u2581Then", -7.765228748321533], ["tar", -8.446821212768555], ["N", -8.356778144836426], ["\u0576", -8.53394889831543], ["\u2581\u043d\u0435", -8.391902923583984], ["\u0643", -8.523956298828125], ["\u0642", -8.473557472229004], ["\u2581ber", -8.434062004089355], ["\u2581find", -7.78188943862915], ["3", -8.800851821899414], ["\u0432\u0430", -8.587427139282227], ["\u0930", -8.652358055114746], ["\u2581Christians", -7.806434631347656], ["\u2581place", -7.831676483154297], ["\u2581among", -7.767467498779297], ["\u2581\u0627\u0648\u0631", -8.212898254394531], ["\u25814", -8.514020919799805], ["\u2581found", -7.816779136657715], ["P", -8.624061584472656], ["\u2581sang", -8.678767204284668], ["\u04a3", -8.517571449279785], ["\u258110", -8.624691009521484], ["\u0440\u043e", -8.430981636047363], ["\u2581page", -7.792782783508301], ["mba", -8.383938789367676], ["\u2581kuti", -8.351164817810059], ["\u2581mau", -8.42695426940918], ["\u2581nou", -8.497424125671387], ["sti", -8.654633522033691], ["\u2581mea", -8.375991821289062], ["aki", -8.32277774810791], ["\u2581true", -7.813462257385254], ["\u2581del", -8.409710884094238], ["\u2581think", -7.816018581390381], ["\u0915", -8.623751640319824], ["\u2581iti", -8.34752082824707], ["lan", -8.581986427307129], ["\u2581Le", -8.530790328979492], ["\u2581dan", -8.354403495788574], ["\u2581There", -7.8550004959106445], ["\u0442\u0435", -8.509733200073242], [">>ewe<<", -100], [">>sna<<", -100], [">>lin<<", -100], [">>toi_Latn<<", -100], [">>ceb<<", -100], [">>oss<<", -100], [">>run<<", -100], [">>mfe<<", -100], [">>ilo<<", -100], [">>zlm_Latn<<", -100], [">>pes<<", -100], [">>smo<<", -100], [">>hil<<", -100], [">>niu<<", -100], [">>sag<<", -100], [">>fij<<", -100], [">>cmn_Hans<<", -100], [">>nya<<", -100], [">>tso<<", -100], [">>war<<", -100], [">>gil<<", -100], [">>hau_Latn<<", -100], [">>umb<<", -100], [">>glv<<", -100], [">>tvl<<", -100], [">>ton<<", -100], [">>zul<<", -100], [">>kal<<", -100], [">>pag<<", -100], [">>cmn_Hant<<", -100], [">>pus<<", -100], [">>abk<<", -100], [">>pap<<", -100], [">>hat<<", -100], [">>mkd<<", -100], [">>tuk_Latn<<", -100], [">>yor<<", -100], [">>tuk<<", -100], [">>sqi<<", -100], [">>tir<<", -100], [">>mlg<<", -100], [">>tur<<", -100], [">>ido_Latn<<", -100], [">>mai<<", -100], [">>ibo<<", -100], [">>srp_Cyrl<<", -100], [">>srp_Latn<<", -100], [">>kir_Cyrl<<", -100], [">>heb<<", -100], [">>bos_Latn<<", -100], [">>bak<<", -100], [">>ast<<", -100], [">>som<<", -100], [">>tah<<", -100], [">>chv<<", -100], [">>kek_Latn<<", -100], ["\u2581til", -8.47265911102295], [">>lug<<", -100], [">>vie<<", -100], [">>wln<<", -100], [">>isl<<", -100], [">>hye<<", -100], [">>mah<<", -100], [">>yue_Hant<<", -100], ["\u2581fe", -8.467000007629395], [">>crh_Latn<<", -100], [">>amh<<", -100], [">>nds<<", -100], [">>pan_Guru<<", -100], [">>xho<<", -100], [">>ukr<<", -100], [">>cat<<", -100], [">>afr<<", -100], [">>tat<<", -100], [">>guj<<", -100], [">>jpn<<", -100], [">>mon<<", -100], [">>eus<<", -100], [">>nob<<", -100], [">>glg<<", -100], [">>ind<<", -100], [">>sin<<", -100], [">>cym<<", -100], [">>zho_Hant<<", -100], [">>zho_Hans<<", -100], [">>tgk_Cyrl<<", -100], [">>aze_Latn<<", -100], [">>ltz<<", -100], [">>bod<<", -100], [">>asm<<", -100], [">>tel<<", -100], [">>urd<<", -100], ["\u258115", -8.5183744430542], [">>kaz_Cyrl<<", -100], [">>lat_Latn<<", -100], [">>gla<<", -100], [">>kan<<", -100], [">>bul<<", -100], [">>kin<<", -100], [">>ina_Latn<<", -100], [">>ron<<", -100], [">>spa<<", -100], [">>csb_Latn<<", -100], ["\u2581person", -7.965649604797363], [">>iba<<", -100], [">>tha<<", -100], ["\u2581\u0437", -8.517497062683105], [">>nno<<", -100], [">>hrv<<", -100], ["\u2581much", -7.8427042961120605], ["\u2581same", -7.844017505645752], [">>fry<<", -100], ["\u2581ve", -8.475074768066406], [">>bre<<", -100], [">>mar<<", -100], [">>sme<<", -100], ["zu", -8.550687789916992], [">>swe<<", -100], [">>deu<<", -100], [">>jav<<", -100], [">>snd_Arab<<", -100], [">>ben<<", -100], [">>cmn<<", -100], [">>ces<<", -100], [">>ita<<", -100], [">>fin<<", -100], [">>por<<", -100], [">>hin<<", -100], [">>hun<<", -100], [">>mal<<", -100], [">>pol<<", -100], [">>fra<<", -100], [">>nld<<", -100], [">>epo<<", -100], [">>slv<<", -100], [">>hsb<<", -100], [">>kur_Latn<<", -100], [">>ori<<", -100], ["ment", -8.9039945602417], [">>tam<<", -100], [">>bel<<", -100], [">>dan<<", -100], [">>ara<<", -100], [">>mya<<", -100], [">>rus<<", -100], [">>mri<<", -100], [">>est<<", -100], [">>uzb_Latn<<", -100], [">>lao<<", -100], ["\u2581\u2013", -8.800745964050293], [">>yid<<", -100], ["sh", -8.59202766418457], [">>uzb_Cyrl<<", -100], [">>uig_Arab<<", -100], ["\u2581op", -8.54856014251709], [">>lit<<", -100], [">>zho<<", -100], [">>lav<<", -100], [">>ell<<", -100], ["\u015f", -8.395426750183105], [">>kat<<", -100], ["\u0431", -8.461008071899414], ["\u2581most", -7.830850601196289], [">>gle<<", -100], ["\u2581f", -8.433034896850586], ["\u2581every", -7.847394943237305], ["ler", -8.498575210571289], ["dy", -8.525059700012207], ["\u2581\u0431\u0430", -8.428583145141602], ["ry", -8.60567569732666], [">>mlt<<", -100], ["cha", -8.578879356384277], [">>khm<<", -100], ["\u2581Da", -8.595829010009766], [">>oci<<", -100], ["\u2581Ya", -8.571673393249512], ["\u2581Witnesses", -7.857930660247803], ["\u2581become", -7.843423366546631], ["\u2581der", -8.643637657165527], ["G", -8.683247566223145], ["\u2581om", -8.462847709655762], [">>kur_Arab<<", -100], ["\u0924", -8.497833251953125], ["\u2581Ti", -8.611846923828125], ["\u056b", -8.498970031738281], ["\u043b\u043e", -8.62356948852539], ["nda", -8.532949447631836], ["\u2581each", -7.882350444793701], ["4", -8.905051231384277], ["\u2581ir", -8.413782119750977], ["\u2581words", -7.8881330490112305], ["che", -8.622011184692383], ["der", -8.516887664794922], ["\u2581Jehova", -8.429020881652832], ["\u00df", -8.611875534057617], ["\u2581\u2022", -8.570002555847168], ["\u2581part", -7.878846168518066], ["\u06c1", -8.534659385681152], ["ty", -8.676114082336426], ["\u2581between", -7.881598949432373], ["ana", -8.410781860351562], ["\u2581che", -8.513289451599121], [">>ang_Latn<<", -100], ["\u2581cu", -8.642447471618652], ["\u2581Po", -8.659382820129395], ["\u2581end", -8.005613327026367], ["\u2581whom", -7.867237091064453], ["\u2581truth", -7.861313819885254], ["\u2581nak", -8.373189926147461], ["\u2581His", -7.849968910217285], ["\u2581show", -7.89260196685791], ["\u2581death", -7.91463565826416], ["\u2581Is", -8.629633903503418], ["\u0f0b", -8.872411727905273], ["\u2581aba", -8.496722221374512], ["\u0650", -8.453697204589844], ["\u2581Ki", -8.728014945983887], ["\u2581wo", -8.55943775177002], ["\u0932", -8.627476692199707], ["fe", -8.590714454650879], ["\u25813:", -8.706446647644043], ["\u2581given", -7.900701522827148], ["\u2581les", -8.676675796508789], ["fu", -8.547163009643555], ["\u2581ji", -8.607752799987793], ["\u2581\u0421", -8.63506031036377], ["\u2581laj", -8.419960021972656], ["\u2581il", -8.454192161560059], ["\u2581V", -8.720906257629395], ["\u2581vaka", -8.792377471923828], ["\u0639", -8.863031387329102], ["\u2581Ni", -8.673751831054688], ["\u2581\"%", -8.849386215209961], ["\u2581\u0647\u0647", -8.277728080749512], ["\u00e8", -8.46558666229248], ["\u0632", -8.574240684509277], ["\u00fc", -8.62696361541748], ["\u2581house", -7.933490753173828], ["\u2581Mi", -8.683003425598145], ["\u2581\u0964", -8.637374877929688], ["\u1293", -8.59179401397705], ["eb", -8.391505241394043], ["ine", -8.740386962890625], ["\u0442\u043e", -8.644139289855957], ["\u2581put", -7.927630424499512], ["\u2581congregation", -7.922027587890625], ["\u2581\u062a\u0648", -8.48706340789795], ["V", -8.862386703491211], ["nge", -8.666365623474121], ["\u2581too", -8.036280632019043], ["\u2581kai", -8.669212341308594], ["\u2581ei", -8.552976608276367], ["\u043c\u0435", -8.646032333374023], ["\u09f0", -8.954663276672363], ["\u064a\u0629", -8.926898956298828], ["1", -8.782159805297852], ["\u2581\u00e1", -8.63131046295166], ["\u0629", -8.725759506225586], ["\u2581\u0645\u0646", -8.637150764465332], ["\u0259", -8.77502727508545], ["\u2581information", -7.982845783233643], ["nde", -8.5812349319458], ["\u0628", -8.522977828979492], ["que", -8.696959495544434], ["\u2581Ra", -8.714707374572754], ["\u2581'%", -8.703558921813965], ["\u2581word", -8.050862312316895], ["\u2581ndi", -8.576130867004395], ["\u2581never", -7.958311557769775], ["ngi", -8.595929145812988], ["\u2581Can", -8.037585258483887], ["\u2581\u0442\u0430", -8.660384178161621], ["\u2581message", -8.011438369750977], ["tion", -8.806674003601074], ["\u2581au", -8.652106285095215], ["\u2581R", -8.79612922668457], ["\u093e", -8.703848838806152], ["paper", -8.523890495300293], ["\u2581ch", -8.691755294799805], ["\u0434\u0438", -8.577920913696289], ["\u2581faa", -8.716272354125977], ["\u0105", -8.477945327758789], ["ngu", -8.699110984802246], ["\u2581non", -8.944463729858398], ["\u2581She", -8.112898826599121], ["\u2581eo", -8.538955688476562], ["\u0627\u0646", -8.445765495300293], ["\u2581Ja", -8.770784378051758], ["\u2581iya", -8.573234558105469], ["\u2581keep", -7.972848892211914], ["\u2581\u1021", -8.67941951751709], ["tor", -8.69817066192627], ["\u2581\u0432\u0430", -8.46511173248291], ["\u2581ama", -8.669354438781738], ["\u2581days", -8.039848327636719], ["\u2581New", -8.200932502746582], ["H", -8.902509689331055], ["\u25812:", -8.795652389526367], ["ndo", -8.828692436218262], ["ria", -8.88794231414795], ["\u2581\u0646\u0647", -8.485682487487793], ["len", -8.756590843200684], ["em", -8.349037170410156], ["\u2581Bu", -8.680333137512207], ["\u1235", -8.723515510559082], ["ban", -8.625947952270508], ["\u2581som", -8.639142036437988], ["n\u00e9", -8.780671119689941], ["\u2581ones", -8.086651802062988], ["\u2581without", -8.025163650512695], ["\u00e3", -8.730576515197754], ["\u2581gu", -8.696491241455078], ["\u00e0", -8.65322208404541], ["rin", -8.836760520935059], ["\u2581spiritual", -8.015048027038574], ["\u2581ap", -8.628145217895508], ["\u2581hand", -8.015753746032715], ["\u2581zi", -8.758804321289062], ["\u0434\u0435", -8.600855827331543], ["\u2581Di", -8.757963180541992], ["U", -8.691869735717773], ["nt", -8.369335174560547], ["\u2581why", -8.037975311279297], ["\u043a\u0438", -8.736477851867676], ["\u2581while", -8.02959156036377], ["\u2581system", -8.147578239440918], ["\u06cc\u0647", -8.4298677444458], ["\u2581tal", -8.532060623168945], ["\u0646\u062f", -8.66999340057373], ["\u2581long", -8.03573989868164], ["\u2581nag", -8.609947204589844], ["\u2581sing", -8.731537818908691], ["\u2581On", -8.293960571289062], ["\u25817", -8.858016967773438], ["\u2581\u0589", -8.504745483398438], ["ul", -8.560906410217285], ["\u2581\u0627\u0644\u0645", -9.094815254211426], ["min", -8.852436065673828], ["\u2581es", -8.701445579528809], ["\u2581human", -8.100695610046387], ["\u2581believe", -7.978820323944092], ["\u2581\u0418", -8.80278205871582], ["\u2581ena", -8.841028213500977], ["\u2581\u0441\u043e", -8.705914497375488], ["),", -8.409072875976562], ["\u044e", -8.705013275146484], ["\u2581\u1361", -8.609245300292969], ["\u2581open", -8.059832572937012], ["\u0434\u0430\u043d", -8.52319622039795], ["\u25816", -8.762049674987793], ["\u2581land", -8.12187385559082], [">>kaz_Latn<<", -100], ["\u2581thou", -8.046412467956543], ["\u0646\u0649", -8.437613487243652], ["\u06a9", -8.535594940185547], ["tt", -8.543803215026855], ["\u2581jo", -8.696380615234375], ["\u2581year", -8.049914360046387], ["lla", -8.838930130004883], ["\u548c", -8.500897407531738], ["\u2581En", -8.884137153625488], ["\u2581John", -8.175628662109375], ["\u2581ce", -8.9412841796875], ["\u2581ju", -8.739639282226562], ["\u2581important", -8.122761726379395], ["\u2581times", -8.116044044494629], ["\u258112", -8.771785736083984], ["\u2581My", -8.16357707977295], ["\u2581brothers", -8.0607328414917], ["\u2581sent", -8.034489631652832], ["mbo", -8.712139129638672], ["\u2581means", -8.078977584838867], ["\u2581por", -8.7240629196167], ["\u2581number", -8.062541961669922], ["\u2581X", -9.055920600891113], [">>wol<<", -100], ["\u2581ek", -8.614168167114258], ["\u044c", -8.760283470153809], ["qa", -8.702486991882324], ["nye", -8.768900871276855], ["\u2581Lo", -8.928465843200684], ["\u25818", -8.860834121704102], ["\u2581\u0644", -8.7926025390625], ["\u2581zo", -8.740972518920898], ["\u2581\u043e", -8.727211952209473], ["\u06cc\u0627\u0646", -8.480721473693848], [">>sun<<", -100], ["\u2581pri", -8.706756591796875], ["\u2581fo", -8.744744300842285], ["\u00ea", -8.603714942932129], ["\u0648\u0646", -8.78040885925293], ["\u2581saying", -8.08488941192627], ["\u2581today", -8.082971572875977], ["\u0f42", -9.94355583190918], ["\u0441\u0435", -8.830533027648926], ["\u043e\u043d", -8.634169578552246], ["\u2581bwa", -8.795799255371094], ["wu", -8.745162010192871], ["\u2581One", -8.097208976745605], ["\u2581himself", -8.085663795471191], ["\u4e86", -8.7213773727417], ["\u2581\u0622\u06be\u064a", -8.656546592712402], ["\u0a30", -8.956062316894531], ["able", -8.343001365661621], ["\u258120", -8.778461456298828], ["\u25811:", -8.9274263381958], ["\u10e1", -8.701948165893555], ["\u2581went", -8.12848949432373], ["per", -8.946046829223633], [">>chr<<", -100], ["\u2581again", -8.121460914611816], ["ck", -8.84820556640625], ["\u0cb0", -8.814791679382324], ["\u1265", -8.709661483764648], ["\u043b\u044b", -8.75113582611084], ["\u2581Satan", -8.186927795410156], ["\u25814:", -8.87405776977539], ["\u2581Wa", -8.866231918334961], ["\u04d5", -8.92022705078125], ["\u043c\u0438", -8.782252311706543], ["\u00f5", -8.811695098876953], ["\u10d8", -8.711657524108887], ["\u04af", -8.852273941040039], ["\u2581order", -8.102208137512207], ["\u09b0", -9.019604682922363], ["\u2581\u062a\u0647", -8.634124755859375], ["\u017e", -8.726932525634766], ["\u2581ag", -8.64957332611084], ["shi", -8.885882377624512], ["\u2581called", -8.118903160095215], ["\u2581(_", -8.87126636505127], ["\u2581W", -8.772014617919922], ["\u2581Je", -8.888899803161621], ["\u2581three", -8.120247840881348], ["\u2581feel", -8.119022369384766], [">>tat_Latn<<", -100], ["\u2581het", -8.804628372192383], ["\u2581t\u00eb", -8.697877883911133], ["\u0627\u062a", -8.965723037719727], ["\u2581States", -8.167576789855957], ["tha", -8.907057762145996], ["ren", -8.841434478759766], ["\u2581Atua", -8.708396911621094], ["\u2581\u0435", -8.970983505249023], ["\u2581image", -8.187945365905762], ["\u2581ara", -8.784770965576172], ["\u0f66\u0f0b", -9.690203666687012], ["\u2581Could", -8.174351692199707], ["\u2581European", -8.171719551086426], ["\u2581At", -8.312417984008789], ["\u2581\u043a\u0438", -8.760576248168945], ["Y", -9.031756401062012], ["R", -8.769009590148926], ["\u2581off", -8.227444648742676], ["gan", -8.676277160644531], ["\u13c2", -9.217211723327637], ["\u0947", -8.921504020690918], ["\u04d9", -8.95730972290039], ["ven", -8.866724014282227], ["\u2581\u0441\u0435", -8.822586059570312], ["tur", -8.716146469116211], ["\u25811,", -9.129288673400879], ["sha", -8.957826614379883], ["\u2581Bi", -8.896661758422852], ["\u2581Peter", -8.296630859375], ["\u2581\u06a9\u06d2", -8.55146598815918], ["L", -8.88940143585205], ["\u0561\u0580", -8.979608535766602], ["\u00e4", -8.811233520507812], ["\u2581\u043a", -8.687344551086426], ["\u13b5", -9.159834861755371], ["\u2581Ke", -8.880053520202637], ["\u2581yang", -8.628087043762207], ["ua", -8.681672096252441], ["\u0902", -8.815593719482422], ["kwa", -8.840507507324219], ["\u2581going", -8.171786308288574], ["\u093f", -9.079368591308594], ["\u06a9\u0647", -8.464836120605469], ["\u2581kwa", -8.700652122497559], ["\u2581Yehova", -8.67605209350586], ["\u2581med", -8.774253845214844], ["im", -8.618992805480957], ["\u25815:", -8.930781364440918], ["ol", -8.75527572631836], ["kin", -8.93915843963623], ["\u043e", -8.399242401123047], ["\u2581oo", -8.790526390075684], ["\u025b", -8.696207046508789], ["\u2581king", -8.16147518157959], ["\u2581still", -8.172799110412598], ["mwe", -8.804059982299805], ["\u2581By", -8.348260879516602], [">>mhr<<", -100], ["lle", -8.940923690795898], ["\u2581both", -8.169903755187988], ["\u12f5", -8.885233879089355], ["ek", -8.570752143859863], ["\u2581\u06a9\u064a", -8.77241325378418], ["\u2581young", -8.176169395446777], ["\u2581vo", -8.828930854797363], ["\u2581\u0434\u043e", -8.756265640258789], ["sto", -9.028088569641113], ["\u09c7", -9.090295791625977], ["\u2581fai", -8.711198806762695], ["\u067e", -8.733158111572266], ["\u09c1", -9.324134826660156], ["\u2581told", -8.191427230834961], ["\u2581af", -8.864524841308594], ["\u2581gave", -8.180296897888184], ["\u2581Un", -8.800241470336914], ["au", -8.697790145874023], ["\u2581Article", -8.193282127380371], ["\u2581home", -8.179463386535645], ["\u043c\u043e", -8.866449356079102], ["\u2581got", -8.223896026611328], ["\u00f2", -8.74257755279541], ["sia", -9.032909393310547], ["\u2581father", -8.167316436767578], ["\u2581view", -8.183271408081055], ["\u2581*", -8.788790702819824], ["\u2581\u062a", -8.842154502868652], ["\u2581met", -9.127819061279297], ["\u2581Let", -8.216059684753418], ["fo", -8.950201034545898], ["\u04d7", -9.372523307800293], ["\u2581power", -8.16684341430664], ["\u2581\u044f", -8.849906921386719], ["\u2581\u00e9", -9.0442533493042], ["\u2581par", -8.723559379577637], ["\u2581Our", -8.159998893737793], ["\u2581doing", -8.21633243560791], ["cho", -8.975720405578613], ["\u2581parents", -8.188260078430176], ["\u0cc1", -8.78503131866455], ["\u0631\u0627", -8.825525283813477], ["\u2581nor", -8.16611099243164], ["\u00e6", -8.886954307556152], ["\u2581\u062c\u0648", -8.730212211608887], [">>tyv<<", -100], ["\u0107", -8.947022438049316], ["\u2581\u0626\u0627", -8.745726585388184], ["\u2581read", -8.195564270019531], ["K", -8.974311828613281], ["\u2581Ca", -9.000359535217285], ["ton", -9.094127655029297], ["\u2581\u13a0\u13b4", -9.02739143371582], ["\u04ab", -9.270362854003906], ["\u258130", -9.02926254272461], ["\u2581service", -8.25732421875], ["\u2581\u06c1\u06d2", -8.620685577392578], ["\u2581something", -8.226370811462402], ["\u2581cha", -8.946290016174316], ["\u0f66", -9.854768753051758], ["\u0942", -8.975936889648438], ["\u2581ae", -9.147931098937988], ["\u2581Moses", -8.305074691772461], ["\u2581ala", -8.90548038482666], ["\u017c", -8.819007873535156], ["ner", -8.893153190612793], ["\u0442\u044b", -8.80322265625], ["\u12ed", -8.887428283691406], ["5", -9.176385879516602], ["\u2581ou", -8.905547142028809], ["xa", -9.054291725158691], ["\u2581Commission", -8.26431655883789], ["\u05df", -8.87808895111084], ["n\u00ed", -8.97596263885498], ["\u13d7", -9.23386287689209], ["t\u00e9", -8.982372283935547], ["\u2581\u0423", -8.834709167480469], ["\u2581Hi", -9.043681144714355], ["ah", -8.771273612976074], ["\u2581themselves", -8.198452949523926], ["\u0f60", -10.243481636047363], ["\u0633\u062a", -8.848587989807129], ["\u662f", -8.804550170898438], ["qui", -9.011759757995605], ["\u2581\u062f\u0631", -8.859237670898438], ["\u2581bann", -8.707834243774414], ["\u2581p\u00e5", -8.85508918762207], ["\u09ac", -9.304759979248047], ["\u25816:", -8.991215705871582], ["\u2581together", -8.238481521606445], ["\u2581Ri", -8.993043899536133], ["sin", -8.915753364562988], ["\u2581Read", -8.237597465515137], ["\u2581yn", -9.076709747314453], ["\u2581Father", -8.249370574951172], ["\u2581kita", -8.751181602478027], ["tre", -9.047245025634766], ["\u0ca6", -8.922506332397461], ["\u2581bring", -8.207239151000977], ["mbi", -8.864700317382812], ["\u2581ao", -9.066943168640137], ["\u0434\u044b", -8.777549743652344], ["ers", -8.741289138793945], ["\u258118", -8.963028907775879], ["\u2581old", -8.256414413452148], ["ken", -9.041117668151855], ["\u043a\u043e", -8.970684051513672], ["\u2581done", -8.254229545593262], ["\u1793", -9.26512336730957], ["\u0430\u043d", -8.760961532592773], ["\u2581took", -8.249751091003418], ["\u2581really", -8.267396926879883], ["\u2581though", -8.230613708496094], ["\u2581following", -8.26984977722168], ["\u0444", -8.896241188049316], ["\u2581learn", -8.245304107666016], ["\u13a2", -9.106593132019043], ["\u2581\u12e8", -9.02643871307373], ["\u2581cannot", -8.276434898376465], ["\u0938", -8.960631370544434], ["\u2581Go", -8.94107723236084], ["\u2581Word", -8.2308988571167], ["\u2581\u06a9\u06cc", -8.682272911071777], ["\u0637", -9.182046890258789], ["\u0142", -8.868976593017578], ["\u09bf", -9.29712963104248], ["\u0644\u0627", -9.016865730285645], ["\u2581tell", -8.269734382629395], ["\u2581\u043a\u0430", -9.016854286193848], ["\u2581full", -8.312506675720215], ["ai", -8.62758731842041], ["\u2581However", -8.26522445678711], ["\u13db", -9.390220642089844], ["yan", -8.986259460449219], ["\u2581last", -8.285052299499512], ["\u2581\u1260", -9.10440731048584], ["\u2581tatou", -8.785063743591309], ["tia", -9.067512512207031], ["lik", -8.864368438720703], ["\u0446", -8.96652889251709], ["\u201d", -9.074627876281738], ["\u00eb", -8.705894470214844], ["\u0447\u0430", -9.001908302307129], ["\u25819", -9.039545059204102], ["\u2581Now", -8.29486083984375], ["\u2581during", -8.277146339416504], ["\u2581kgm", -8.824786186218262], ["\u1308", -9.035181045532227], ["\u2581\u0641\u064a", -9.059137344360352], ["\u2581\u1ecd", -8.871268272399902], ["\u044b\u0440", -9.108942985534668], ["xi", -9.081512451171875], ["\u2581worship", -8.253631591796875], ["\u2581left", -8.290821075439453], ["\u2581peace", -8.26777172088623], ["ts", -8.742944717407227], ["\u2581Yes", -8.29258918762207], ["\u2581study", -8.280369758605957], ["dzi", -8.90590763092041], ["\u10d0", -8.792057991027832], ["tsa", -9.103135108947754], ["\u2581live", -8.2565279006958], ["\u12cd", -8.98058795928955], ["\u2581J", -9.026249885559082], ["\u0430\u0440", -8.748936653137207], ["bal", -8.945266723632812], ["\u0a47", -9.014485359191895], ["qu", -8.872814178466797], [">>rom<<", -100], ["\u2581sa\u00df", -8.761890411376953], ["ber", -9.038058280944824], ["\u2581little", -8.308415412902832], ["\u2581Tu", -9.04365062713623], ["ise", -9.187808990478516], ["\u2581tan", -8.93814754486084], ["\u00f4", -9.055992126464844], ["\u2581support", -8.262946128845215], ["\u2581Vi", -9.066789627075195], ["\u2581Bo", -9.120196342468262], ["\u2581look", -8.277264595031738], ["W", -9.122705459594727], ["lin", -9.02033519744873], ["\u0433\u0430\u043d", -8.767070770263672], ["ire", -9.035829544067383], ["\u2581vu", -9.029054641723633], ["\u0437\u0430", -9.096636772155762], ["\u258111", -9.038034439086914], ["ot", -8.784682273864746], ["\u2581course", -8.283799171447754], ["\u2581law", -8.288920402526855], ["\u13c5", -9.322556495666504], ["\u0b3e", -9.412638664245605], ["\u0447\u0435", -8.986347198486328], ["ske", -9.224291801452637], ["\u2581hu", -8.940783500671387], ["\u2581wife", -8.311439514160156], ["\u0431\u0430", -9.043716430664062], ["\u2581close", -8.305146217346191], ["\u2581far", -8.67092514038086], ["\u0433\u0435", -8.910557746887207], ["\u2581bir", -8.938682556152344], ["\u05d8", -9.199589729309082], ["\u044b\u043b", -9.035665512084961], ["kon", -8.851523399353027], ["\u2581ug", -9.092830657958984], ["\u00f1a", -9.1214017868042], ["\u0645\u0627\u0646", -8.84536075592041], ["\u2581data", -8.664532661437988], ["\u2581Ho", -9.055270195007324], ["\u2581kua", -8.927783966064453], ["\u09b2", -9.205045700073242], ["\u0580", -9.089725494384766], ["ite", -8.980873107910156], ["\u0941", -9.299314498901367], ["nder", -9.322061538696289], ["\u2581t\u00f3", -8.792759895324707], ["\u2581cho", -8.95360279083252], ["\u0433\u043e", -9.040168762207031], ["\u2581\u13a4", -9.182210922241211], ["\u0995", -9.154670715332031], ["r\u00e9", -9.1040678024292], ["\u2581r", -9.415054321289062], ["\u2581um", -8.896360397338867], ["\u2581und", -9.135699272155762], ["\u2581tra", -9.155668258666992], [">>cha<<", -100], ["\u2581Al", -9.149968147277832], ["\u09a4", -9.304550170898438], ["\u2581\u043c\u0430", -9.242901802062988], ["ile", -9.00804328918457], ["\u2581able", -8.332235336303711], ["\u2581Co", -9.201407432556152], ["\u2581thy", -8.333115577697754], ["\u2581aka", -8.956380844116211], ["\u2581ua", -9.041982650756836], [">>kab<<", -100], ["pan", -9.070152282714844], ["\u2581\u043e\u0442", -9.05941104888916], ["dir", -9.018146514892578], ["\u120b", -9.096296310424805], ["\u0940", -9.07703971862793], ["\u0441\u0442", -8.972020149230957], ["\u2581Your", -8.352993965148926], ["\u2581always", -8.338899612426758], ["\u2581thee", -8.400114059448242], ["\u2581\u0646", -9.134866714477539], ["\u2581xa", -8.926979064941406], ["\u03bb", -9.302391052246094], ["ene", -8.863251686096191], ["tro", -9.141243934631348], ["\u0c02", -8.942488670349121], ["\u044a", -9.126728057861328], ["\u2581\u0442\u043e", -9.015512466430664], ["yn", -8.973219871520996], ["ci\u00f3n", -9.068440437316895], ["\u2581city", -8.348540306091309], ["\u2581\u06a9\u0648", -8.774269104003906], ["\u0ca8", -9.060800552368164], ["\u2581Show", -8.393794059753418], ["\u2581\u05d4", -9.170503616333008], ["nie", -9.041303634643555], ["\u2581better", -8.329366683959961], ["pp", -9.092957496643066], ["\u03c4", -9.290743827819824], ["mbe", -8.978545188903809], ["\u2581knowledge", -8.30321216583252], ["\u0cbe", -9.1179780960083], ["son", -9.212658882141113], ["\u0568", -8.893973350524902], ["\u0c28", -8.925738334655762], ["\u049b", -9.046876907348633], ["ski", -9.226187705993652], ["\u00e2", -8.95977783203125], ["fer", -9.244986534118652], ["\u2581em", -9.011353492736816], ["\u0448\u0430", -9.176746368408203], ["\u2581text", -8.493162155151367], ["tin", -9.045684814453125], ["\u0acb", -9.264389991760254], ["\u2581det", -9.024765968322754], ["\u0440\u0435", -9.114212036132812], ["\u2581maka", -9.026963233947754], ["\u2581therefore", -8.366485595703125], ["\u0113", -8.842552185058594], ["\u0442\u0430\u0440", -9.07673168182373], ["\u0435\u043d", -8.962773323059082], ["\u2581until", -8.353046417236328], ["\u2581Jerusalem", -8.514914512634277], ["\u5728", -8.85080623626709], ["\u2581ask", -8.331287384033203], ["\u0628\u0647", -8.794737815856934], ["\u00f1", -9.014341354370117], ["\u2581una", -9.089532852172852], ["\u2581nei", -8.990679740905762], ["ning", -9.11998462677002], ["nes", -9.219233512878418], ["ring", -9.269980430603027], ["\u2581Con", -9.520682334899902], ["\u2581\u0442\u0435", -9.181705474853516], ["\u2581hope", -8.344635009765625], ["\u2581Z", -9.162123680114746], ["ling", -9.4769287109375], ["\u2581\u043c\u0435", -9.012356758117676], ["\u0440\u0443", -9.071185111999512], ["\u2581est", -8.939144134521484], ["ster", -9.34475040435791], ["\u04d1", -9.357817649841309], ["\u2581disciples", -8.382784843444824], [">>nav<<", -100], ["\u2581thing", -8.366536140441895], ["\u2581\u062c\u064a", -8.952353477478027], ["\u2581mind", -8.362914085388184], ["ach", -9.156928062438965], ["ic", -9.22468376159668], ["mas", -8.973390579223633], ["\u2581Yahweh", -8.397552490234375], ["\u2581water", -8.354703903198242], ["\u03b3", -9.428768157958984], ["\u2581child", -8.368807792663574], ["\u2581Who", -8.370855331420898], ["\u2581\u0627\u0646", -8.963942527770996], ["tta", -9.151748657226562], ["\u2581LORD", -8.411468505859375], ["\u2581\u00f2", -8.980751037597656], ["\u2581era", -9.236867904663086], ["\u2581Su", -9.14870548248291], ["\u2581book", -8.376761436462402], ["mos", -9.167418479919434], ["\u179a", -9.108345985412598], ["\u258114", -9.214482307434082], ["\u2581holy", -8.389479637145996], ["\u0432\u043e", -9.12819766998291], ["\u0932\u093e", -9.11272144317627], ["\u2581brother", -8.363090515136719], ["\u2581faithful", -8.3811674118042], ["\u2581saw", -8.4043550491333], ["\u2581Ga", -9.143691062927246], ["\u2581kau", -9.012079238891602], ["\u2581apostle", -8.368346214294434], ["\u2581mata", -9.115840911865234], ["\u2581brought", -8.373905181884766], ["\u0447\u0438", -8.980634689331055], ["\u2581women", -8.35940170288086], ["\u2581\u0633\u06d2", -8.791958808898926], ["ation", -9.236115455627441], ["\u2581Pi", -9.275259971618652], ["ona", -8.924202919006348], [">>arg<<", -100], ["\u2581having", -8.39573860168457], ["\u2581\u0906", -9.139176368713379], ["\u2581United", -8.401216506958008], ["\u2581Some", -8.40278434753418], ["\u1208", -9.05999755859375], ["\u13a9", -9.252789497375488], ["\u2581servants", -8.387036323547363], ["\u2581best", -8.4005708694458], ["\u2581Are", -8.646086692810059], ["nn", -8.788056373596191], ["\u2581ever", -8.392441749572754], ["\u2581face", -8.48133373260498], ["\u1ecd", -8.83299732208252], ["The", -8.467631340026855], ["\u12a5", -9.146413803100586], ["\u2581Name", -8.917723655700684], ["\u2581Ge", -9.305883407592773], ["\u2581Pro", -9.270723342895508], ["\u06c7", -9.106355667114258], ["\u0627\u0644", -9.177391052246094], ["\u258125", -9.367429733276367], ["\u044b\u043c", -9.019246101379395], ["\u2581fear", -8.348028182983398], ["isi", -8.921875], ["\u2581Not", -8.444120407104492], ["\u2581Pe", -9.098214149475098], ["\u2581\u0905", -9.195488929748535], ["\u06d0", -9.060240745544434], ["\u2581yet", -8.426168441772461], ["\u0647\u0627", -8.99438190460205], ["\u00e7", -8.960179328918457], ["ska", -9.179730415344238], ["\u2581\u0b85", -9.142922401428223], ["\u06d2", -8.877358436584473], ["tes", -8.997139930725098], ["r\u00e1", -9.149510383605957], ["\u0301", -8.987276077270508], ["\u2581bar", -9.315293312072754], ["\u0ab0", -9.626496315002441], ["\u2581wi", -9.307686805725098], ["\u258124", -9.238422393798828], ["l\u00e9", -9.105717658996582], ["\u2581became", -8.407842636108398], ["@", -9.249032020568848], ["\u2581\u13a0", -9.311589241027832], ["\u2581Oh", -8.652909278869629], ["\u0433\u04d9", -9.186209678649902], ["\u2581sure", -8.437674522399902], ["\u2581news", -8.46361255645752], ["\u2581Ut", -8.965540885925293], ["\u2581Y", -9.157975196838379], ["\u2581com", -9.14702033996582], ["\u062e", -9.089753150939941], ["\u2581iz", -9.068402290344238], ["ben", -9.054957389831543], ["\u2581Jo", -9.163702964782715], ["\u2581After", -8.430051803588867], ["\u091f", -9.160112380981445], ["\u2581Abraham", -8.69906234741211], ["\u2581\u0628\u06c6", -8.760114669799805], [">>khm_Latn<<", -100], ["thi", -9.16515064239502], ["\u2581different", -8.458284378051758], ["sion", -9.227724075317383], ["\u043b\u0430\u043d", -9.168122291564941], ["\u2581files", -8.541608810424805], ["\u0c30", -9.03797721862793], ["\u2581\u0431\u0435\u0440", -8.942152976989746], [">>bul_Latn<<", -100], ["\u0438\u043b", -8.932002067565918], ["\u092e", -9.072441101074219], ["\u0438\u043d", -9.031110763549805], ["\u062f\u0647", -8.884721755981445], ["by", -9.305624961853027], ["\u258116", -9.098335266113281], ["idh", -9.59803581237793], ["\u2581list", -8.462728500366211], ["\u5e74", -8.871875762939453], ["\u043a\u0443", -9.03504467010498], ["\u2581heaven", -8.42323112487793], ["\u2581Or", -8.912728309631348], ["\u1273", -9.167612075805664], ["\u2581\u0645\u06cc\u06ba", -8.84429931640625], ["om", -8.85545825958252], ["\u2581serve", -8.415287971496582], ["\u0924\u093e", -9.203351974487305], ["est", -9.069936752319336], ["\u2581Member", -8.473211288452148], ["nik", -9.080926895141602], ["\u13c3", -9.252002716064453], ["\u00f9", -9.138238906860352], ["\u2581aku", -8.995661735534668], ["\u2581\u104b", -9.03669261932373], ["\u2581\u0627\u0627\u0644\u0644\u0647", -8.822915077209473], ["dza", -9.146401405334473], ["land", -9.383232116699219], ["\u2581\u1218", -9.346755027770996], ["\u2581\u043f\u0440\u043e", -9.171627044677734], ["oni", -9.166071891784668], ["\u06aa", -9.10680866241455], ["\u2581case", -8.44583511352539], ["\u06be", -9.26453685760498], ["ie", -9.067705154418945], ["\u0d46", -9.06415843963623], ["\u2581night", -8.429661750793457], ["\u2581\u13be\u13cd\u13a9", -9.278135299682617], ["ala", -9.02865219116211], ["\u130d", -9.173566818237305], ["tte", -9.235833168029785], ["\u2581\u0431", -8.961153030395508], ["\u2581os", -9.33843994140625], ["\u13be", -9.330853462219238], ["\u03c5", -9.438823699951172], ["\u2581n\u00ed", -8.983241081237793], ["\u0964", -9.14374828338623], ["\u2581type", -8.629042625427246], ["\u0578\u0582\u0574", -8.982949256896973], ["\u2581Va", -9.177556037902832], ["\u2581\u0445", -9.242215156555176], ["\u2581\u0e97\u0eb5\u0ec8", -8.924848556518555], ["\u2581\u062e\u0648\u0627", -8.845084190368652], ["\u0441\u0438", -9.214385986328125], ["\u0c35", -9.094876289367676], ["\u25811.", -9.663122177124023], ["\u2581...", -9.704413414001465], ["\u2581mar", -9.114884376525879], ["\u2581already", -8.501416206359863], ["k\u00df", -9.134003639221191], ["\u2581Fa", -9.202752113342285], ["uta", -9.22945499420166], ["xe", -9.329682350158691], ["\u2581These", -8.464534759521484], ["yu", -8.963773727416992], ["\u2581Council", -8.482919692993164], ["\u0db8", -9.087854385375977], ["\u09ae", -9.418535232543945], ["\u044b\u0448", -9.30800724029541], ["00", -9.317750930786133], ["\u2581free", -8.474319458007812], ["\u1228", -9.192276954650879], ["\u2581car", -9.352436065673828], ["ion", -9.332152366638184], ["nia", -9.20256519317627], ["kar", -9.16972541809082], ["ser", -9.09445571899414], ["\u2581war", -8.903620719909668], ["\u2581window", -8.56407356262207], ["\u2581care", -8.620572090148926], ["\u2581certain", -8.54824161529541], ["\u0f74", -10.2506685256958], ["\u2581wrote", -8.48081111907959], ["\u2581\u0442", -9.511178016662598], ["\u2581oyo", -8.960637092590332], ["\u2581ilo", -9.01385498046875], ["\u0932\u0947", -9.212542533874512], ["\u2581Du", -9.286053657531738], ["ali", -8.948470115661621], ["\u2581mean", -8.475262641906738], ["\u0da7", -9.126913070678711], ["\u064a\u0646", -9.303987503051758], ["ab", -8.872391700744629], ["\u00f0", -9.128069877624512], ["\u2581\u6211", -9.213072776794434], ["\u2581dia", -9.170358657836914], ["\u2581!", -9.958988189697266], ["\u2581account", -8.495453834533691], ["\u2581heard", -8.510190963745117], ["\u2581seen", -8.703322410583496], ["\u043e\u0432", -9.06861400604248], ["\u2581next", -8.509345054626465], ["ama", -9.02955436706543], ["tik", -9.145803451538086], ["\u0686", -9.028726577758789], ["\u03c3", -9.439553260803223], ["\u2581\u067e", -9.045974731445312], ["hia", -9.21961498260498], ["\u25812.", -9.52561092376709], ["od", -9.150609970092773], ["\u2581ayeke", -9.076057434082031], ["\u0f7a", -10.287503242492676], ["\u0119", -9.086100578308105], ["\u043b\u044c", -9.266792297363281], ["ik", -8.759236335754395], ["\u0a40", -9.159821510314941], ["\u2581ways", -8.560792922973633], ["\u2581possible", -8.514846801757812], ["\u2581\u04bb\u04d9\u043c", -9.075372695922852], ["\u2581With", -8.512301445007324], ["\u0dc0", -9.123826026916504], ["\u2581personal", -8.70810604095459], ["\u2581\u306e", -9.008950233459473], ["\u2581within", -8.518800735473633], ["\u010d", -9.103448867797852], ["\u2581call", -8.476954460144043], ["\u2581ona", -9.202590942382812], ["lt", -9.216691970825195], ["\u2581mag", -9.068159103393555], ["ig", -8.970588684082031], ["\u2581living", -8.503496170043945], ["\u2581around", -8.511048316955566], ["\u0584", -9.247672080993652], ["\u2581\u0627\u0644\u0644\u0647", -9.021200180053711], ["\u0939", -9.440571784973145], ["\u2581ex", -9.300411224365234], ["\u0e23", -9.229291915893555], ["l\u00e1", -9.166646003723145], ["\u0b4d", -9.841812133789062], ["ate", -9.322402954101562], ["\u2581later", -8.51026439666748], ["\u0430\u0442", -8.927671432495117], ["\u0627\u06cc", -9.102354049682617], ["\u2581kar", -9.10211181640625], ["\u0c32", -9.162654876708984], ["\u0648\u0644", -9.271791458129883], ["\u2581high", -8.514557838439941], ["ag", -9.036500930786133], ["\u043d\u0456", -9.111353874206543], ["\u2581los", -9.14285945892334], ["\u2581agus", -9.275830268859863], ["\u258113", -9.279050827026367], ["\u05e2", -9.48321533203125], ["6", -9.371188163757324], ["\u0437\u0438", -9.27607250213623], ["\u0254", -9.273746490478516], ["\u092a", -9.285723686218262], ["Comment", -9.480340957641602], ["des", -9.360001564025879], ["\u2581understand", -8.50405216217041], ["\u13a6", -9.405320167541504], ["\u0435\u043c", -8.942533493041992], ["\u2581change", -8.523616790771484], ["\u0935", -9.036888122558594], ["\u2581asked", -8.515785217285156], ["\u2581\u041e", -9.215482711791992], ["\u04a1", -9.495044708251953], ["\u2581gen", -9.397115707397461], ["\u2581\u0434", -9.331072807312012], ["ini", -8.988587379455566], ["ger", -9.258562088012695], ["\u0cbf", -9.135615348815918], ["\u2581fu", -9.189372062683105], ["\u0dbb", -9.17013931274414], ["\u0641", -9.032514572143555], ["\u1290", -9.286094665527344], ["\u043f\u0430", -9.295158386230469], ["tus", -9.375577926635742], ["bra", -9.372123718261719], ["\u2581article", -8.495773315429688], ["\u13af", -9.459702491760254], ["\u0440\u044b", -9.253349304199219], ["\u0635", -9.281886100769043], ["\u2581\u043c\u043e", -9.115316390991211], ["kwe", -9.089683532714844], ["\u2581often", -8.528051376342773], ["\u2581\u0441\u0430", -9.285935401916504], ["\u2581selected", -8.593548774719238], ["\u2581\u0627\u0632", -9.119540214538574], ["\u2581nya", -9.235692977905273], ["\u2581Son", -8.546972274780273], ["\u2581Regulation", -8.555953025817871], ["\u2581making", -8.526169776916504], ["\u2581ter", -9.27958869934082], ["\u2581mother", -8.518559455871582], ["\u2581ata", -9.27119255065918], ["\u0f58", -10.094091415405273], ["\u0645\u0627", -9.142363548278809], ["\u3001", -8.840843200683594], ["\u2581Ro", -9.272727966308594], ["\u2581dead", -8.538802146911621], ["\u2581Ar", -9.27375316619873], ["\u2581\u062f", -9.22252082824707], ["adh", -9.480938911437988], ["\u2581fact", -8.514041900634766], ["\u062d", -9.339811325073242], ["\u2581\u0646\u0627", -9.091497421264648], ["\u2581iyo", -9.13665771484375], ["\u0f56", -10.104500770568848], ["\u0d2f", -9.139567375183105], ["\u0131", -9.034503936767578], ["\u2581value", -8.537023544311523], ["\u2581sy", -9.30770492553711], ["\u258117", -9.252903938293457], ["\u0173", -8.99863338470459], ["\u2581taken", -8.55080795288086], ["\u0432\u0438", -9.285197257995605], ["mp", -9.188846588134766], ["\u2581respect", -8.626232147216797], ["\u2581f\u00f6r", -9.112910270690918], ["\u2581Za", -9.330491065979004], ["\u2581p\u00e9", -9.005953788757324], ["\u010di", -9.343153953552246], ["\u2581turn", -8.492053031921387], ["\u03bc", -9.573210716247559], ["bar", -9.294010162353516], ["\u2581\u0628\u0631", -9.211495399475098], ["\u2581\u062a\u0627", -9.12271499633789], ["\u2581eyes", -8.552423477172852], ["\u2581evil", -8.51565170288086], ["\u0d4d", -9.008238792419434], ["\u2581Ye", -9.4298095703125], ["\u2581nothing", -8.546304702758789], ["sch", -9.501314163208008], ["ux", -9.280214309692383], ["\u1798", -9.361705780029297], ["\u2581t\u00ed", -9.010223388671875], ["\u2581var", -9.156940460205078], ["\u2581consider", -8.520670890808105], ["\u045e", -9.291007995605469], ["\u0646\u0627", -9.065166473388672], ["\u2581ora", -9.215131759643555], ["ada", -8.986190795898438], ["\u2581\u201e", -9.079964637756348], ["tal", -9.284028053283691], ["\u0c28\u0c41", -9.158896446228027], ["aj", -8.9139404296875], ["\u0430\u0440\u0430", -9.36822509765625], ["):", -9.693684577941895], ["lia", -9.206620216369629], ["\u0e21", -9.198945045471191], ["\u043e\u043c", -8.994908332824707], ["\u062b", -9.388490676879883], ["raa", -9.173096656799316], ["\u2581Nu", -9.325435638427734], ["\u094b", -9.491348266601562], ["\u102c", -9.469440460205078], ["\u2581har", -9.23307991027832], ["\u05e1", -9.529267311096191], ["\u05dc", -9.330366134643555], ["ndu", -9.310003280639648], ["ble", -9.593657493591309], ["\u0c28\u0c3f", -8.976896286010742], ["\u064e", -9.133872032165527], ["\u2581speak", -8.548667907714844], ["\u2581\u0567", -9.027812957763672], ["iti", -9.099218368530273], ["\u2581including", -8.552729606628418], ["\u2581kas", -9.118109703063965], ["\u0448\u0435", -9.300721168518066], ["\u2581\u00ec", -9.10616683959961], ["\u2581woman", -8.56195068359375], ["lig", -9.326802253723145], ["\u2581%1", -8.584956169128418], ["\u0cb2", -9.326004028320312], ["\u00bb", -9.0010404586792], ["\u0926", -9.378642082214355], ["\u0e19", -9.192963600158691], ["\u0bb5", -9.441922187805176], ["\u2581ser", -9.130197525024414], ["\u2581isa", -9.317586898803711], ["\u2581sam", -9.18994426727295], ["\u2581och", -9.155708312988281], ["\u2581kuma", -9.321208953857422], ["\u2581body", -8.590801239013672], ["\u0d02", -9.045791625976562], ["\u2581Picture", -8.57265567779541], ["\u2581wrong", -8.565107345581055], ["tas", -9.198554992675781], ["\u2581available", -8.60103988647461], ["\u2581point", -8.565767288208008], ["\u2581ira", -9.330692291259766], ["las", -9.172282218933105], ["ks", -9.157196998596191], ["\u0a28", -9.237534523010254], ["\u2581group", -8.645366668701172], ["\u2581\u0915", -9.293030738830566], ["\u0441\u044c", -9.14642333984375], ["\u2581\u067e\u0631", -9.130159378051758], ["\u04e9", -9.330948829650879], ["\u2581\u0623", -9.475655555725098], ["\u2581reason", -8.561538696289062], ["\u1218", -9.299249649047852], ["\u2581ministry", -8.584936141967773], ["\u2581Open", -8.776735305786133], ["\u25814.", -9.468480110168457], ["\u12eb", -9.511517524719238], ["\u0a32", -9.354405403137207], ["\u2581control", -8.708213806152344], ["\u2581Well", -8.620903015136719], ["\u2581public", -8.746999740600586], ["\u2581ini", -9.302353858947754], ["ting", -9.558192253112793], ["ap", -9.075019836425781], ["\u0493\u0430", -9.39911937713623], ["\u2581nie", -9.376752853393555], ["nis", -9.193293571472168], ["\u2581lan", -9.166559219360352], ["uma", -9.183900833129883], ["one", -9.571544647216797], ["\u2581\u062c\u0627", -9.11883544921875], ["\u2581light", -8.56895637512207], ["\u0f72", -10.325931549072266], ["\u2581future", -8.604248046875], ["\u2581tin", -9.214073181152344], [">>udm<<", -100], ["\u2581tama", -9.249737739562988], ["ron", -9.475115776062012], ["\u2581\u12a3", -9.205939292907715], ["ky", -9.227352142333984], ["ip", -9.140547752380371], ["\u2581\u12a0", -9.39109992980957], ["una", -9.270856857299805], ["\u2581ratou", -9.192126274108887], ["\u09aa", -9.647870063781738], ["\u06b5", -8.949667930603027], ["\u2581began", -8.604310989379883], ["\u1794", -9.420721054077148], ["\u0abe", -9.629151344299316], ["\u2581vei", -9.435757637023926], ["\u03ac", -9.447863578796387], ["aka", -9.020263671875], ["\u2581\u0938", -9.650607109069824], ["\u2581xi", -9.204127311706543], ["\u03c7", -9.661341667175293], ["\u00ee", -9.12948989868164], ["\u2581\u0628\u0627", -9.13175106048584], ["\u2581\u1295", -9.277531623840332], ["\u2581whether", -8.608560562133789], ["\u4eba", -9.127525329589844], ["\u0ea1", -9.586669921875], ["ang", -9.130294799804688], ["\u2581\u0645\u06cc", -9.186429023742676], ["\u2581cause", -8.57804012298584], ["k\u00e9", -9.230031967163086], ["\u2581\u0144", -9.045621871948242], ["\u2581Error", -8.713579177856445], ["uti", -9.262078285217285], ["\u0442\u0435\u0440", -9.302026748657227], ["\u2581\u0622", -9.228418350219727], ["EC", -8.843595504760742], ["mma", -9.40603256225586], ["tos", -9.306492805480957], ["wan", -9.227377891540527], ["\u0435\u0442", -9.070219039916992], ["\u0561\u0576", -9.18321704864502], ["\u2581gui", -9.444043159484863], ["\u0d32", -9.281126022338867], ["\u1209", -9.30644702911377], ["yon", -9.324085235595703], ["\u2581provided", -8.609867095947266], [">>quc<<", -100], ["\u2581\u043f\u0430", -9.425869941711426], ["les", -9.293374061584473], ["\u2581mana", -9.393567085266113], ["\u2581according", -8.624981880187988], ["\u2581follow", -8.585321426391602], ["\u258131", -9.612556457519531], ["\u179f", -9.401418685913086], ["\u062a\u0627", -9.070368766784668], ["\u0263", -9.242169380187988], ["ira", -8.99113941192627], ["pha", -9.469954490661621], ["\u05d4", -9.436758995056152], ["\u2581Ver", -9.440075874328613], ["\u0443\u0440", -9.297842025756836], ["\u2581\u043c\u0438", -9.366683959960938], ["\u2581ano", -9.375651359558105], ["ssa", -9.323699951171875], ["\u2581known", -8.620240211486816], ["\u2581preaching", -8.629144668579102], ["\u0636", -9.513501167297363], ["\u2581bwe", -9.133575439453125], ["\u2581kind", -8.613321304321289], ["\u2581blood", -8.638769149780273], ["\u062c", -9.22966194152832], ["val", -9.46468448638916], ["\u13c1", -9.454487800598145], ["gar", -9.369019508361816], ["\u2581lix", -9.114089965820312], ["\u0c15\u0c41", -9.394448280334473], ["\u13d3", -9.580698013305664], ["tsi", -9.35191822052002], ["\u2581\u0431\u0443", -9.224251747131348], ["\u2581od", -9.342883110046387], ["\u2581\u0c85", -9.449437141418457], ["\u2581country", -8.628634452819824], ["\u4e0d", -9.208725929260254], ["sen", -9.1239013671875], ["\u2581hear", -8.616500854492188], ["\u2581matter", -8.597922325134277], ["\u2581food", -8.607527732849121], ["\u092c", -9.499476432800293], ["\u2581nos", -9.236515998840332], ["ud", -9.148329734802246], ["\u04b3", -9.136444091796875], ["\u2581ob", -9.301015853881836], ["Z", -9.465417861938477], ["\u0928\u0947", -9.355000495910645], ["\u2581Him", -8.540497779846191], ["\u2581El", -9.455543518066406], ["\u2581\u043a\u043e", -9.349270820617676], ["\u0646\u0649\u06ad", -9.003801345825195], ["\u2581--", -9.177485466003418], ["\u2581att", -9.287887573242188], ["\u2581\u0431\u043e\u043b", -9.271138191223145], ["\u0cb5", -9.25064468383789], ["nzi", -9.318963050842285], ["\u2581Gu", -9.407108306884766], ["\u2581\u10d3\u10d0", -9.119416236877441], ["\u2581nd\u1ecb", -9.117657661437988], ["\u2581uku", -9.105779647827148], ["\u2581\u092a", -9.567254066467285], ["\u2581\u05d0", -9.514689445495605], ["let", -9.40556812286377], ["\u064a\u0627", -9.342826843261719], ["\u2581countries", -8.6419677734375], ["\u2581whole", -8.659045219421387], ["\u2581amin", -9.264774322509766], ["\u2581\u06a9\u06c1", -9.049989700317383], ["\u2581result", -8.637459754943848], ["\u2581\u0431\u0438\u0440", -9.140753746032715], ["\u2581hath", -8.637127876281738], ["pen", -9.34560775756836], ["nje", -9.255703926086426], ["\u2581\u0915\u0947", -9.402998924255371], ["\u2581enn", -9.160375595092773], ["\u012b", -9.125561714172363], ["\u0631\u06cc", -9.063668251037598], ["\u2581ze", -9.379782676696777], ["\u2581ngan", -9.148856163024902], ["\u2581thought", -8.654336929321289], ["\u2581\u0436\u0430", -9.341292381286621], ["\u122b", -9.365523338317871], ["\u03ae", -9.494369506835938], ["\u258128", -9.65479564666748], ["\u2581action", -8.836326599121094], ["\u10dd", -9.351396560668945], ["\u2581few", -8.650101661682129], ["\u0eb2", -9.594514846801758], ["ura", -9.302862167358398], ["\u2581start", -8.830182075500488], ["\u6709", -9.219001770019531], ["\u0f51", -10.354632377624512], ["\u2581Please", -8.734176635742188], ["\u2581since", -8.655293464660645], ["\u2581report", -8.6454496383667], ["\u2581indeed", -8.596739768981934], ["\u2581Iehova", -9.324923515319824], ["\u2581Ang", -9.46665096282959], ["\u2581\u0447", -9.311439514160156], ["\u2581\u0627\u0633", -9.12814712524414], ["\u09cb", -9.713323593139648], ["\u2581someone", -8.673367500305176], ["\u17c6", -9.786372184753418], ["\u2581\u0445\u0430", -9.540935516357422], ["op", -9.363944053649902], ["nja", -9.314696311950684], ["ray", -9.436357498168945], ["\u03b1", -9.451292991638184], ["\u2581\u043f\u0440\u0438", -9.25016975402832], ["gy", -9.386553764343262], ["\u0442\u04d9", -9.539976119995117], ["\u2581special", -8.759840965270996], ["era", -9.200392723083496], ["\u2581didn", -8.701122283935547], ["\u2581current", -8.697697639465332], ["\u0d41", -9.219956398010254], ["\u2581forth", -8.646773338317871], ["\u2581uma", -9.41246223449707], ["\u2581\u201d?", -9.27781867980957], ["\u091a", -9.325715065002441], ["\u2581using", -8.720800399780273], ["\u2581Those", -8.6194486618042], ["\u0baf", -9.348002433776855], ["\u2581continue", -8.660531044006348], ["tz", -9.380629539489746], ["\u2581qu", -9.29640007019043], ["sar", -9.22371768951416], ["\u2581\u0c05", -9.249464988708496], ["\u2581Even", -8.667882919311523], ["\u2581provide", -8.64958381652832], ["\u0430\u043c", -9.057693481445312], ["X", -9.53538990020752], ["\u258121", -9.497763633728027], ["\u2581zu", -9.533495903015137], ["\u0103", -9.165206909179688], ["t\u00e1", -9.425032615661621], ["\u2581\u00bb.", -9.327679634094238], ["\u2581receive", -8.661154747009277], ["ris", -9.372318267822266], ["ok", -9.0233154296875], ["\u6211", -9.325759887695312], ["\u2581received", -8.686612129211426], ["\u043a\u0435", -9.250210762023926], ["\u0d3f", -9.281656265258789], ["\u04d5\u043d", -9.414021492004395], ["\u2581From", -8.698652267456055], ["ari", -9.251703262329102], ["\u094d\u092f", -9.563843727111816], ["\u2581\u0639", -9.404603004455566], ["\u10db", -9.396660804748535], ["\u2581th", -9.40911865234375], ["\u043b\u04d9\u0440", -9.279583930969238], ["\u2581ur", -9.33981704711914], ["EN", -9.52912425994873], ["\u2581\u00e8", -9.26791763305664], ["\u2581King", -8.677482604980469], ["\u2581Adam", -9.033828735351562], ["\u17bb", -9.761298179626465], ["\u2581present", -8.666695594787598], ["\u2581\u0985", -9.685344696044922], ["\u0ac7", -9.662371635437012], ["\u0c2e\u0c41", -9.253549575805664], ["nta", -9.08585262298584], ["\u0a3e", -9.359637260437012], ["\u0b30", -9.701363563537598], ["ant", -9.396208763122559], ["\u2581\u1265", -9.310810089111328], ["\u2581language", -8.678638458251953], ["\u2581error", -8.71908187866211], ["\u2581\u064a", -9.592121124267578], ["\u2581hin", -9.30030632019043], ["\u03bd", -9.518088340759277], ["\u063a", -9.351696014404297], ["\u09be", -9.636717796325684], ["\u0430\u0434", -9.099857330322266], ["mes", -9.493313789367676], ["\u2581sons", -8.700982093811035], ["\u2581purpose", -8.6763277053833], ["bil", -9.263692855834961], ["\u0437\u044b", -9.482110977172852], ["\u2581\u0431\u0438", -9.342702865600586], ["\u2581\u12a3\u1265", -9.115138053894043], ["\u2581clear", -8.664284706115723], ["\u2581prayer", -8.65870189666748], ["\u258112:", -9.493985176086426], ["uri", -9.441109657287598], ["eth", -8.748172760009766], ["\u2581money", -8.704741477966309], ["\u2581\u12ed", -9.501370429992676], ["\u2581hearts", -8.707207679748535], ["\u094d", -9.754673957824707], ["\u2581j", -9.483745574951172], ["\u0928\u093e", -9.437089920043945], ["dar", -9.326556205749512], ["\u2581\u043d\u043e", -9.240553855895996], ["kha", -9.459721565246582], ["\u2581wu", -9.4358491897583], ["\u2581\u0438\u0437", -9.409022331237793], ["\u0644\u0649", -9.34559154510498], ["\u0e07", -9.462226867675781], ["\u2581yon", -9.499192237854004], ["\u0a3f", -9.79541301727295], ["up", -9.487248420715332], ["ces", -9.490750312805176], ["\u25813.", -9.630072593688965], ["\u2581\u0418\u0435\u0433\u043e\u0432\u0430", -9.340445518493652], ["\u03b9", -9.45916748046875], ["\u0410", -9.367270469665527], ["\u2581ng", -9.46098804473877], ["ker", -9.414253234863281], ["\u2581\u0440", -9.754515647888184], ["\u2581situation", -8.756133079528809], ["?\"", -8.960979461669922], ["\u2581min", -9.37536907196045], [":%", -9.670758247375488], ["\u2581orang", -9.175775527954102], ["are", -9.339933395385742], ["\u2581Per", -9.658523559570312], ["sz", -9.440295219421387], ["\u0f53\u0f0b", -10.851786613464355], ["\u0cc7", -9.441449165344238], ["use", -9.71022891998291], ["\u2581air", -9.586384773254395], ["\u0b28", -9.712502479553223], ["\u2581See", -8.720148086547852], ["\".", -9.838902473449707], ["\u2581unit", -9.447064399719238], ["mbu", -9.256576538085938], ["lah", -9.274296760559082], ["\u0434\u0438\u0440", -9.183195114135742], ["\u0631\u0647", -9.069415092468262], ["\u2581Mr", -8.701910972595215], ["\u0578", -9.484732627868652], ["tis", -9.41430377960205], ["cht", -9.432966232299805], ["\u2581joy", -8.711870193481445], ["nto", -9.208898544311523], ["\u2581questions", -8.725385665893555], ["\u2581ken", -9.279707908630371], ["\u0dba", -9.245453834533691], ["\u2581second", -8.69826889038086], ["\u2581key", -8.741499900817871], ["\u0648\u06ba", -9.205451011657715], ["\u0d30", -9.43960952758789], ["mak", -9.318363189697266], ["\u2581toward", -8.700698852539062], ["\u2581command", -8.713399887084961], ["\u0b95\u0bcd\u0b95", -9.501036643981934], ["\u2581via", -9.502376556396484], ["stra", -9.59829330444336], ["\u2581program", -9.203203201293945], ["ila", -9.251679420471191], ["dde", -9.46700668334961], ["\u2581ngo", -9.317594528198242], ["\u0430\u043d\u0434", -9.254302978515625], ["\u2581san", -9.345186233520508], ["\u2581ako", -9.361189842224121], ["\u06bb", -9.342569351196289], ["\u0442\u0443", -9.386917114257812], ["pro", -9.549293518066406], ["\u2581created", -8.702282905578613], ["\u2581question", -8.815469741821289], ["mat", -9.253748893737793], ["\u0446\u0438", -9.583991050720215], ["\u2581mpe", -9.219315528869629], ["\u0646\u0647", -9.105201721191406], ["\u2581kag", -9.520736694335938], ["\u2581Because", -8.733010292053223], ["\u2581Yeah", -8.762103080749512], ["\u09c0", -9.559807777404785], ["l\u00f3", -9.2592134475708], ["l\u00ed", -9.473554611206055], ["\u2581tou", -9.357573509216309], ["20", -9.476158142089844], ["\u2581vai", -9.335609436035156], ["gt", -9.466143608093262], ["mer", -9.499329566955566], ["\u061f", -9.184382438659668], ["\u2581Psalm", -8.715545654296875], ["\u2581four", -8.726755142211914], ["\u2581Whether", -8.732093811035156], ["iga", -9.165433883666992], ["\u2581Man", -9.679990768432617], ["ns", -9.252541542053223], ["\u2581\u09aa", -9.876696586608887], ["bli", -9.767292022705078], ["for", -9.5078706741333], ["wana", -9.22153091430664], ["\u2581sara", -9.414949417114258], ["\u2581doo", -9.369524002075195], ["\u0d3e", -9.225205421447754], ["\u13a8", -9.610095977783203], ["\u2581bad", -8.738162994384766], ["\u2581Ru", -9.513227462768555], ["\u09b6", -9.881035804748535], ["7", -9.537461280822754], ["r\u00ed", -9.381061553955078], ["\u05ea", -9.415088653564453], ["nji", -9.403409957885742], ["llu", -9.438342094421387], ["\u0a24", -9.489283561706543], ["\u0eb0", -9.719172477722168], ["\u2581ten", -9.140722274780273], ["\u2581however", -8.741764068603516], ["\u2581kina", -9.535326957702637], ["\u17c1", -9.566043853759766], ["\u4e00", -9.3107328414917], ["\u2581\u00e0w\u1ecdn", -9.165736198425293], ["10", -9.571372985839844], ["\u0bae\u0bcd", -9.379911422729492], ["\u2581\u00ed", -9.429551124572754], ["\u258127", -9.674574851989746], ["\u2581works", -8.820642471313477], ["\u0431\u0438", -9.457073211669922], ["\u2581\u0939\u0948", -9.529854774475098], ["num", -9.47265625], ["\u2581swi", -9.179699897766113], ["\u2581knew", -8.74875545501709], ["\u2581t\u00e2", -9.34294605255127], ["\u05d6", -9.62553596496582], ["\u2581righteous", -8.714897155761719], ["\u0438\u0431", -9.284958839416504], ["\u2581\u1794", -9.708553314208984], ["\u2581\u12a5", -9.833182334899902], ["\u2581anything", -8.756366729736328], ["\u05f2", -20.006996154785156], ["\u044d\u044d", -9.353981018066406], ["\u0f62", -10.22902774810791], ["\u2581hands", -8.766980171203613], ["\u05d3", -9.78927230834961], ["thu", -9.313425064086914], ["\u0ba4\u0bc1", -9.41550350189209], ["\u0438\u0442", -9.349600791931152], ["ity", -9.351539611816406], ["\u0c2f", -9.368305206298828], ["\u05e4", -9.676218032836914], ["\u03c6", -9.73126220703125], ["\u1ee5", -9.356346130371094], ["\u2581kana", -9.53492546081543], ["sk", -9.478094100952148], ["\u2581\u041f\u0430", -9.634490966796875], ["\u2581experience", -8.743721961975098], ["\u2581mate", -9.801486015319824], ["\u2581\u06a9\u0627", -9.204788208007812], ["\u2581leave", -8.714481353759766], ["\u2581Iesu", -9.335380554199219], ["\u2581\u4f60", -9.471222877502441], ["\u2581local", -8.923686981201172], ["rum", -9.455068588256836], ["rt", -9.072545051574707], ["\u2581\u043a\u0443", -9.513890266418457], ["\u0c30\u0c4d", -9.410198211669922], ["\u0e01", -9.327162742614746], ["\u2581needed", -8.764670372009277], ["\u2581jun", -9.432475090026855], ["anna", -9.512495040893555], ["8", -9.508087158203125], ["ac", -9.441254615783691], ["\u2581koe", -9.353251457214355], ["\u2581hard", -8.754230499267578], ["\u2581usa", -9.436321258544922], ["lay", -9.501922607421875], ["\u2581please", -8.764002799987793], ["\u2581isi", -9.4076509475708], ["\u258129", -9.678293228149414], ["\u2581\u043c\u0443", -9.452608108520508], ["\u2581Job", -8.950246810913086], ["\u0431\u043e", -9.508991241455078], ["\u05d7", -9.679888725280762], ["\u2581\u0633", -9.36937427520752], ["\u0ea7", -9.64458179473877], ["\u2581neither", -8.758793830871582], ["\u2581Europe", -9.251161575317383], ["my", -9.498533248901367], ["\u2581gin", -9.380509376525879], ["\u06cc\u062f", -9.344795227050781], ["dos", -9.491323471069336], ["\u2581\u0ec0\u0eae\u0ebb\u0eb2", -9.235001564025879], ["\u2581\u0441\u0438", -9.596694946289062], ["\u0438\u044f", -9.312577247619629], ["\u2581Yet", -8.74726390838623], ["\u2581zot", -9.26221752166748], ["\u2581line", -8.796687126159668], ["\u2581problem", -9.034811019897461], ["\u04d1\u043d", -9.742202758789062], ["\u2581Yesu", -9.264273643493652], ["\u092f", -9.478670120239258], ["\u00fb", -9.533597946166992], ["\u0aa8", -9.760644912719727], ["\u4f60", -9.432232856750488], ["\u2581members", -8.766613960266113], ["\u2581File", -8.818026542663574], ["\u0a15", -9.474569320678711], ["lang", -9.561307907104492], ["\u043e\u0442", -9.209510803222656], ["r\u00eb", -9.780730247497559], ["\u2581mankind", -8.738968849182129], ["\u05db", -9.868470191955566], ["\u2581\u0442\u0443", -9.40550422668457], ["bili", -9.658158302307129], ["\u2581\u0646\u06d2", -9.208827018737793], ["\u2581fil", -9.453293800354004], ["\u10ee", -9.63232707977295], ["\u2581yourself", -8.787379264831543], ["\u2581heavens", -8.740918159484863], ["\u2581problems", -8.723620414733887], ["\u258123", -9.743096351623535], ["\u0ab2", -10.004487991333008], ["\u2581Select", -8.83833122253418], ["iki", -9.271886825561523], ["\u2581diri", -9.324512481689453], ["\u2581lava", -9.289213180541992], ["t\u00eb", -9.524887084960938], ["\u2581elders", -8.791657447814941], ["\u2581Union", -8.926679611206055], ["\u2581Committee", -8.775227546691895], ["\u2581Of", -8.794559478759766], ["\u0b3f", -9.593608856201172], ["\u0438\u0442\u0435", -9.561842918395996], ["\u0633\u0647", -9.095667839050293], ["\u0bb0", -9.497109413146973], ["\u2581talk", -8.768630981445312], ["\u2581ina", -9.629731178283691], ["ay", -8.933523178100586], ["\u062a\u0627\u0646", -9.159663200378418], ["\u2581inter", -9.71192455291748], ["\u25810", -9.640615463256836], ["ntu", -9.372329711914062], ["ui", -9.134751319885254], ["\u2581bon", -9.478292465209961], ["\u2581application", -8.815455436706543], ["\u2581humans", -8.819849967956543], ["\u1e25", -9.39012622833252], ["\u2581\u0431\u0430\u0440", -9.302406311035156], ["\u2581try", -8.792510986328125], ["\u2581happy", -8.79404067993164], ["\u2581\u09b8", -9.813177108764648], ["(_", -9.387920379638672], ["s\u00ed", -9.602219581604004], ["tum", -9.381735801696777], ["\u2581answer", -8.781941413879395], ["\u2581Cha", -9.700223922729492], ["\u2581move", -8.792119026184082], ["pre", -9.506701469421387], ["\u2581marriage", -8.773162841796875], ["\u0e14", -9.371537208557129], ["\u0dbd", -9.565584182739258], ["\u17bc", -9.770569801330566], ["mon", -9.567657470703125], ["\u043b\u044f", -9.50963306427002], ["\u06af\u0647", -9.138368606567383], ["\u0148", -9.327763557434082], ["\u133d", -9.434542655944824], ["bh", -9.817620277404785], ["\u06c6", -9.563996315002441], ["\u2581wax", -9.412534713745117], ["ue", -9.382096290588379], ["\u2581husband", -8.77946949005127], ["\u2581\u12a8", -9.576658248901367], ["\u2581\u0431\u043e", -9.280210494995117], ["\u2581Matthew", -8.798791885375977], ["\u2581kwe", -9.35515022277832], ["\u2581side", -8.8025541305542], ["\u2581\u306b", -9.302599906921387], ["nte", -9.245828628540039], ["\u2581eat", -8.77706241607666], ["\u2581return", -8.758769035339355], ["\u2581\u0c95", -9.526667594909668], ["\u2581\u067e\u0647", -9.226117134094238], ["\u1037", -9.7752685546875], ["\u0bc1", -9.456900596618652], ["\u2581coming", -8.816014289855957], ["\u65e5", -9.23786735534668], ["\u05e7", -9.527891159057617], ["\u1320", -9.556136131286621], ["\u0627\u0631", -9.412867546081543], ["var", -9.412151336669922], ["\u0438\u0448", -9.17601203918457], ["\u2581loving", -8.803791999816895], ["\u0917", -9.547682762145996], ["l\u00e8", -9.380166053771973], ["\u2581needs", -8.889591217041016], ["\u062a\u06cc", -9.180893898010254], ["\u2581fellow", -8.800530433654785], ["\u1ecb", -9.397147178649902], ["\u03b8", -9.687398910522461], ["\u2581pas", -9.309076309204102], ["\u2581plan", -9.539637565612793], ["\u12f3", -9.542433738708496], ["\u05d5", -9.646037101745605], ["\u2581fine", -8.826027870178223], ["ram", -9.568230628967285], ["\u2581vol", -9.578746795654297], ["\u2581State", -8.808557510375977], ["lwa", -9.391910552978516], ["\u2581tagata", -9.377422332763672], ["\u2581Com", -9.629483222961426], ["\u0441\u044b", -9.487336158752441], ["\u043b\u0443", -9.443815231323242], ["\u0e22", -9.42420768737793], ["\u258126", -9.808135032653809], ["\u258110:", -9.574456214904785], ["\u0ac0", -9.7498197555542], ["dda", -9.730799674987793], ["bel", -9.472825050354004], ["\u2581share", -8.78500747680664], ["\u17b6", -9.681366920471191], ["\u2581Don", -8.993035316467285], ["\u2581friends", -8.835997581481934], ["ist", -9.817483901977539], ["\u1263", -9.392906188964844], ["\u258122", -9.507959365844727], ["\u2581EU", -9.201672554016113], ["can", -9.7421293258667], ["\u0c32\u0c41", -9.598931312561035], ["\u25815.", -9.640643119812012], ["\u2581Where", -8.847515106201172], ["res", -9.33967399597168], ["\u091c", -9.706476211547852], ["\u2581ndo", -9.447793960571289], ["\u0ba4\u0bcd\u0ba4", -9.46649169921875], ["\u2581Men", -9.684309959411621], ["\u2581whaka", -9.43282413482666], ["\u2581\u0627\u0648", -9.413893699645996], ["\u2581\u0430\u0437", -9.397297859191895], ["\u2581\u0422", -9.285707473754883], ["\u2581wicked", -8.801431655883789], ["\u2581Jews", -8.816673278808594], ["\u0d35", -9.406875610351562], ["\u2581Many", -8.820608139038086], ["\u2581Day", -8.732430458068848], ["kho", -9.309791564941406], ["\u2581ari", -9.42974853515625], ["eg", -9.224210739135742], ["\u2581century", -8.830599784851074], ["oc", -9.439276695251465], ["uk", -9.334222793579102], ["\u0438\u0437", -9.500106811523438], ["\u2581nda", -9.461875915527344], ["\u2581save", -8.803067207336426], ["\u2581comes", -8.89160442352295], ["\u2581tala", -9.485507011413574], ["\u0ccb", -9.613508224487305], ["\u2581wisdom", -8.80806827545166], ["\u2581kg", -8.876094818115234], ["9", -9.574042320251465], ["\u12d5", -9.382850646972656], ["tak", -9.44653034210205], ["ex", -9.560894966125488], ["\u00e5", -9.457517623901367], ["\u12ab", -9.513030052185059], ["bre", -9.613617897033691], ["Q", -9.902850151062012], ["\u2581Say", -8.957830429077148], ["\u0bb2", -9.575439453125], ["\u0bae", -9.590728759765625], ["\u2581Yo", -9.494840621948242], ["\u2581tino", -9.298935890197754], ["\u6708", -9.25121021270752], ["\u2581ah", -9.483963012695312], ["\u2581gonna", -8.87423038482666], ["\u2581gra", -9.67857551574707], ["\u2581above", -8.822643280029297], ["\u2581Mar", -9.667911529541016], ["\u2581helped", -8.823797225952148], ["aba", -9.221742630004883], ["van", -9.538416862487793], ["sy", -9.351147651672363], ["ela", -9.49227523803711], ["\u2581qa", -9.597677230834961], ["\u2581small", -8.83184814453125], ["\u2581b\u00e1", -9.356505393981934], ["\u2581nations", -8.839395523071289], ["\u0e87", -9.564043998718262], ["\u134d", -9.360830307006836], ["\u062f\u0649\u0646", -9.215719223022461], ["\u2581ati", -9.525364875793457], ["\u2581\u1019", -9.527652740478516], ["\u2581sta", -9.704392433166504], ["\u2581\u0438\u043d", -9.541053771972656], ["\u0f51\u0f0b", -10.713098526000977], ["\u2581counsel", -8.839762687683105], ["ere", -9.1650972366333], ["\u00e1n", -9.45920181274414], ["\u0633\u0627", -9.478337287902832], ["\u2581s\u00ed", -9.326129913330078], ["\u1784", -9.496333122253418], ["\u2581real", -8.842787742614746], ["\u00f6", -9.439762115478516], ["bat", -9.426325798034668], ["\u2581\u092a\u094d\u0930", -9.81779670715332], ["\u0bb0\u0bcd", -9.568315505981445], ["\u2581t\u00e4", -9.520913124084473], ["\u2581ph", -9.53434944152832], ["\u2581strong", -8.832768440246582], ["\u011f", -9.600189208984375], ["\u2581<", -9.501523971557617], ["\u2581dat", -9.402674674987793], ["ent", -9.489090919494629], ["\u2581Scriptures", -8.839448928833008], ["\u1270", -9.440556526184082], ["\u1e63", -9.481522560119629], ["\u2581fire", -8.826332092285156], ["\u0fb1", -10.959158897399902], ["\u2581area", -8.86291217803955], ["\u2581document", -9.007939338684082], ["\u1019", -9.757499694824219], ["ano", -9.47530746459961], ["\u063a\u0627", -9.250563621520996], ["phe", -9.651823043823242], ["\u2581kitai", -9.319196701049805], ["ale", -9.301451683044434], ["ple", -9.648741722106934], ["\u1233", -9.459341049194336], ["nar", -9.505887031555176], ["put", -9.52067756652832], ["\u258111:", -9.621776580810547], ["\u2581Kon", -9.54720687866211], ["\u0e94", -9.55228042602539], ["\u2581trust", -8.822879791259766], ["\u2581fer", -9.571586608886719], ["mana", -9.52979850769043], ["og", -9.343998908996582], ["\u043d\u04d1", -9.710394859313965], ["\u0ba4", -9.65701961517334], ["\u044b\u043f", -9.409469604492188], ["\u2581period", -8.852216720581055], ["\u0e27", -9.585947036743164], ["\u2581\u06a9\u0627\u0646", -9.432650566101074], ["\u2581\u06c1\u06cc\u06ba", -9.250516891479492], ["lag", -9.630733489990234], ["\u12f0", -9.397049903869629], ["\u0435\u0440", -9.238070487976074], ["\u0525", -10.076414108276367], ["\u2581wanted", -8.867974281311035], ["\u2581toe", -9.489104270935059], ["\u2581meetings", -8.865317344665527], ["nna", -9.331548690795898], ["anga", -9.198888778686523], ["\u0458", -9.495370864868164], ["\u2581Ju", -9.599028587341309], ["19", -9.545539855957031], ["ani", -9.29575252532959], ["ish", -9.774764060974121], ["hon", -9.550859451293945], ["\u0565\u0580", -9.519375801086426], ["\u2581aki", -9.712831497192383], ["\u306e", -9.271919250488281], ["\u2581\u06cb\u06d5", -9.263148307800293], ["\u2581\u043d\u0438", -9.781986236572266], ["\u2581yeke", -9.437482833862305], ["\u2581benefit", -8.810598373413086], ["\u03bf", -9.59976577758789], ["\u0e95", -9.930777549743652], ["\u00f3n", -9.50767707824707], ["\u2581field", -8.851346015930176], ["\u2581lives", -8.864620208740234], ["\u2581\u041f", -9.449804306030273], ["\u0ec8", -9.740422248840332], ["\u06d5\u062a", -9.673755645751953], ["\u2581\u1000\u102d\u102f", -9.45576000213623], ["\u012f", -9.585553169250488], ["\u0c15", -9.390682220458984], ["\u0d9a", -9.545161247253418], ["mis", -9.546687126159668], ["\u2581remember", -8.831313133239746], ["\u2581avoid", -8.866475105285645], ["\u2581everything", -8.848313331604004], ["\u0e25", -9.420187950134277], ["\u0a4b", -9.656610488891602], ["\u0c24", -9.52185344696045], ["\u2581las", -9.476223945617676], ["\u2581\u0baa", -9.736726760864258], ["\u2581taking", -8.870676040649414], ["\u0418", -9.421597480773926], ["\u0c95", -9.671643257141113], ["\u2581Es", -9.569984436035156], ["dia", -9.643617630004883], ["\u2581mwa", -9.489373207092285], ["\u2581ihe", -9.355528831481934], ["\u0db1\u0dca", -9.524543762207031], ["\u0daf", -9.515091896057129], ["\u2581Thus", -8.837148666381836], ["keun", -9.459881782531738], ["\u121b", -9.508679389953613], ["\u1325", -9.531742095947266], ["type", -9.659374237060547], ["\u2581\u043a\u0435", -9.47832202911377], ["\\", -9.263066291809082], ["\u1780", -9.451667785644531], ["format", -9.76685619354248], ["ngaahi", -9.302371978759766], ["\u127d", -9.83816909790039], ["\u25813,", -9.865435600280762], ["Other", -8.854706764221191], ["\u2581\u0627\u0633\u062a", -9.57260799407959], ["ilo", -9.462674140930176], ["\u2581social", -9.152997970581055], ["\u2581ourselves", -8.87690258026123], ["\u2581desire", -8.840835571289062], ["\u0d4b", -9.593141555786133], ["\u0430\u043b", -9.308721542358398], ["\u2581certainly", -8.83995532989502], ["\u2581ej", -9.396082878112793], ["yen", -9.57819938659668], ["\u178f", -9.576604843139648], ["\u1205", -9.584464073181152], ["nak", -9.53659439086914], ["\u2581\u0a38", -9.640565872192383], ["\u2581aan", -9.626893997192383], ["\u2581res", -9.568650245666504], ["\u13b8", -9.986662864685059], ["\u2581pay", -9.236234664916992], ["\u2581May", -9.079095840454102], ["\u2581surely", -8.797843933105469], ["\u2581mit", -9.599970817565918], ["hr", -9.639106750488281], ["\u0623", -9.839693069458008], ["con", -9.97245979309082], ["\u2581makes", -8.966248512268066], ["\u2581\u0570", -9.652243614196777], ["\u2581\u041a", -9.257749557495117], ["\u03b7", -9.639524459838867], ["\u2581mis", -9.672112464904785], ["\u2581till", -9.83774185180664], ["\u0441\u0435\u043c", -9.774539947509766], ["\u1272", -9.475299835205078], ["\u04ad\u0430", -9.885918617248535], ["\u0493", -9.628292083740234], ["\u0cae", -9.659850120544434], ["\u2581\u062e", -9.46890640258789], ["ende", -9.457013130187988], ["\u06be\u064a", -9.580916404724121], ["\u09f0\u09cd", -10.140658378601074], ["\u2581whose", -8.85733413696289], ["cer", -9.671198844909668], ["\u2581\u043c", -9.749883651733398], ["tut", -9.558606147766113], ["\u2581Hu", -9.719693183898926], ["\u0f62\u0f0b", -10.471543312072754], ["\u05d2", -9.551226615905762], ["\u2581health", -8.892789840698242], ["jen", -9.511880874633789], ["\u2581\u12dd", -9.487799644470215], ["isa", -9.269227981567383], ["\u0648\u0627\u0646\u0647", -9.274314880371094], ["\u13cd\u13d7", -9.785947799682617], ["tua", -9.666284561157227], ["\u0445\u0430", -9.6661958694458], ["\u04d5\u0439", -9.713031768798828], ["\u03c1", -9.774107933044434], ["\u2581head", -8.879344940185547], ["\u0921", -9.617463111877441], ["vis", -9.63358211517334], ["\u258140", -9.744318008422852], ["ft", -9.702842712402344], ["\u2581Organiser", -8.877477645874023], ["lok", -9.40526008605957], ["t\u0101", -9.545536994934082], ["nni", -9.413919448852539], ["\u0e81", -9.646590232849121], ["\u0433\u0438", -9.486676216125488], ["ora", -9.559221267700195], ["\u2581\u1270", -9.478043556213379], ["\u03c2", -9.459879875183105], ["\u2581lead", -8.860186576843262], ["\u2581anointed", -8.896689414978027], ["\u2581\u0643", -9.648006439208984], ["\u0e99", -9.542757034301758], ["ara", -9.331411361694336], ["\u043b\u0456", -9.618775367736816], ["met", -9.538039207458496], ["\u0434\u0435\u0440", -9.504232406616211], ["\u2581near", -8.89798355102539], ["\u1260", -9.543015480041504], ["\u1230", -9.474203109741211], ["\u0445\u0438", -9.634879112243652], ["\u2581f\u00e8", -9.693805694580078], ["\u0432\u0435", -9.630558013916016], ["\u103a", -10.298242568969727], ["tura", -9.61919116973877], ["ens", -9.697074890136719], ["\u2581Fe", -9.75914478302002], ["\u06cc\u0627", -9.33574390411377], ["\u2581Chi", -9.724164009094238], ["\u05d0", -9.687556266784668], ["\u2581\u062d", -9.506610870361328], ["\u00e1l", -9.572855949401855], ["\u2581thus", -8.895013809204102], ["\u2581tar", -9.743898391723633], ["\u043a\u04d9", -9.664040565490723], ["\u03b5\u03b9", -10.018637657165527], ["\u0ca1", -9.66358757019043], ["\u00ec", -9.316962242126465], ["\u2581sp", -9.764447212219238], ["\u2581\u0432\u043e", -9.492379188537598], ["\u0d15", -9.402426719665527], ["set", -9.767067909240723], ["\u0abf", -10.259252548217773], ["\u0dd0", -9.691466331481934], ["\u2581THE", -8.928316116333008], ["ich", -9.659934043884277], ["io", -9.463577270507812], ["mpi", -9.5574369430542], ["\u2581\u0627\u0644\u0623", -9.971878051757812], ["\u064a\u06d5\u0646\u0649", -9.28134536743164], ["nin", -9.424885749816895], ["\u06d5", -9.404245376586914], ["\u2581yan", -9.770529747009277], ["\u2581pan", -9.428789138793945], ["\u0dda", -9.510324478149414], ["iz", -9.359325408935547], ["\u2581\u1e63e", -9.332433700561523], ["\u2581\u0434\u0435", -9.66879940032959], ["\u2581aika", -9.776915550231934], ["\u2581Wi", -10.015243530273438], ["\u2581KDE", -9.6126127243042], ["\u2581d\u00e9", -9.646561622619629], ["\u2581decision", -8.898738861083984], ["\u2581soon", -8.916585922241211], ["\u2581remain", -8.893594741821289], ["Ma", -9.570503234863281], ["\u13c9", -10.067699432373047], ["\u25812,", -10.1554594039917], ["\u2581allow", -8.905903816223145], ["dat", -9.555913925170898], ["\u2581Therefore", -8.91148567199707], ["\u0a71", -9.80431842803955], ["mit", -9.671317100524902], ["\u2581latou", -9.41072940826416], ["\u2581mas", -9.41014575958252], ["\u1010", -9.686166763305664], ["\u0930\u094d", -9.676350593566895], ["\u2581\u0986", -9.941951751708984], ["qi", -9.763636589050293], ["\u2581een", -9.590994834899902], ["t\u00ed", -9.610199928283691], ["\u0a38", -9.74620532989502], ["sho", -9.71741008758545], ["\u2581\u0432\u0438", -9.513664245605469], ["\u2581self", -8.890520095825195], ["\u2581\u042d", -9.540307998657227], ["\u2581r\u00e9", -9.722646713256836], ["\u09b8", -9.845531463623047], ["\u03ba", -9.798046112060547], ["\u0561\u056f", -9.672209739685059], ["\u2581Pu", -9.699231147766113], ["\u2581based", -8.922024726867676], ["tel", -9.708897590637207], ["\u0440\u0442", -9.492449760437012], ["war", -9.733972549438477], ["mar", -9.76695728302002], ["\u258133", -9.882950782775879], ["nas", -9.635897636413574], ["\u2581meeting", -8.901902198791504], ["\u2581activities", -8.905974388122559], ["\u2581authority", -8.935376167297363], ["das", -9.627432823181152], ["\u2581vis", -9.730371475219727], ["\u0bbe", -9.78194808959961], ["\u2581Move", -8.985662460327148], ["\u2581eller", -9.538342475891113], ["run", -9.534945487976074], ["\u1785", -10.129435539245605], ["\u2581Canno", -9.024693489074707], ["\u2581\u0433\u043e", -9.542869567871094], ["\u2581\u0430\u043b", -9.387407302856445], ["\u043b\u04d9", -9.699859619140625], ["\u2581az", -9.479777336120605], ["\u13ad", -9.899698257446289], ["\u2581happened", -8.930119514465332], ["\u2581Daniel", -9.25865364074707], ["\u2581age", -8.90743637084961], ["\u2581relationship", -8.918140411376953], ["\u014d", -9.5243501663208], ["ord", -9.763432502746582], ["\u2581\u05dc", -9.887030601501465], ["\u2581felt", -8.93393325805664], ["gra", -9.647906303405762], ["City", -9.929384231567383], ["\u062f\u0649", -9.54754638671875], ["\u0c97", -9.643682479858398], ["\u258110.", -9.656655311584473], ["\u062c\u0627", -9.614686965942383], ["kka", -9.704059600830078], ["mata", -9.73862075805664], ["lli", -9.593286514282227], ["\u2581Pre", -9.958581924438477], ["\u2581\u0914\u0930", -9.697667121887207], ["\u25818.", -9.634405136108398], ["pat", -9.484993934631348], ["\u0624", -9.835186004638672], ["\u13aa", -9.875919342041016], ["kk", -9.325075149536133], ["\u2581national", -8.92327880859375], ["ej", -9.329598426818848], ["\u0e1a", -9.551904678344727], ["taki", -9.847423553466797], ["com", -10.0670804977417], ["\u0aa4", -10.091928482055664], ["\u2581development", -8.903740882873535], ["\u2581create", -8.96618366241455], ["ness", -8.983476638793945], ["\u0456", -9.202653884887695], ["\u2581tak", -9.508353233337402], ["\u258113:", -9.713746070861816], ["\u2581wise", -8.93231201171875], ["J", -9.755946159362793], ["bwa", -9.869596481323242], ["\u0441\u044f", -9.578962326049805], ["IN", -9.819469451904297], ["\u00e7a", -9.553292274475098], ["iza", -9.540352821350098], ["\u2581written", -8.936043739318848], ["\u2581Add", -9.008922576904297], ["\u2581Ci", -9.679966926574707], ["\u0db1", -9.65162181854248], ["\u258150", -9.699067115783691], ["\u2581further", -8.947446823120117], ["\u2581\u17d4", -9.29297161102295], ["sel", -9.745943069458008], ["\u2581\u06fe", -9.514568328857422], ["\u2581soul", -8.89978313446045], ["mus", -9.703431129455566], ["\u25817:", -9.73005485534668], ["\u2581\u00e5", -9.548208236694336], ["\u2581baptized", -8.939778327941895], ["mm", -9.73978042602539], ["\u2581\u0445\u043e", -9.529739379882812], ["\u0d47", -9.609574317932129], ["l\u00e4", -9.649615287780762], ["\u0cc2", -9.61413288116455], ["jar", -9.668622016906738], ["\u2581\u0e9e\u0eb0", -9.496545791625977], ["\u09b0\u09cd", -10.264735221862793], ["\u2581\u0622\u0646", -9.499842643737793], ["\u2581ake", -9.750496864318848], ["\u2581died", -8.951281547546387], ["\u2581level", -8.954977035522461], ["\u1215", -9.431437492370605], ["\u2581\u04b3\u0430\u043c", -9.368783950805664], ["\u2581learned", -8.9528169631958], ["\u0626", -9.56836223602295], ["ld", -9.486908912658691], ["\u2581once", -8.962841987609863], ["\u0d15\u0d4d\u0d15", -9.60856819152832], ["\u2581pra", -9.601411819458008], ["ksi", -9.788174629211426], ["\u1245", -9.702193260192871], ["\u2581\u121d", -9.893205642700195], ["bha", -9.9666109085083], ["\u016b", -9.418136596679688], ["\",", -10.235712051391602], ["12", -9.74242877960205], ["\u0445\u04d9", -10.092269897460938], ["\u05dd", -9.73172664642334], ["\u2581\u13d7", -9.898262023925781], ["\u25817.", -9.674434661865234], ["\u0565", -9.710382461547852], ["\u2581Am", -9.769848823547363], ["d\u0259", -9.965832710266113], ["\u2581\u06af", -9.84678840637207], ["pri", -9.691872596740723], ["stu", -9.67885684967041], ["para", -9.76397705078125], ["\u056b\u0576", -9.472732543945312], ["\u0bc1\u0bae\u0bcd", -9.628296852111816], ["ata", -9.352704048156738], ["\u2581aga", -9.77877140045166], ["\u13f3", -10.080875396728516], ["\u2581Joseph", -9.056017875671387], ["\u03c9", -9.95632266998291], ["\u258132", -9.954057693481445], ["\u2581position", -8.971977233886719], ["\u2581nen", -9.599849700927734], ["\u2581school", -8.931537628173828], ["\u2581sur", -9.70316219329834], ["tse", -9.687108993530273], ["ung", -9.578285217285156], ["\u2581iki", -9.594707489013672], ["gin", -9.680667877197266], ["\u2581bil", -9.56480598449707], ["\u12ad", -9.809494972229004], ["\u2581skal", -9.593722343444824], ["\u0c2a", -9.504629135131836], ["\u2581\u0412", -9.529147148132324], ["\u094d\u092f\u093e", -9.653404235839844], ["\u2581Fo", -9.872407913208008], ["dd", -9.562368392944336], ["\u2581international", -8.93350601196289], ["\u2581ear", -9.775681495666504], ["\u2581\u043e\u0431", -9.686722755432129], ["\u5230", -9.587326049804688], ["\u2581World", -9.045206069946289], ["\u2581m\u00e9", -9.62626838684082], ["\u062a\u0647", -9.324621200561523], ["\u2581five", -8.985705375671387], ["\u2581necessary", -9.001771926879883], ["\u2581sija", -9.805215835571289], ["\u2581\u0442\u0438", -9.65611743927002], ["\u2581temple", -8.98470687866211], ["\u2581working", -9.001564025878906], ["\u2581ete", -9.577217102050781], ["tso", -9.924644470214844], ["syon", -9.73226261138916], ["\u2581enough", -8.99247932434082], ["sse", -9.545001029968262], ["org", -9.71451187133789], ["\u2581\u044d", -9.611076354980469], ["zh", -9.707857131958008], ["ses", -9.6579008102417], ["\u2581(%", -9.7896089553833], ["\u2581glory", -8.983128547668457], ["mal", -9.594622611999512], ["\u0627\u0641", -9.852384567260742], ["\u2581\u0648\u06c1", -9.384123802185059], ["c\u00df", -9.796873092651367], ["\u0447\u044b", -9.64768123626709], ["\u3044", -9.397130966186523], ["\u2581uz", -9.488578796386719], ["agh", -10.072962760925293], ["gg", -9.630521774291992], ["\u2581Come", -9.005627632141113], ["\u2581along", -8.971384048461914], ["zin", -9.612482070922852], ["sko", -9.67456340789795], ["\u00e7\u00e3o", -9.591243743896484], ["\u2581Indeed", -8.915925979614258], ["\u2581sub", -10.030742645263672], ["\u0638", -10.146648406982422], ["din", -9.669157028198242], ["dwa", -9.653559684753418], ["\u0d9a\u0dca", -9.65414810180664], ["\u2581pray", -8.962135314941406], ["\u2581\u09ac", -10.113612174987793], ["\u2581ab", -9.578668594360352], ["inn", -9.569086074829102], ["ide", -9.773111343383789], ["\u2581pla", -9.54979133605957], ["ito", -9.665322303771973], ["\u0434\u044b\u0440", -9.6104154586792], ["lem", -9.737648010253906], ["\u2581Wo", -9.715744972229004], ["\u0ca8\u0cc1", -9.765008926391602], ["\u0627\u0626", -9.880415916442871], ["\u2581\u0915\u0930", -9.627453804016113], ["\u2581kei", -9.800042152404785], ["\u0e9a", -9.681692123413086], ["\u2581kaj", -9.740387916564941], ["\u0435\u0439", -9.552257537841797], ["wer", -9.776966094970703], ["\u1031", -9.728873252868652], ["tika", -9.598099708557129], ["\u12a3", -9.632665634155273], ["\u0d24", -9.43631649017334], ["\u043c\u0430\u043d", -9.614481925964355], ["\u05d1", -9.846339225769043], ["\u2581fra", -9.699372291564941], ["zer", -9.830843925476074], ["\u2581\u092c", -9.767167091369629], ["\u2581\u056f", -9.558525085449219], ["\u2581nke", -9.49648666381836], ["of", -9.222063064575195], ["\u0c3e", -9.652499198913574], ["ili", -9.488448143005371], ["\u2581enter", -8.982945442199707], ["\u25816.", -9.789527893066406], ["ente", -9.67218017578125], ["vel", -9.575213432312012], ["\u2581dhe", -9.635370254516602], ["kulu", -9.605219841003418], ["ati", -9.429051399230957], ["\u017ei", -9.805577278137207], ["\u057a", -9.741506576538086], ["\u2581tai", -9.700820922851562], ["\u0ec9", -10.090444564819336], ["\u2581act", -8.958683013916016], ["\u2581Just", -9.012947082519531], ["\u2581xe", -9.702974319458008], ["\u2581\u0ec0", -10.01714038848877], ["yl", -9.897390365600586], ["\u00e9r", -9.674383163452148], ["mpa", -9.676663398742676], ["\u2581Israelites", -8.984418869018555], ["\u2581apply", -9.009921073913574], ["\u2581Isa", -9.876524925231934], ["\u2581\u00f3", -9.634278297424316], ["\u044b\u0437", -9.661396980285645], ["cion", -9.701455116271973], ["\u0430\u0445", -9.473000526428223], ["\u2581\u0648\u0627\u0644", -9.674484252929688], ["\u2581giving", -8.989189147949219], ["tau", -9.604769706726074], ["\u2581least", -9.011866569519043], ["\u043c\u04d5", -9.727356910705566], ["\u2581Biblia", -9.563203811645508], ["You", -8.986804962158203], ["r\u00f3", -9.727456092834473], ["\u2581\u00e7", -9.856103897094727], ["\u2581\u0622\u06be\u0646", -9.56867504119873], ["\u2581\u179f", -9.660432815551758], ["\u0923", -9.700239181518555], ["uli", -9.685129165649414], ["\u2581early", -8.992143630981445], ["\u10e5", -9.842005729675293], ["get", -9.841187477111816], ["\u2581regard", -8.982955932617188], ["\u0c41", -9.357525825500488], ["\u0169", -9.760797500610352], ["\u2581Bar", -10.064797401428223], ["\u2581gives", -9.067214965820312], ["\u0646\u062f\u0627", -9.494145393371582], ["\u10ea", -9.751693725585938], ["\u0434\u04d9", -9.560182571411133], ["\u0a3e\u0a02", -9.58959674835205], ["\u2581label", -9.537452697753906], ["ure", -9.859128952026367], ["mme", -9.838260650634766], ["\u0ac1", -10.013544082641602], ["\u2581difficult", -9.01082992553711], ["\u2581measures", -9.03152847290039], ["t\u00f3", -9.553967475891113], ["\u2581\u306f", -9.510889053344727], ["\u1eb9", -9.651411056518555], ["\u2581\u05de", -9.744718551635742], ["\u2581stand", -8.97894287109375], ["sala", -9.73045825958252], ["\u2581dos", -9.67213249206543], ["\u0645\u0647", -9.389324188232422], ["\u043b\u044b\u043a", -9.523603439331055], ["\u0930\u093e", -9.765422821044922], ["\u2581\u0cae", -9.891861915588379], ["\u2581lie", -9.52628231048584], ["tri", -9.690617561340332], ["\u0631\u0649", -9.652730941772461], ["\u2581\u06c1\u0648", -9.418510437011719], ["yr", -9.671731948852539], ["\u2581Par", -9.747854232788086], ["0", -9.446101188659668], ["mento", -9.679779052734375], ["nk", -9.379518508911133], ["\u2581voor", -9.603134155273438], ["d\u00e9", -9.739265441894531], ["\u0f63\u0f0b", -10.544285774230957], ["\u0e2a", -9.624746322631836], ["oon", -9.756065368652344], ["\u2581\u0578\u0580", -9.545905113220215], ["\u12c8", -9.67057991027832], ["\u2581GNOME", -9.60157585144043], ["\u2581particular", -9.031354904174805], ["\u2581\u101e", -9.699108123779297], ["port", -9.86118221282959], ["ssi", -9.5658540725708], ["cz", -9.6163330078125], ["\u2581\u0645\u0627", -9.570663452148438], ["\u2581dagiti", -9.486672401428223], ["lek", -9.655609130859375], ["\u2581Ch", -9.665884017944336], ["\u0578\u0582", -9.591678619384766], ["\u2581mercy", -8.963236808776855], ["\u2581anyone", -9.008312225341797], ["\u2581knows", -9.086874008178711], ["\u2581Ve", -9.752237319946289], ["\u2581form", -9.059226036071777], ["\u2581ezi", -9.587141990661621], ["\u0561", -9.60521125793457], ["\u00f8", -9.821409225463867], ["\u2581\u062e\u0648\u062f", -9.565384864807129], ["\u0565\u056c", -9.504586219787598], ["\u2581seek", -8.998961448669434], ["\u10db\u10d0", -9.669573783874512], ["\u2581von", -9.808594703674316], ["\u258112.", -9.76298713684082], ["\u2581\u0441\u0443", -9.685441017150879], [".\u201d", -9.330888748168945], ["11", -9.958453178405762], ["\u2581temporary", -9.021455764770508], ["\u2581\u1ecc", -9.476770401000977], ["\u2581reading", -9.032443046569824], ["\u0446\u044c", -9.852124214172363], ["\u2581\u0111", -9.545476913452148], ["\u2581\u0443\u043b", -9.599385261535645], ["\u0434\u0430\u0440", -9.626459121704102], ["rwa", -9.66923713684082], ["\u2581concerning", -9.008008003234863], ["\u2581sea", -9.020980834960938], ["\u2581greater", -9.02015495300293], ["\u13e5", -9.829794883728027], ["h\u00e9", -9.679387092590332], ["\u00fan", -9.699045181274414], ["kom", -9.535340309143066], ["\u2581prophet", -8.988308906555176], ["\u0b95", -9.688076972961426], ["\u0eb5", -9.814005851745605], ["\u2581\u0633\u0647", -9.422636032104492], ["\u2581\u0ec3\u0eab\u0ec9", -9.495821952819824], ["\u2581lea", -9.664363861083984], ["\u03b5", -9.733427047729492], ["asa", -9.57600212097168], ["\u2581n\u00f3", -9.719200134277344], ["\u0444\u0438", -9.984496116638184], ["\u2581righteousness", -9.013477325439453], ["\u25819.", -9.720612525939941], ["\u2581state", -9.172137260437012], ["leg", -9.668680191040039], ["\u0493\u044b", -9.798576354980469], ["she", -9.848271369934082], ["\u2581teaching", -9.015643119812012], ["\u2581material", -9.154698371887207], ["zwa", -9.583765983581543], ["\u2581\u0b95", -9.885527610778809], ["\u2581except", -8.954383850097656], ["\u0449\u0435", -9.949979782104492], ["\u2581General", -9.151947975158691], ["\u2581yu", -9.736859321594238], ["\u2581\u041d\u0435", -9.65024185180664], ["\u0646\u062f\u0648", -9.720593452453613], ["stan", -10.05795955657959], ["\u0935\u093e", -9.731973648071289], ["\u2581address", -9.046574592590332], ["\u057f", -9.701537132263184], ["\u2581tre", -9.781596183776855], ["\u2581\u041a\u0430", -9.766670227050781], ["\u2581ay", -9.58719253540039], ["\u0dad\u0dca", -9.680356979370117], ["zen", -9.799674987792969], ["\u2581\u0424", -9.73731803894043], ["\u2581promise", -8.994759559631348], ["ib", -9.467767715454102], ["\u2581\u0a39\u0a48", -9.603901863098145], ["mber", -9.936245918273926], ["\u2581enjoy", -9.010754585266113], ["\u2581effect", -9.024747848510742], ["\u05e9", -9.87950325012207], ["tie", -9.703781127929688], ["\u03af", -9.821775436401367], ["\u2581Isaiah", -9.037161827087402], ["\u2581Solomon", -9.19083023071289], ["\u2581\u2014\u2060", -9.566328048706055], ["\u2581sun", -9.471976280212402], ["\u043d\u044f", -9.611769676208496], ["\u2581accept", -9.089324951171875], ["teri", -9.908019065856934], ["ngan", -9.621464729309082], ["dik", -9.673867225646973], ["\u2581lost", -9.040253639221191], ["\u1e5b", -9.723265647888184], ["\u2581loto", -9.54148006439209], ["\u2581\u012f", -9.601825714111328], ["\u2581\u0413", -9.825495719909668], ["\u2581nation", -9.006180763244629], ["\u0e8d", -9.875388145446777], ["\u2581\u13a2", -10.242770195007324], ["ow", -9.73742389678955], ["\u2581common", -9.054534912109375], ["\u0627\u0645", -9.549111366271973], ["\u2581dua", -9.828904151916504], ["\u2581especially", -9.047809600830078], ["\u2581\u13af\u13a0", -9.844051361083984], ["\u2581Die", -9.851863861083984], ["\u2581angels", -9.017430305480957], ["ert", -9.773765563964844], ["ele", -9.407984733581543], ["\u4e0a", -9.575294494628906], ["\u2581alone", -9.036237716674805], ["\u2581\u00een", -9.606017112731934], ["\u2581ali", -9.789802551269531], ["jer", -9.65893840789795], ["\u04b3\u0430", -10.071331024169922], ["\u0b15", -9.999506950378418], ["int", -9.620259284973145], ["\u2581past", -9.048623085021973], ["\u2581menu", -9.512551307678223], ["\u2581\u05d1", -9.975055694580078], ["rea", -9.58983325958252], ["\u0432\u0435\u0440", -9.802850723266602], ["\u2581sem", -9.508758544921875], ["\u0a2e", -9.741456031799316], ["\u2581teach", -9.048376083374023], ["\u2581Did", -9.062811851501465], ["hla", -9.534307479858398], ["\u13ef", -10.039009094238281], ["\u2581\u0633\u0648", -9.638261795043945], ["\u13cf", -10.123979568481445], ["\u0caf", -9.584014892578125], ["ff", -9.787671089172363], ["\u0e15", -9.667952537536621], ["sten", -9.870302200317383], ["\u2581thinking", -9.06149959564209], ["\u2581believers", -8.97317123413086], ["\u2581item", -9.271214485168457], ["wen", -9.605134010314941], ["\u2581third", -9.070380210876465], ["\u0ccd\u0caf", -9.885965347290039], ["\u2581changes", -9.108588218688965], ["\u2581\u04b3\u0430", -9.769926071166992], ["\u2581\u0626\u06d5", -9.708993911743164], ["ley", -10.059639930725098], ["\u2581attention", -9.048651695251465], ["ij", -9.413015365600586], ["fan", -9.724574089050293], ["\u2581months", -9.077047348022461], ["net", -9.832572937011719], ["\u2581\u0411", -9.573020935058594], ["hy", -9.91490364074707], ["\u2581seven", -9.06080436706543], ["dz", -9.74947738647461], ["\u2581\u0448\u0430", -9.905680656433105], ["\u2581contact", -9.250304222106934], ["day", -10.042140007019043], ["l\u0259", -9.9298677444458], ["\u2581\u00f1an", -9.529730796813965], ["\u2581Use", -9.108207702636719], ["\u2581voice", -9.058222770690918], ["\u2581door", -9.374310493469238], ["\u2581shi", -9.954217910766602], ["\u2581akan", -9.701902389526367], ["\u2581Saul", -9.386104583740234], ["\u2581>", -9.841018676757812], ["\u2581\u0412\u0430", -9.620718955993652], ["\u178e", -10.133310317993164], ["\u2581send", -9.028759002685547], ["\u2581100", -9.838685035705566], ["\u2581\u3092", -9.558292388916016], ["ez", -9.584571838378906], ["\u04bb", -10.288993835449219], ["\u2581OF", -9.390460968017578], ["\u2581kingdom", -9.065317153930664], ["\u0a95", -9.960247993469238], ["\u2581kindness", -9.060535430908203], ["\u0440\u0430\u043d", -9.735565185546875], ["\u09b9", -10.099873542785645], ["\u2581kala", -9.65269660949707], ["\u0aae", -10.108049392700195], ["\u2581kae", -9.639485359191895], ["\u2581eb", -9.644431114196777], ["\u2581pie", -9.79990291595459], ["\u05d5\u05ea", -10.231205940246582], ["\u0dd9", -9.88753604888916], ["\u2581\u062a\u0645", -9.53741455078125], ["\u0451", -9.727982521057129], ["\u10d7", -9.561588287353516], ["\u2581\u0641", -9.776611328125], ["\u2581tautolu", -9.641416549682617], ["\u25818:", -9.85201358795166], ["\u04e3", -9.483101844787598], ["\u2581sen", -9.701868057250977], ["\u2581nti", -9.630532264709473], ["\u043d\u0435\u04a3", -9.671630859375], ["\u2581\u03ba\u03b1\u03b9", -9.787056922912598], ["\u2581mala", -9.787603378295898], ["\u2581dy", -9.915312767028809], ["\u2581meet", -9.057843208312988], ["\u0e34", -9.678345680236816], ["\u03cc", -9.842642784118652], ["\u0e32", -9.745214462280273], ["\u0d2e", -9.630681037902832], ["log", -9.857827186584473], ["\u2581\u0915\u0940", -9.775712013244629], ["\u2581rest", -9.072026252746582], ["\u2581\u0935", -9.667649269104004], ["\u0dc4", -9.972421646118164], ["\u2581\u041d\u0430", -9.71010684967041], ["mik", -9.841230392456055], ["\u0438\u0439\u0433", -9.786699295043945], ["\u2581\u0456", -9.617026329040527], ["\u043c\u0435\u043d", -9.846517562866211], ["\u2581game", -9.117241859436035], ["\u0926\u093e", -10.03115177154541], ["\u091a\u093e", -9.708640098571777], ["\u2581\u043e\u0434", -9.648362159729004], ["\u2581answered", -9.089581489562988], ["\u2581ing", -9.60922622680664], ["\u0628\u0631", -9.825716972351074], ["\u2581@", -10.12988567352295], ["\u2581Gi", -9.822232246398926], ["\u2581\u041c\u0430", -9.743803977966309], ["\u2581l\u00e8", -9.689199447631836], ["eri", -9.523639678955078], ["lor", -9.851692199707031], ["\u2581\u0e88\u0eb0", -9.545276641845703], ["\u2581flesh", -9.073871612548828], ["ane", -9.739816665649414], ["lama", -9.790122032165527], ["\u2581date", -9.100606918334961], ["\u2581moved", -9.089048385620117], ["\u0441\u0430\u043d", -9.719734191894531], ["\u2581Nations", -9.007097244262695], ["\u2581job", -9.23159408569336], ["\u0b2c", -10.192317008972168], ["\u2581\u0ec3\u0e99", -9.534102439880371], ["\u2581Most", -9.056678771972656], ["\u2581Law", -9.072426795959473], ["\u2581\u043e\u043d", -9.644892692565918], ["\u2581II", -9.668451309204102], ["\u258114.", -9.77667236328125], ["\u0cc6", -9.622042655944824], ["ov", -9.894691467285156], ["\u2581similar", -9.089810371398926], ["In", -9.664613723754883], ["del", -9.715245246887207], ["ix", -9.853596687316895], ["\u0987", -9.936379432678223], ["\u2581n\u00eb", -9.691712379455566], ["\u0436\u0435", -9.706814765930176], ["\u03cd", -9.943774223327637], ["ES", -10.018439292907715], ["\u0a41", -10.183133125305176], ["\u2581hold", -9.066981315612793], ["t\u00e0", -9.67465591430664], ["\u2581Lu", -9.867240905761719], ["\u2581stay", -9.071674346923828], ["\u258111.", -9.776451110839844], ["\u2581kia", -9.736093521118164], ["\u2581Evolution", -9.427973747253418], ["\u2581wala", -9.832463264465332], ["rs", -9.821413040161133], ["\u2581\u0686", -9.760485649108887], ["\u2581Q", -9.808177947998047], ["\u10d4\u10d1", -9.722428321838379], ["sam", -9.723295211791992], ["\u2581strength", -9.083785057067871], ["\u2581\u062f\u0648", -9.907803535461426], ["stru", -9.874752044677734], ["\u2581\u0b87", -9.801977157592773], ["\u0438\u0439", -9.356499671936035], ["\u0434\u0443", -9.705913543701172], ["\u0626\u064a", -9.796306610107422], ["\u101c", -9.879752159118652], ["\u09ae\u09be", -10.248027801513672], ["\u2581turned", -9.066356658935547], ["\u2581appropriate", -9.113177299499512], ["\u2581sense", -9.067244529724121], ["kt", -9.460641860961914], ["\u2581witness", -9.064322471618652], ["\u0499", -9.897222518920898], ["\u2581conditions", -9.132192611694336], ["\u2581\u10db", -9.905827522277832], ["\u06af", -9.663798332214355], ["all", -9.707590103149414], ["\u043c\u044b", -9.554499626159668], ["cy", -9.992846488952637], ["\u2581nge", -9.622109413146973], ["\u2581display", -9.086402893066406], ["\u2581\u0ec4\u0e94\u0ec9", -9.54942798614502], ["\u2581\u0626\u0649", -9.796429634094238], ["\u1e0d", -9.701834678649902], ["far", -9.823386192321777], ["\u09a1", -10.237584114074707], ["\u0bc7", -9.979557037353516], ["\u258115:", -9.888288497924805], ["\u0437\u0430\u0440", -10.037460327148438], ["\u10d4", -9.525640487670898], ["\u1000\u103a", -9.955080032348633], ["\u2581kaka", -9.914514541625977], ["\u041e", -9.715224266052246], ["\u2581friend", -9.096257209777832], ["\u05e8", -9.665721893310547], ["\u1021", -9.690414428710938], ["\u2581\u092e\u0947\u0902", -9.8961763381958], ["\u2581roto", -9.692310333251953], ["\u2581\u0b89", -10.121135711669922], ["\u2581\u0627\u0644\u062a", -10.0668363571167], ["\u2581ein", -9.872069358825684], ["\u2581\u0414\u0430", -9.853063583374023], ["\u2581waa", -9.630922317504883], ["taan", -9.888323783874512], ["\u2581serving", -9.094715118408203], ["sima", -9.794190406799316], ["\u2581v\u0259", -9.920781135559082], ["\u2581\u101b", -9.84550666809082], ["\u2581religious", -9.086884498596191], ["l\u0259r", -9.935296058654785], ["cia", -9.729633331298828], ["nze", -9.789219856262207], ["\u10d8\u10e1", -9.440372467041016], ["\u0442\u0430\u043d", -9.692849159240723], ["kai", -9.601582527160645], ["\u2581\u0415", -9.815686225891113], ["rie", -9.787705421447754], ["\u00fcn", -9.953059196472168], ["\u2581process", -9.110176086425781], ["\u2581large", -9.111772537231445], ["\u2581\u0434\u0443", -9.831748962402344], ["\u2581perfect", -9.109904289245605], ["\u017ee", -9.812196731567383], ["\u2581heavenly", -9.102420806884766], ["jn", -9.790670394897461], ["\u043d\u044b\u0445", -9.804009437561035], ["\u2581\u0b9a", -9.792242050170898], ["\u101b", -9.770872116088867], ["\u13b3", -9.999078750610352], ["\u1240", -9.76892375946045], ["\u2581forever", -9.104856491088867], ["000", -9.892845153808594], ["\u2581\u06a9", -9.571702003479004], ["ard", -10.042852401733398], ["\u2581Have", -9.102640151977539], ["\u00f3w", -9.845695495605469], ["\u2581principles", -9.115127563476562], ["\u0ccd", -10.013370513916016], ["\u2581religion", -9.048066139221191], ["\u0127", -9.653215408325195], ["\u00f8r", -9.898713111877441], ["\u2581interest", -9.110188484191895], ["\u0d1f", -9.663772583007812], ["\u2581mena", -9.76360034942627], ["ER", -10.035113334655762], ["\u2581services", -9.166130065917969], ["\u2581ban", -9.81333065032959], ["gwa", -9.670412063598633], ["\u2581Book", -9.03032398223877], ["kat", -9.540525436401367], ["\u0e49", -9.899674415588379], ["\u2581write", -9.098013877868652], ["\u2581San", -10.277295112609863], ["\u2581rights", -9.169836044311523], ["\u2581gy", -9.868607521057129], ["\u2581\u03b1", -10.280532836914062], ["\u2581\u0430\u0440", -9.817700386047363], ["\u2581\u0627\u0648\u06be\u0627\u0646", -9.674586296081543], ["\u0924\u0940", -9.737139701843262], ["\u12a8", -9.864839553833008], ["\u0d41\u0d02", -9.589855194091797], ["\u2581required", -9.123320579528809], ["\u2581ah\u1ee5", -9.580235481262207], ["\u2581\u0447\u0430", -9.912498474121094], ["\u2581\u305f", -9.616120338439941], ["\u0e31", -10.139250755310059], ["\u178a", -10.351956367492676], [".\u00bb", -9.666865348815918], ["\u0441\u0442\u043e", -9.987855911254883], ["\u258115.", -9.94157600402832], ["shon", -9.81640625], ["\u1791", -9.870308876037598], ["sjon", -9.816192626953125], ["\u0648\u0631", -9.529688835144043], ["\u4e8b", -9.761618614196777], ["\u2581naga", -10.082160949707031], ["\u2581itu", -9.706327438354492], ["\u179c", -10.187508583068848], ["pie", -9.946722030639648], ["\u0578\u057e", -9.831993103027344], ["\u2581p\u00ebr", -9.684842109680176], ["\u10da", -9.880134582519531], ["\u2581ist", -9.884726524353027], ["\u03bf\u03c5", -10.081518173217773], ["\u0d28", -9.71965217590332], ["\u2581l\u00e0", -9.579204559326172], ["\u2581bisa", -9.709663391113281], ["llo", -9.815397262573242], ["\u258113.", -9.801490783691406], ["\u2581failed", -9.149947166442871], ["\u2581else", -9.131367683410645], ["\u2581Il", -9.647092819213867], ["\u2581Fi", -9.828757286071777], ["\u0634\u062a", -9.665937423706055], ["\u2581\u0938\u0947", -9.958889961242676], ["\u2581conduct", -9.110527992248535], ["har", -9.91068172454834], ["\u2581security", -9.115777015686035], ["way", -9.934990882873535], ["\u2581format", -9.158313751220703], ["\u2581s\u00e9", -9.981805801391602], ["\u0434\u043e", -9.661571502685547], ["eli", -9.529614448547363], ["\u2581\u0bae", -9.886098861694336], ["\u043d\u044b\u04a3", -9.590078353881836], ["\u2581d\u1ecb", -9.605576515197754], ["\u2581paragraph", -9.124146461486816], ["\u0e2d", -9.793279647827148], ["\u0438\u0440", -9.638874053955078], ["\u2581\u0d05", -9.637700080871582], ["ako", -9.725415229797363], ["los", -9.833593368530273], ["\u2581\u0ec1\u0ea5\u0eb0", -9.575249671936035], ["\u2581sal", -9.835888862609863], ["\u0574", -9.717774391174316], ["\u06cc\u0646", -9.482693672180176], ["nce", -9.752665519714355], ["\u2581\u03bd\u03b1", -9.926209449768066], ["\u2581mingi", -9.659451484680176], ["\u0baa", -9.938178062438965], ["\u0642\u0627", -9.698184967041016], ["ket", -9.759603500366211], ["zzjoni", -9.849274635314941], ["\u2581\u03c0", -10.092761039733887], ["\u2581xban", -9.621249198913574], ["\u2581pour", -10.087065696716309], ["\u258116.", -9.849176406860352], ["\u044b\u043d\u0434\u0430", -9.800031661987305], ["\u2581\u0e82\u0ead\u0e87", -9.582222938537598], ["\u0631\u0648", -9.50510025024414], ["\u2581considered", -9.125832557678223], ["gle", -9.963068008422852], ["\u0142a", -9.928791999816895], ["\u10e0", -9.938652038574219], ["\u2581Sch", -10.060315132141113], ["\u2581Will", -9.121686935424805], ["dig", -9.779558181762695], ["\u2581\u06a9\u0631\u062f", -9.618053436279297], ["\u2581\u0928", -9.853323936462402], ["tay", -9.764457702636719], ["\u0627\u062f", -9.823659896850586], ["\u0997", -10.066752433776855], ["tera", -9.942864418029785], ["\u2581nau", -9.823973655700684], ["\u2581tua", -9.736144065856934], ["\u2581stop", -9.136700630187988], ["\u2581Failed", -9.197858810424805], ["\u099f", -9.97447395324707], ["\u2581\u0626\u06c7\u0644\u0627\u0631", -9.548913955688477], ["khe", -9.681940078735352], ["rus", -9.855857849121094], ["\u043d\u0443", -9.577224731445312], ["\u2581won", -9.469061851501465], ["ou", -9.782716751098633], ["\u2581fully", -9.131367683410645], ["\u2581bala", -9.777708053588867], ["tam", -9.734369277954102], ["\u2581less", -9.149630546569824], ["if", -9.981741905212402], ["\u13b2", -10.128421783447266], ["rang", -9.792510032653809], ["\u2581Image", -9.157075881958008], ["\u2581kept", -9.135880470275879], ["\u2581\u045e", -9.759730339050293], ["\u2581financial", -9.1510009765625], ["\u2581anda", -9.794960021972656], ["\u2581Her", -9.895071029663086], ["l\u0131", -9.757515907287598], ["\u2581Ieova", -9.63241195678711], ["\u2581taught", -9.115400314331055], ["\u4e2d", -9.668168067932129], ["\u2581esta", -9.936563491821289], ["\u0435\u043b", -9.477365493774414], ["oj", -9.662418365478516], ["mani", -9.975907325744629], ["\u1789", -10.167688369750977], ["\u2581walk", -9.123183250427246], ["\u2581sins", -9.171154022216797], ["\u2581okuti", -9.576274871826172], ["\u2581sister", -9.122797966003418], ["\u2581\u0623\u0646", -10.00668716430664], ["\u2581apostles", -9.167566299438477], ["\u2581changed", -9.149941444396973], ["\u2581\u043d\u044c", -9.736438751220703], ["\u0996", -10.304900169372559], ["s\u00e9", -9.83578109741211], ["\u2581eka", -9.888298034667969], ["\u4f1a", -9.803133010864258], ["\u2581muri", -9.739049911499023], ["h\u00ed", -9.868223190307617], ["\u0cb8", -9.80538558959961], ["\u2581\u0414", -9.607290267944336], ["\u0161e", -9.899602890014648], ["\u2581rather", -9.156584739685059], ["\u2581maga", -10.101011276245117], ["\u2581\u0642\u0627", -9.727256774902344], ["\u2581pr", -9.851461410522461], ["\u04af\u04af", -9.810948371887207], ["\u2581inte", -9.753155708312988], ["ras", -9.553272247314453], ["ado", -9.601724624633789], ["\u0d28\u0d4d", -9.659852981567383], ["\u2581ngu", -9.896400451660156], ["\u2581\u1780", -9.970686912536621], ["\u2581sound", -9.159566879272461], ["\u06c8", -9.930188179016113], ["\u0438\u043c", -9.432144165039062], ["\u0441\u0442\u0430", -9.867588996887207], ["\u0301\u0328", -9.723485946655273], ["sul", -9.83641242980957], ["lam", -9.733078956604004], ["lim", -9.890999794006348], ["xo", -9.744438171386719], ["\u2581\u0eaa", -10.037622451782227], ["\u0627\u0621", -10.079564094543457], ["\u056f", -10.044947624206543], ["\u2581\u0ba4", -9.837390899658203], ["\u258115,", -9.847417831420898], ["nden", -9.982025146484375], ["\u2581matters", -9.167581558227539], ["\u04b3\u043e", -9.646621704101562], ["\u09cd\u09af", -10.25789737701416], ["bri", -9.957990646362305], ["\u0ba9", -9.817983627319336], ["\u130b", -9.80076789855957], ["We", -9.138731956481934], ["\u0129", -10.067374229431152], ["\u2581\u043e\u043b", -9.65893840789795], ["\u2581\u0a26\u0a47", -9.754573822021484], ["\u04d5\u043c", -9.80344009399414], ["\u043e\u0433\u043e", -9.713292121887207], ["\u597d", -9.84721851348877], ["ef", -9.73593521118164], ["\u2581false", -9.140494346618652], ["zione", -9.692675590515137], ["\u2581CD", -9.839913368225098], ["\u2581products", -9.207874298095703], ["\u2581J\u00e9hovah", -9.702073097229004], ["\u2581\u00e9s", -9.804696083068848], ["nne", -9.859783172607422], ["\u0ab5\u0abe", -10.228133201599121], ["\u2581ac", -9.748186111450195], ["ola", -9.784334182739258], ["\u2581View", -9.232430458068848], ["khu", -9.813138008117676], ["\u2581started", -9.167743682861328], ["\u2581yango", -9.655111312866211], ["\u2581anak", -9.747354507446289], ["\u2581l\u00f3", -9.62940502166748], ["\u2581Such", -9.157687187194824], ["zya", -9.805557250976562], ["\u2581\u00e9\u00ed", -9.754755973815918], ["\u2581offer", -9.146123886108398], ["\u179b", -9.784387588500977], ["\u05d0\u05b8", -9.943704605102539], ["\u2581\u06a9\u0631", -9.553929328918457], ["gang", -10.004067420959473], ["pla", -9.799860000610352], ["\u1229", -9.889209747314453], ["\u2581Egypt", -9.154374122619629], ["\u2581\u0ea7\u0ec8\u0eb2", -9.623270034790039], ["pon", -9.824629783630371], ["\u2581sou", -9.935220718383789], ["\u2581\u0995", -10.082996368408203], ["tho", -9.92070484161377], ["\u2581wong", -9.65115737915039], ["\u099c", -10.07509994506836], ["\u2581vir", -9.869701385498047], ["\u0434\u0456", -9.625753402709961], ["\u25815,", -10.122941970825195], ["\u258117.", -9.882821083068848], ["\u25819,", -10.037799835205078], ["\u05be", -9.96078872680664], ["\u2581sheep", -9.175865173339844], ["wy", -10.000223159790039], ["\u0436\u0438", -9.903005599975586], ["\u306b", -9.578957557678223], ["\u25814,", -10.140547752380371], ["\u2581\u0434\u0430\u0440", -9.640475273132324], ["\u2581Nga", -9.754555702209473], ["\u2581general", -9.352952003479004], ["\u010bi", -9.848533630371094], ["\u0f44\u0f0b", -10.638413429260254], ["\u2581dem", -9.954835891723633], ["\u2581subject", -9.173407554626465], ["\u2581pea", -9.767983436584473], ["phi", -9.849172592163086], ["\u2581\u0644\u0627", -9.847418785095215], ["and", -9.259648323059082], ["\u2581likely", -9.161306381225586], ["\u2581ol", -9.645075798034668], ["\u044d\u043d", -9.812103271484375], ["\u2581\u0447\u0435", -10.008747100830078], ["\u2581loved", -9.191452980041504], ["kun", -9.675774574279785], ["\u2581\u0644\u0644", -10.010725975036621], ["\u2581shows", -9.228499412536621], ["\u2581ima", -9.889005661010742], ["uka", -9.62073802947998], ["uro", -9.82709789276123], ["\u10d0\u10d3", -9.750441551208496], ["\u03c1\u03b1", -10.497332572937012], ["\u0421", -9.697488784790039], ["\u2581iai", -9.995582580566406], ["\u0443\u0430", -9.953104972839355], ["ence", -10.38935661315918], ["\u2581Mary", -9.312478065490723], ["\u2581m\u00e1a", -9.598562240600586], ["\u306f", -9.599151611328125], ["\u0cbf\u0cb8", -9.821927070617676], ["\u2581sign", -9.152461051940918], ["\u0433\u0443", -9.789314270019531], ["mene", -9.887226104736328], ["ava", -9.604106903076172], ["\u2581easy", -9.194659233093262], ["part", -10.179713249206543], ["g\u0127", -9.785514831542969], ["\u2581azo", -9.783843994140625], ["\u2581understanding", -9.174086570739746], ["\u2581\u0447\u0438", -9.829549789428711], ["\u2581market", -9.217544555664062], ["usa", -9.936833381652832], ["\u2581\u0915\u093e", -9.865159034729004], ["ON", -10.040885925292969], ["\u04d1\u0440", -10.21163272857666], ["\u2581servant", -9.16076946258545], ["\u2581Oku", -9.629782676696777], ["\u2581Mark", -9.510680198669434], ["\u2581\u092e", -10.111769676208496], ["nem", -9.828845977783203], ["\u2581mail", -9.209909439086914], ["\u2581Dan", -10.026897430419922], ["\u2581kwi", -9.721659660339355], ["\u05de", -10.035697937011719], ["\u2581People", -9.179367065429688], ["\u03c0", -10.035919189453125], ["lic", -10.062509536743164], ["tali", -9.811256408691406], ["leri", -9.902876853942871], ["dah", -9.833786010742188], ["\u0b47", -10.10787582397461], ["\u2581Timothy", -9.179715156555176], ["aw", -9.705168724060059], ["cent", -10.149486541748047], ["\u0caa", -9.825727462768555], ["\u00e1\u00e1", -9.919817924499512], ["\u2581access", -9.201188087463379], ["rik", -9.943618774414062], ["\u043b\u0438\u043a", -9.654747009277344], ["\u2581lot", -9.191141128540039], ["\u2581Save", -9.222329139709473], ["\u2581force", -9.184015274047852], ["\u2581decisions", -9.210380554199219], ["\u258114:", -9.984668731689453], ["\u2581involved", -9.201714515686035], ["\u0446\u0435", -10.159930229187012], ["\u0644\u0627\u0631", -9.819169044494629], ["\u2581serious", -9.194954872131348], ["\u043b\u0435\u043a", -9.74416446685791], ["\u2581search", -9.225895881652832], ["\u2581kin", -9.774764060974121], ["\u09b2\u09c7", -10.1007661819458], ["\u2581wat", -9.822089195251465], ["\u2581das", -10.036086082458496], ["red", -10.103278160095215], ["\u043c\u04d9", -10.17009449005127], ["\u0b26", -10.218783378601074], ["\u2581longer", -9.220877647399902], ["\u2581leswaku", -9.601396560668945], ["\u0aa1", -10.173504829406738], ["\u2581fan", -9.85511302947998], ["\u2581comp", -9.991178512573242], ["\u2581Although", -9.196935653686523], ["\u2581Mai", -9.963249206542969], ["\u1799", -9.923116683959961], ["k\u00e1", -9.804905891418457], ["vy", -10.014814376831055], ["\u2581mpo", -9.698806762695312], ["\u0649", -9.425135612487793], ["\u101e", -9.823226928710938], ["dis", -10.183159828186035], ["\u2581\u0d85", -9.775140762329102], ["\u2581Community", -9.255017280578613], ["\u2581\u12da", -9.607390403747559], ["\u2581\u043f", -9.98025131225586], ["\u2581pass", -9.206550598144531], ["\u2581Judah", -9.189048767089844], ["\u2581accordance", -9.223702430725098], ["\u2581moun", -10.012656211853027], ["\u2581sisters", -9.196019172668457], ["rem", -9.810647964477539], ["\u2581gift", -9.207085609436035], ["\u0935\u0930", -9.714859008789062], ["\u0441\u0442\u0438", -9.795870780944824], ["\u2581Car", -10.310620307922363], ["\u25816,", -10.101983070373535], ["\u10ec", -9.89345932006836], ["\u043d\u0438\u043d\u0433", -9.609180450439453], ["\u0ca8\u0ccd\u0ca8\u0cc1", -9.673415184020996], ["\u2581Vo", -10.02430248260498], ["\u2581\u0458\u0435", -9.86350154876709], ["tere", -10.010629653930664], ["\u2581Luke", -9.208420753479004], ["\u2581referred", -9.230804443359375], ["\u0430\u0441", -9.763864517211914], ["\u2581\u0432\u044b", -9.781869888305664], ["\u00ebr", -10.018378257751465], ["\u2581appointed", -9.174534797668457], ["hat", -9.578822135925293], ["\u0f44", -11.022226333618164], ["tori", -10.046463966369629], ["\u2581a\u00dfan", -9.668190956115723], ["\u00fcr", -10.00949764251709], ["\u0c47", -9.696846961975098], ["\u2581\u05e9", -9.959933280944824], ["\u041b", -9.92714786529541], ["\u2581protection", -9.196267127990723], ["\u2581single", -9.210078239440918], ["\u03b5\u03af", -10.13869857788086], ["\u0b23", -10.79887866973877], ["\u100a", -10.695322036743164], ["\u2581held", -9.195143699645996], ["\u0695\u0627\u0633\u062a\u06cc", -9.579177856445312], ["\u2581colour", -9.210607528686523], ["\u2581Since", -9.203271865844727], ["\u0c36", -10.066568374633789], ["\u2581aj", -9.85318660736084], ["\u0c30\u0c41", -9.84448528289795], ["\u0b2e", -10.211583137512207], ["kor", -9.768952369689941], ["\u2581truly", -9.185675621032715], ["\u2581listen", -9.186506271362305], ["\u0948", -9.910421371459961], ["\u05d9\u05dd", -10.075845718383789], ["\u2581married", -9.209307670593262], ["\u0631\u064a", -9.90216064453125], ["qo", -9.833231925964355], ["\u2581basis", -9.218343734741211], ["\u2581places", -9.243820190429688], ["\u0dba\u0dd2", -9.879878044128418], ["\u2581tab", -9.883500099182129], ["\u2581sacrifice", -9.167141914367676], ["\u10e3", -9.723342895507812], ["\u0c2e", -9.72152042388916], ["\u2581sala", -9.956106185913086], ["\u0430\u0442\u044c", -10.001524925231934], ["\u2581evidence", -9.198519706726074], ["\u2581\u06c1\u0645", -9.673998832702637], ["par", -9.749894142150879], ["\u2581xu", -9.879136085510254], ["amba", -9.659927368164062], ["\u011b", -10.043828964233398], ["\u17b7", -9.946253776550293], ["rat", -9.757098197937012], ["\u2581dina", -9.863513946533203], ["\u062f\u06c7\u0631", -9.61048412322998], ["\u0a42", -10.116448402404785], ["\u2581six", -9.230525970458984], ["\u2581Text", -9.3981294631958], ["\u2581ikke", -9.920978546142578], ["\u2581disc", -9.774782180786133], ["lus", -9.971175193786621], ["\u2581\u1ecb", -9.795394897460938], ["\u2581Good", -9.238429069519043], ["\u2581\u0ec0\u0e9b\u0eb1\u0e99", -9.672141075134277], ["\u03bc\u03b1", -10.14300537109375], ["\u0443\u043b", -9.729358673095703], ["\u0928\u094d", -10.011198043823242], ["tter", -10.069418907165527], ["\u0441\u04d9", -10.038199424743652], ["\u2581Okay", -9.242806434631348], ["\u2581choose", -9.208794593811035], ["\u2581n\u00e1", -9.862576484680176], ["k\u00f3", -9.824234008789062], ["\u0631\u0648\u0647", -9.59123420715332], ["\u2581ago", -9.246954917907715], ["\u2581w\u00f3", -9.665751457214355], ["sp", -9.868231773376465], ["mb", -9.882293701171875], ["\u2581\u12a5\u12e9", -9.633546829223633], ["nic", -10.330574035644531], ["\u2581\u0c06", -9.677814483642578], ["\u2581Consider", -9.205307960510254], ["\u0aa8\u0ac7", -10.022139549255371], ["\u05e6", -10.240472793579102], ["\u258135", -10.194751739501953], ["\u2581issue", -9.206989288330078], ["\u25818,", -10.010899543762207], ["\u2581esi", -9.857625961303711], ["\u0e04", -9.98310661315918], ["\u0c21", -9.918272018432617], ["v\u00e9", -9.961884498596191], ["lom", -9.87613582611084], ["ndra", -10.115654945373535], ["\u2581\u1000", -9.857024192810059], ["kla", -9.765970230102539], ["\u0151", -9.824357032775879], ["\u2581\u179a", -10.126812934875488], ["\u2581\u0915\u094b", -9.94947624206543], ["\u2581source", -9.234620094299316], ["\u2581Noah", -9.198870658874512], ["\u2581\u0425", -9.737448692321777], ["\u2581Er", -10.008058547973633], ["\u0995\u09c7", -10.030481338500977], ["\u2581Would", -9.245111465454102], ["\u2581seo", -10.066622734069824], ["\u2581\u0444", -10.060795783996582], ["\u13d2", -10.057695388793945], ["r\u00f2", -9.761585235595703], ["ian", -10.003277778625488], ["\u2581tat", -9.785099983215332], ["\u2581resurrection", -9.209271430969238], ["\u2581wants", -9.306440353393555], ["\u2581\u0439", -10.261096000671387], ["kel", -10.007975578308105], ["\u10d2", -9.873808860778809], ["\u0baa\u0bcd\u0baa", -9.949601173400879], ["\u17be", -10.007661819458008], ["\u2581anga", -10.067167282104492], ["\u0111", -9.779749870300293], ["ithe", -10.111751556396484], ["h\u00f3", -10.001932144165039], ["\u05e2\u05e8", -9.962310791015625], ["don", -9.860754013061523], ["vit", -9.770684242248535], ["30", -10.248448371887207], ["\u03c4\u03b1", -10.180632591247559], ["\u0bbf\u0baf", -10.067473411560059], ["\u2581enda", -9.77306842803955], ["\u2581attitude", -9.211722373962402], ["\u2581c\u00e4", -9.823504447937012], ["\u2581indi", -10.072656631469727], ["\u2581morning", -9.226092338562012], ["\u2581history", -9.243494033813477], ["\u2581\u0cac", -10.065768241882324], ["\u308b", -9.729031562805176], ["\u2581Create", -9.309150695800781], ["\u2581\u0440\u0435", -10.02942943572998], ["\u2581c\u00f3", -9.709301948547363], ["\u2581efforts", -9.220407485961914], ["\u2581project", -9.274307250976562], ["\u2581)", -9.431796073913574], ["\u2581ket", -9.812318801879883], ["\u06a9\u06cc", -9.590790748596191], ["nen", -9.559014320373535], ["kola", -9.829057693481445], ["\u2581While", -9.241300582885742], ["\u043a\u044b", -9.945908546447754], ["\u044d\u0440", -10.013273239135742], ["\u043e\u0441", -9.758199691772461], ["\u2581\u0d15", -9.910808563232422], ["eh", -9.726207733154297], ["\u2581training", -9.249101638793945], ["r\u00e8", -9.849095344543457], ["\u10e7", -9.979778289794922], ["AL", -10.263525009155273], ["+", -10.070112228393555], ["\u2581million", -9.213356971740723], ["\u2581ngi", -9.911239624023438], ["\u2581Does", -9.235428810119629], ["\u2581\u044f\u043a", -9.705862045288086], ["\u05bf", -20.007095336914062], ["ille", -10.105384826660156], ["\u13d9", -10.144033432006836], ["\u2581apa", -9.798097610473633], ["\u0936", -9.937204360961914], ["r\u00e4", -9.993758201599121], ["star", -10.199079513549805], ["line", -10.131913185119629], ["\u2581spoke", -9.2555513381958], ["\u2581location", -9.278810501098633], ["\u2581tro", -10.030655860900879], ["\u2581net", -10.268753051757812], ["\u2581Hey", -9.289809226989746], ["\u2581behind", -9.208670616149902], ["\u2581ame", -10.051374435424805], ["\u2581\u041f\u043e", -9.883840560913086], ["\u0e40", -9.911457061767578], ["inga", -9.616765022277832], ["\u2581judgment", -9.218923568725586], ["\u094b\u0902", -10.236244201660156], ["\u2581quality", -9.253589630126953], ["\u015b", -9.882466316223145], ["\u2581mes", -9.913458824157715], ["\u2581dha", -9.964345932006836], ["\u0442\u0430\u0439", -9.857134819030762], ["\u0a9f", -10.140713691711426], ["\u2581\u0639\u0644\u0649", -10.016995429992676], ["\u021b", -9.664657592773438], ["\u2581kom", -9.766666412353516], ["\u4ee5", -9.877476692199707], ["\u2581revealed", -9.19245433807373], ["\u2581rule", -9.225808143615723], ["\u5bf9", -9.732726097106934], ["\u258124:", -10.027114868164062], ["\u2581\u1794\u17b6\u1793", -9.618059158325195], ["\u2581leen", -9.729735374450684], ["50", -10.202672958374023], ["\u0430\u0448", -9.639265060424805], ["\u2581specific", -9.268176078796387], ["\u2581\u3066", -9.723182678222656], ["\u2581play", -9.239340782165527], ["\u2581wait", -9.256267547607422], ["\u2581\u062c", -10.07596492767334], ["gh", -9.873010635375977], ["\u2581St", -9.985690116882324], ["laki", -10.000470161437988], ["\u2581kun", -9.664387702941895], ["lon", -10.100979804992676], ["\u2581Ze", -10.08320140838623], ["\u2581parti", -10.09823989868164], ["\u0c40", -9.798896789550781], ["\u0b41", -10.315895080566406], ["kana", -9.858306884765625], ["\u2581\u0417\u0430", -9.883838653564453], ["\u0937", -10.333925247192383], ["\u2581drink", -9.21895980834961], ["\u0c32\u0c4b", -9.697412490844727], ["elle", -10.053360939025879], ["dh", -9.637651443481445], ["\u2581\u0dc3", -10.04167366027832], ["ller", -10.159640312194824], ["cul", -10.142889976501465], ["\u2581\u09b9", -10.150025367736816], ["\u2581whatever", -9.224480628967285], ["\u2581cui", -9.974995613098145], ["\u6cd5", -9.76529598236084], ["\u0c30\u0c3f", -9.962538719177246], ["\u2581naa", -10.174259185791016], ["mine", -10.052000999450684], ["\u25aa", -9.971794128417969], ["\u2581Kristo", -9.936591148376465], ["mente", -9.858890533447266], ["ive", -9.535406112670898], ["\u057d", -9.852925300598145], ["\u2581god", -9.725152015686035], ["\u2581Ai", -9.783622741699219], ["\u2581signs", -9.188060760498047], ["\u00ean", -9.794451713562012], ["\u2581results", -9.293055534362793], ["\u2581yourselves", -9.218470573425293], ["\u2581foki", -9.739849090576172], ["\u2581eye", -9.650087356567383], ["\u0569", -10.0527925491333], ["\u2581y\u00e2", -9.82707691192627], ["\u04d7\u0440", -10.171290397644043], ["\u12cb", -10.01456069946289], ["ties", -10.053667068481445], ["\u2581complete", -9.242839813232422], ["kuti", -9.816142082214355], ["\u13e9", -10.34003734588623], ["\u0b15\u0b41", -9.854414939880371], ["\u0aaa", -10.28842830657959], ["\u2581\u00e4r", -9.87174129486084], ["\u0493\u0430\u043d", -9.939823150634766], ["\u06af\u06d5", -9.591361999511719], ["\u2581guidance", -9.196824073791504], ["\u2581include", -9.248056411743164], ["\u0cc0", -9.9204683303833], ["\u0cb0\u0ccd", -9.905134201049805], ["\u2581any\u1ecb", -9.721625328063965], ["\u03b4", -10.051581382751465], ["\u2581covenant", -9.22700023651123], ["v\u00e4", -10.052364349365234], ["\u2581ande", -9.931031227111816], ["\u2581server", -9.29941463470459], ["\u2581chic", -9.789216995239258], ["\u2581\u0ba8", -10.092427253723145], ["\u2581Like", -9.251078605651855], ["ID", -10.188506126403809], ["\u0161i", -10.018461227416992], ["lis", -9.75100326538086], ["\u041d", -9.845807075500488], ["\u0436\u0430", -9.925128936767578], ["ime", -9.82127857208252], ["qar", -9.996420860290527], ["\u2581\u178a\u17c2\u179b", -9.633970260620117], ["\u2581\u13a8\u13d2", -10.056967735290527], ["\u2581taimi", -9.723857879638672], ["lie", -9.85404109954834], ["tima", -9.939642906188965], ["\u2581\u00f1u", -9.708368301391602], ["\u2581Ab", -9.905990600585938], ["\u2581feelings", -9.261676788330078], ["\u03ce", -10.303595542907715], ["\u2581looking", -9.276597023010254], ["\u2581\u0440\u0430\u0437", -9.906034469604492], ["mini", -9.967950820922852], ["--", -9.388283729553223], ["bwe", -9.947773933410645], ["\u06a9\u0627\u0646", -9.589248657226562], ["\u2581\u043f\u0443", -9.909087181091309], ["\u2581ancient", -9.23843765258789], ["\u00e4n", -9.983696937561035], ["\u2581chu", -10.062760353088379], ["\u2581either", -9.254460334777832], ["kah", -9.883087158203125], ["\u2581untuk", -9.708821296691895], ["fen", -10.1748628616333], ["\u2581everyone", -9.268027305603027], ["\u092f\u093e", -9.769713401794434], ["ob", -9.700439453125], ["\u2581fakama", -9.868942260742188], ["\u2581k\u00f2", -9.913427352905273], ["\u0916", -10.060086250305176], ["taka", -10.216870307922363], ["\u1032", -10.091194152832031], ["\u2581run", -9.27508544921875], ["\u0c26", -9.782835960388184], ["\u2581ste", -10.212806701660156], ["jet", -9.912134170532227], ["\u093f\u0924", -10.122178077697754], ["\u2581pod", -9.905916213989258], ["\u0442\u044c", -9.673808097839355], ["\u2581Ex", -10.391809463500977], ["\u2581session", -9.264644622802734], ["het", -9.881545066833496], ["sun", -9.901773452758789], ["\u258160", -10.063464164733887], ["\u2581Det", -9.959784507751465], ["\u0161a", -9.976848602294922], ["ssen", -10.08223819732666], ["\u2581\u067e\u0648\u0621", -9.83610725402832], ["\u2060", -9.804429054260254], ["\u2581Ama", -9.928969383239746], ["bona", -9.951355934143066], ["ula", -9.699448585510254], ["d\u00e1", -9.943671226501465], ["\u2581test", -9.278105735778809], ["\u05da", -9.975921630859375], ["\u2581business", -9.285109519958496], ["\u2581Greek", -9.240972518920898], ["\u122a", -9.92695140838623], ["\u10d5", -9.72919750213623], ["\u062e\u062a", -10.057669639587402], ["\u0a23", -9.95984172821045], ["\u2581Cor", -10.06563663482666], ["\u2581mentioned", -9.27968692779541], ["\u2581Corinthians", -9.265092849731445], ["\u2581punishment", -9.181305885314941], ["\u2581shown", -9.277484893798828], ["m\u00e1", -9.906943321228027], ["\u1014\u103a", -10.037290573120117], ["\u0cb9", -9.94305419921875], ["\u0d24\u0d4d\u0d24", -9.787196159362793], ["\u2581poor", -9.275449752807617], ["\u2581fell", -9.545697212219238], ["\u2581Their", -9.261991500854492], ["\u13ac", -10.19190502166748], [">", -9.895265579223633], ["\u2581reward", -9.207290649414062], ["\u03ad", -10.014565467834473], ["\u2581Jacob", -9.472558975219727], ["\u4e0b", -9.80208969116211], ["\u2581daughter", -9.262174606323242], ["\u2581\u1785", -9.872889518737793], ["r\u00fa", -10.075419425964355], ["\u2581Y\u00e0lla", -9.6968355178833], ["\u1348", -9.87084674835205], ["\u2581Internet", -9.762964248657227], ["\u2581obey", -9.255175590515137], ["\u2581Acts", -9.277101516723633], ["\u2581kill", -9.282798767089844], ["\u2581established", -9.270301818847656], ["\u0430\u0430", -9.81568431854248], ["\u2581final", -9.499595642089844], ["\u2581\u0915\u093f", -10.042779922485352], ["\u0648\u0627\u0646", -9.811306953430176], ["\u6765", -9.877835273742676], ["ct", -9.85599422454834], ["\u2581organization", -9.246599197387695], ["\u2581\u0448\u0443", -10.026450157165527], ["\u043d\u0430\u0440", -9.839544296264648], ["\u2581art", -9.610352516174316], ["\u2581role", -9.260407447814941], ["\u12dd", -9.923440933227539], ["\u2581este", -10.019372940063477], ["\u05d9", -9.970520973205566], ["oti", -9.852510452270508], ["\u2581draw", -9.257132530212402], ["\u2581a\u00f0", -9.748201370239258], ["mai", -9.832716941833496], ["\u2581vor", -10.053091049194336], ["\u13f4", -10.371102333068848], ["\u062a\u06d2", -9.729233741760254], ["lit", -9.925219535827637], ["cher", -10.346586227416992], ["\u2581Proverbs", -9.289470672607422], ["\u0924\u0947", -9.9292573928833], ["\u2581baa", -9.790240287780762], ["\u2581room", -9.29240608215332], ["\u2581fight", -9.258932113647461], ["\u2581kuwi", -9.773527145385742], ["\u043e\u0432\u0430", -9.965864181518555], ["\u2581oko", -9.916443824768066], ["\u2581\u092f\u093e", -9.862380027770996], ["fin", -9.96280288696289], ["\u2581kuri", -9.863591194152832], ["\u2581\u09a8\u09bf", -10.419388771057129], ["\u0bcb", -9.935751914978027], ["\u2581kuba", -9.82104206085205], ["\u2581raised", -9.255128860473633], ["\u2581\u091c\u093e", -9.927266120910645], ["\u0a97", -10.161964416503906], ["\u0dad", -9.832711219787598], ["\u0cb0\u0cc1", -9.783378601074219], ["\u0cac", -10.337327003479004], ["tud", -10.056882858276367], ["\u2581Organisation", -9.263824462890625], ["\u2581\u03bc\u03b5", -10.106756210327148], ["\u0646\u06d2", -9.670283317565918], ["mise", -10.279022216796875], ["ika", -9.669720649719238], ["\u2581video", -9.688128471374512], ["\u2581Today", -9.29233169555664], ["stre", -10.137093544006348], ["ino", -10.044922828674316], ["=", -10.365409851074219], ["\u2581vy", -10.110468864440918], ["\u06ce", -9.663318634033203], ["umu", -9.748800277709961], ["\u2581\u0417", -9.886191368103027], ["\u0cb3", -9.997071266174316], ["\u2581total", -9.590192794799805], ["\u2581comfort", -9.273110389709473], ["jek", -10.108896255493164], ["unga", -9.71845531463623], ["\u2581states", -9.307169914245605], ["cin", -10.203136444091797], ["\u2581\u0e84\u0ea7\u0eb2\u0ea1", -9.756103515625], ["\u0ddc", -10.28255844116211], ["amo", -9.802026748657227], ["\u2581mbi", -9.953092575073242], ["\u2581pen", -9.983712196350098], ["\u06cc\u0634", -9.716443061828613], ["\u2581standards", -9.301392555236816], ["kira", -10.013371467590332], ["asi", -9.833429336547852], ["\u2581\u049b\u0430", -9.795210838317871], ["\u2581doubt", -9.258173942565918], ["\u0439\u044b", -10.113371849060059], ["dra", -9.976490020751953], ["\u04af\u043d", -9.802312850952148], ["\u2581Edit", -9.617738723754883], ["ges", -10.006742477416992], ["\u0644\u0647", -9.572757720947266], ["k\u00f2", -10.143623352050781], ["\u043b\u04d1", -10.266358375549316], ["\u2581alle", -9.990212440490723], ["mut", -9.957501411437988], ["\u0627\u0642", -9.898367881774902], ["\u2581various", -9.305632591247559], ["action", -9.976245880126953], ["\u2581sh", -9.960075378417969], ["g\u0127a", -10.1040620803833], ["stro", -10.171429634094238], ["\u2581honor", -9.264638900756836], ["like", -10.010274887084961], ["\u2581\u13e7", -10.337430000305176], ["\u0c3f", -9.709741592407227], ["\u2581manu", -10.077075004577637], ["\u0641\u0631", -10.011439323425293], ["hen", -9.824716567993164], ["\u2581ready", -9.314057350158691], ["\u2581tree", -9.26681137084961], ["tic", -10.366240501403809], ["\u2581increase", -9.286561965942383], ["\u2581\u0628\u0649\u0644\u06d5\u0646", -9.66178035736084], ["gli", -10.010649681091309], ["\u2581killed", -9.300715446472168], ["\u09a6", -10.27018928527832], ["\u2581cuan", -9.818737983703613], ["\u0525\u0448", -10.504743576049805], ["iko", -9.766424179077148], ["\u090f", -10.107340812683105], ["hana", -9.920944213867188], ["iro", -9.795758247375488], ["\u25819:", -10.120777130126953], ["\u2581month", -9.310016632080078], ["kre", -10.077422142028809], ["\u2581cut", -9.308453559875488], ["\u2581Get", -9.355003356933594], ["uko", -9.986990928649902], ["\u0d31\u0d46", -9.791524887084961], ["\u2581none", -9.28748893737793], ["\u00f1o", -9.994600296020508], ["\u2581alla", -9.876398086547852], ["\u2581\u1010", -9.98816967010498], ["\u2581\u06be", -10.028060913085938], ["\u0d26", -9.982389450073242], ["gue", -10.093623161315918], ["\u0698", -9.968387603759766], ["\u2581tur", -9.882702827453613], ["lak", -9.855012893676758], ["\u2581sama", -9.932126998901367], ["\u2581economic", -9.32555866241455], ["\u2581tri", -10.302153587341309], ["\u0630", -9.972759246826172], ["\u2581tidak", -9.742786407470703], ["\u2581events", -9.332734107971191], ["\u2581b\u00e9", -9.921610832214355], ["\u0441\u0435\u043d", -9.909785270690918], ["kali", -9.941166877746582], ["may", -9.963440895080566], ["\u2581\u10e8\u10d4", -10.190208435058594], ["\u2581\u03c4\u03bf", -10.079978942871094], ["\u2581myself", -9.330784797668457], ["\u2581English", -9.392589569091797], ["\u2581ved", -10.071694374084473], ["\u2581trans", -10.107229232788086], ["\u2581b\u00ed", -9.825844764709473], ["\u2581noa", -9.96292781829834], ["\u09a5", -10.424485206604004], ["\u2581Mat", -10.028290748596191], ["\u2581born", -9.313594818115234], ["\u2581James", -9.312902450561523], ["\u00e1t", -9.770540237426758], ["ii", -10.092132568359375], ["\u2581\u0565\u0582", -9.805028915405273], ["gun", -10.084985733032227], ["nene", -10.08913516998291], ["\u0a38\u0a3c", -10.146905899047852], ["\u2581bear", -9.271240234375], ["\u10d9", -9.900721549987793], ["oku", -9.678860664367676], ["\u044d\u0445", -10.085611343383789], ["ub", -9.879672050476074], ["gre", -9.958895683288574], ["tani", -10.03180980682373], ["ith", -10.124929428100586], ["\u2581natural", -9.474863052368164], ["sem", -9.848294258117676], ["av", -9.773690223693848], ["\u2581Look", -9.319573402404785], ["\u2581areas", -9.346766471862793], ["\u2581doesn", -9.369119644165039], ["gha", -10.251972198486328], ["sika", -10.045917510986328], ["\u0435\u0434", -9.627605438232422], ["\u044d\u043b", -10.195377349853516], ["\u2581\u0cb8", -10.076939582824707], ["iso", -9.868901252746582], ["\u2581Y\u00e9huwah", -9.790431022644043], ["\u2581creation", -9.298283576965332], ["\u2581Ce", -10.10556411743164], ["\u2581mal", -9.8996000289917], ["\u179f\u17d2", -10.16978645324707], ["\u0b32", -10.303811073303223], ["tet", -10.002922058105469], ["\u2581\u0b8e", -10.22419261932373], ["\u0a39", -10.484467506408691], ["\u064a\u0648", -9.901700973510742], ["\u043d\u0438\u0439", -9.996087074279785], ["\u0443\u0443", -9.805215835571289], ["\u041c", -9.916092872619629], ["\u258117:", -10.121087074279785], ["\u2581\u0645\u0627\u0646", -9.986006736755371], ["\u2581hono", -9.76392650604248], ["utu", -10.111065864562988], ["\u2581suffering", -9.287525177001953], ["\u2581\u0632", -9.930158615112305], ["!\"", -9.600143432617188], ["\u2581\u0a2a", -10.124154090881348], ["rak", -9.950861930847168], ["ndan", -10.075240135192871], ["\u2581\u0a2e", -10.13192367553711], ["d\u0259n", -10.167647361755371], ["lela", -9.85961627960205], ["\u2581takes", -9.438215255737305], ["\u0b30\u0b4d", -10.769816398620605], ["\u0259n", -10.148902893066406], ["\u049f\u0430", -10.225286483764648], ["\u03c4\u03b5", -10.212779998779297], ["dem", -9.844673156738281], ["rd", -9.601211547851562], ["\u2581Ad", -10.205784797668457], ["yin", -9.944965362548828], ["\u0c42", -9.942505836486816], ["\u03b2", -10.266799926757812], ["\u2581First", -9.33291244506836], ["\u0448\u0438", -9.870455741882324], ["\u0415", -9.872878074645996], ["\u2581l\u00e9", -9.928584098815918], ["\u0aa8\u0abe", -10.45777416229248], ["\u2581urang", -9.881658554077148], ["AR", -10.186135292053223], ["ese", -10.158784866333008], ["\u2581Search", -9.392417907714844], ["\u2581post", -10.118173599243164], ["f\u00f8r", -10.012496948242188], ["\u2581named", -9.331626892089844], ["\u0ab6", -10.55768871307373], ["\u0441\u0443", -9.914799690246582], ["\u2581ensure", -9.34588623046875], ["\u2581\u042f", -9.917048454284668], ["\u2581path", -9.300750732421875], ["\u2581panag", -9.895134925842285], ["\u2581feet", -9.314661026000977], ["\u2581dal", -9.842768669128418], ["\u25817,", -10.240253448486328], ["\u043b\u0435\u043d", -9.98484992980957], ["\u2581\u03c4\u03b7\u03c2", -10.055100440979004], ["\u2581followed", -9.326904296875], ["\u0442\u044b\u0440", -9.87900161743164], ["AN", -10.057278633117676], ["sal", -9.887152671813965], ["\u10d6", -9.934550285339355], ["\u2581\u0939\u094b", -10.035048484802246], ["\u2581Set", -9.376492500305176], ["n\u00e1", -9.934648513793945], ["\u0117", -9.680512428283691], ["lum", -9.910185813903809], ["\u2581\u0438\u0441", -9.826589584350586], ["\u2581\u0e84\u0ebb\u0e99", -9.775293350219727], ["cio", -10.081428527832031], ["stri", -10.317334175109863], ["\u0438\u0439\u043d", -9.961463928222656], ["\u2581trying", -9.356231689453125], ["\u8981", -9.930529594421387], ["bit", -10.061039924621582], ["vaka", -10.26203727722168], ["\u2581actually", -9.32801628112793], ["\u2581several", -9.333795547485352], ["\u2581government", -9.323027610778809], ["\u2581\u06cc\u06c1", -9.737406730651855], ["\u2581imitate", -9.3311185836792], ["\u2581regarding", -9.314013481140137], ["eta", -9.941812515258789], ["\u2581fast", -9.759148597717285], ["\u0d40", -9.868095397949219], ["\u09a3", -10.412765502929688], ["\u2581Remove", -9.386549949645996], ["\u0a82", -10.535453796386719], ["\u2581status", -9.64648723602295], ["\u13eb", -10.380877494812012], ["\u2581enggau", -9.813314437866211], ["\u2581offering", -9.309647560119629], ["iv", -10.091205596923828], ["\u12bd", -10.025388717651367], ["\u2581tale", -10.245305061340332], ["\u2581\u0c86", -9.928675651550293], ["\u2581Ua", -9.938396453857422], ["\u2581lived", -9.323348045349121], ["\u2581examples", -9.409445762634277], ["\u0578\u0572", -10.147855758666992], ["\u0432\u0443", -10.155725479125977], ["\u2581authorities", -9.336803436279297], ["moni", -10.190836906433105], ["tanga", -10.074225425720215], ["\u2581rej", -9.833560943603516], ["\u2581\u03c3", -10.259025573730469], ["\u2581Group", -9.475953102111816], ["ance", -10.210508346557617], ["\u2581\u1780\u17b6\u179a", -9.749333381652832], ["\u043e\u0443", -10.395612716674805], ["\u2581Annex", -9.345477104187012], ["\u2581Faka", -10.004117965698242], ["tti", -9.913080215454102], ["tat", -10.022356986999512], ["\u2581\u00fe", -9.999578475952148], ["\u2581tr", -9.745697975158691], ["h\u00e1", -10.014267921447754], ["sut", -9.995953559875488], ["\u2581\u1005", -10.043545722961426], ["ys", -9.841036796569824], ["\u2581\u067e\u0627", -9.953585624694824], ["\u2581preach", -9.331182479858398], ["ose", -10.09328556060791], ["\u2581qualities", -9.3316650390625], ["\u0ab5", -10.317599296569824], ["\u2581everlasting", -9.329408645629883], ["He", -9.60388469696045], ["\u2581\u041c", -9.787087440490723], ["\u2581build", -9.321857452392578], ["\u2581Directive", -9.334131240844727], ["\u062a\u0649", -9.709630012512207], ["dzo", -10.265932083129883], ["nnen", -10.24081039428711], ["\u2581\u0434\u0438", -10.087512016296387], ["llen", -10.271383285522461], ["ec", -10.010976791381836], ["\u2581getting", -9.366793632507324], ["\u0acd", -10.741969108581543], ["\u2581\u0e9b", -10.326191902160645], ["\u2581\u101e\u100a\u103a", -9.952409744262695], ["tara", -10.033157348632812], ["\u05e4\u05bc", -10.184491157531738], ["mina", -10.04622745513916], ["\u0443\u0432\u0430", -9.959565162658691], ["\u2581nde", -9.986184120178223], ["\u0437\u0443", -10.156980514526367], ["\u00f5n", -9.952625274658203], ["\u2581itself", -9.345132827758789], ["\u2581showed", -9.331197738647461], ["\u2581promised", -9.316961288452148], ["zy", -9.911349296569824], ["eka", -9.920748710632324], ["\u0561\u0575", -10.243380546569824], ["\u2581followers", -9.312759399414062], ["ffe", -10.005800247192383], ["\u2581b\u1ee5", -9.826501846313477], ["k\u1ecd", -9.96056079864502], ["t\u00e4", -10.07020092010498], ["\u043e\u043a", -9.816485404968262], ["\u2581deal", -9.32476806640625], ["\u2581fruit", -9.325417518615723], ["ute", -10.07908821105957], ["non", -9.938323020935059], ["\u043c\u0430\u0441", -9.771405220031738], ["\u0b9a", -10.124981880187988], ["\u2581Here", -9.386624336242676], ["\u2581praise", -9.319489479064941], ["cor", -10.166497230529785], ["\u0578\u0580", -10.312640190124512], ["\u0ca3", -10.254644393920898], ["\u0435\u043d\u0438\u044f", -10.101666450500488], ["\u2581\u06d4", -9.77597427368164], ["lary", -10.032795906066895], ["ction", -10.252511978149414], ["\u2581Samuel", -9.708450317382812], ["\u0644\u0649\u0642", -9.860835075378418], ["\u0644\u064a", -10.13466739654541], ["\u2581option", -9.351984977722168], ["\u2581\u0427", -9.86544418334961], ["\u2581Sam", -10.13688850402832], ["bele", -10.048683166503906], ["\u2581\u12d8", -10.132079124450684], ["\u0f5a", -10.778963088989258], ["\u2581\u13c4", -10.755351066589355], ["mail", -10.236421585083008], ["\u2581actions", -9.359940528869629], ["\u2581\u0431\u044b", -10.19745922088623], ["\u2581ubu", -9.929472923278809], ["\u09af\u09bc", -10.1310396194458], ["\u10d4\u10dc", -10.062298774719238], ["\u2581Eli", -10.349433898925781], ["\u2581baba", -10.009050369262695], ["\u0cca", -10.217408180236816], ["n\u00eb", -10.030512809753418], ["\u2581circumstances", -9.354142189025879], ["\u0a1f", -9.983284950256348], ["\u1796", -10.485610008239746], ["\u13cd\u13a9", -10.184094429016113], ["\u2581deeds", -9.275810241699219], ["\u2581America", -9.524706840515137], ["\u2581kor", -10.050968170166016], ["idad", -10.275849342346191], ["\u2581led", -9.319981575012207], ["\u0643\u0649", -9.854994773864746], ["\u2581individuals", -9.348443031311035], ["\u2581fall", -9.31813907623291], ["\u2581Jes\u00fas", -9.921382904052734], ["\u0e1e", -9.907752990722656], ["\u2581\u13a6", -10.44979190826416], ["\u2581mill", -10.107645034790039], ["\u1004\u103a", -10.176969528198242], ["\u0642\u0649", -10.049561500549316], ["\u3092", -9.766857147216797], ["\u258118.", -10.092982292175293], ["\u2581mg", -10.253768920898438], ["ntes", -10.160236358642578], ["leke", -10.182662963867188], ["\u2581slave", -9.310173988342285], ["\u2581related", -9.370667457580566], ["til", -10.04194164276123], ["\u2581commanded", -9.347589492797852], ["long", -10.103215217590332], ["\u2581loo", -10.01515007019043], ["ell", -9.9529390335083], ["\u13e3", -10.312795639038086], ["\u2581\u1000\u103c", -9.951766014099121], ["ih", -9.734848976135254], ["\u2581l\u00e1", -9.990177154541016], ["\u2581Romans", -9.377840042114258], ["\u0448\u044c", -10.243430137634277], ["\u2581moko", -9.920600891113281], ["\u0442\u04d5", -9.975446701049805], ["\u2581concerned", -9.373006820678711], ["\u2581allowed", -9.374711036682129], ["\u2581fl", -10.056473731994629], ["\u2581\u0c2a", -10.118885040283203], ["\u04e7", -10.12680435180664], ["\u2581\u0130", -10.02980899810791], ["\u10dc", -9.926346778869629], ["hay", -9.980226516723633], ["\u2581tia", -10.346901893615723], ["\u2581\u0909", -10.349957466125488], ["\u2581determined", -9.368623733520508], ["\u2581\u04b3", -10.23549747467041], ["\u2581rules", -9.388232231140137], ["m\u0101", -10.002941131591797], ["\u043e\u0439", -9.757568359375], [")\u060c", -9.791366577148438], ["\u0561\u0581", -9.935663223266602], ["\u2581gone", -9.346355438232422], ["\u2581\u062f\u0627", -10.048996925354004], ["\u3057", -9.955531120300293], ["\u5927", -9.889147758483887], ["\u09c7\u09b0", -10.113709449768066], ["\u057b", -10.01175594329834], ["\u2581l\u0113", -9.944741249084473], ["\u0924\u094d\u0930", -10.483373641967773], ["\u2581opened", -9.395650863647461], ["\u05d9\u05e7", -10.592782020568848], ["\u2581Aba", -10.064115524291992], ["\u2581taha", -9.975852012634277], ["\u04e9\u043d", -10.023681640625], ["\u2581d\u00e1", -10.042766571044922], ["\u2581kh\u00f4ng", -9.786065101623535], ["\u2581lay", -9.85851001739502], ["\u17b8", -10.218326568603516], ["\u0449\u0438", -10.691967010498047], ["q\u00dfue", -9.841466903686523], ["\u2581due", -9.355598449707031], ["\u062f\u06d5", -9.718563079833984], ["d\u00ed", -10.069000244140625], ["\u043a\u0456", -10.000733375549316], ["\u2581hours", -9.397287368774414], ["\u2581user", -9.407258033752441], ["\u2581\u13e5", -10.341986656188965], ["yar", -10.088677406311035], ["\u2581bol", -9.851055145263672], ["\u56fd", -9.896278381347656], ["\u2581Den", -10.14704418182373], ["\u2581jeung", -9.931839942932129], ["\u0930\u0940", -9.937788963317871], ["\u04af\u0440", -10.101081848144531], ["\u2581hour", -9.365571975708008], ["\u00f6r", -9.951504707336426], ["\u30fc", -9.871804237365723], ["\u2581asi", -10.172896385192871], ["\u2581\u0ea7\u0eb2", -9.832026481628418], ["15", -10.277091979980469], ["\u2581\u0627\u06cc\u0634\u0627\u0646", -9.944005012512207], ["\u2581sida", -9.884282112121582], ["\u2581amount", -9.385605812072754], ["\u2581\u1235", -10.135967254638672], ["\u0121", -9.861663818359375], ["\u2581relevant", -9.558784484863281], ["w\u00e9", -9.970231056213379], ["\u2581\u062c\u0646", -9.907806396484375], ["\u2581\u00c9", -10.01790714263916], ["ima", -9.721672058105469], ["\u0dcf", -10.011295318603516], ["\u2581Pri", -10.099159240722656], ["ista", -10.160091400146484], ["\u043b\u0435\u0440", -9.861681938171387], ["Re", -10.47348690032959], ["mati", -10.00136947631836], ["\u0ec2\u0eab", -9.884916305541992], ["\u06cc\u06ba", -9.816814422607422], ["\u2581Gra", -10.229059219360352], ["vet", -9.972521781921387], ["\u043e\u0440", -9.82969856262207], ["\u2581opportunity", -9.363003730773926], ["\u0d42", -10.051473617553711], ["\u2581\u0634", -10.038127899169922], ["\u0107e", -10.191145896911621], ["\u2581dis", -10.397879600524902], ["\u2581cum", -10.072698593139648], ["\u0648\u0627", -9.756125450134277], ["\u2581\u0422\u043e", -10.11369514465332], ["\u0628\u0627", -9.983550071716309], ["wn", -10.089943885803223], ["\u03c0\u03bf", -10.614007949829102], ["\u2581modern", -9.600079536437988], ["\u2581System", -9.676370620727539], ["\u2581priest", -9.362662315368652], ["tit", -9.912834167480469], ["\u0c38", -10.041022300720215], ["\u2581como", -9.979562759399414], ["\u2581\u03b5", -10.300530433654785], ["ture", -10.579505920410156], ["\u09bf\u09a4", -10.386443138122559], ["\u13da", -10.74444580078125], ["ral", -10.064152717590332], ["\u2581\u0d06", -9.96835994720459], ["\u00e4r", -10.032301902770996], ["m\u0259", -10.169602394104004], ["\u2581happen", -9.364972114562988], ["\u0aaf", -10.757859230041504], ["\u102d", -10.076830863952637], ["\u0648\u0645", -10.084508895874023], ["\u2581provisions", -9.409095764160156], ["\u2581ren", -10.131856918334961], ["igi", -9.808709144592285], ["\u2581\u00bf", -9.94613265991211], ["\u0d39", -10.11104965209961], ["\u2581gan", -10.251791954040527], ["\u2581believed", -9.35473918914795], ["\u2581cast", -9.378907203674316], ["\u2581st", -10.317562103271484], ["\u0938\u094d", -10.048661231994629], ["\u0a21", -10.312820434570312], ["\u0446\u0430", -10.245662689208984], ["ril", -10.0289888381958], ["\u2581Other", -9.388153076171875], ["\u2581tax", -9.87376594543457], ["\u2581education", -9.355677604675293], ["lar\u0131", -10.170134544372559], ["\u091a\u0947", -9.96997356414795], ["\u2581political", -9.374333381652832], ["\u2581\u101c", -10.205025672912598], ["\u2581saved", -9.38326358795166], ["\u2581main", -9.427102088928223], ["\u2581\u0ea1\u0eb5", -9.8251953125], ["taa", -9.935541152954102], ["\u2581\u0422\u0430", -10.103896141052246], ["\u2581sight", -9.361775398254395], ["lai", -9.90385913848877], ["\u0932\u0940", -9.930713653564453], ["\u2581Paulo", -9.965655326843262], ["symbols", -10.147408485412598], ["\u2581tuku", -9.980216979980469], ["\u2581Africa", -9.496846199035645], ["\u2581\u043f\u043e\u0434", -9.92629337310791], ["\u2581\u10e1\u10d0", -10.035648345947266], ["kara", -10.111532211303711], ["\u10d3\u10d0", -9.876666069030762], ["\u043f\u043e", -10.162115097045898], ["\u0443\u043d", -9.735331535339355], ["\u2581class", -9.570509910583496], ["\u2581\u0ec0\u0ea2", -9.848475456237793], ["\u2581direction", -9.367619514465332], ["\u2581\u0259", -10.65010929107666], ["\u0915\u094d", -10.110962867736816], ["\u2581\u0caa", -10.295511245727539], ["stat", -10.036361694335938], ["\u2581Creator", -9.368964195251465], ["\u2581\u1787\u17b6", -9.72965145111084], ["w\u00f3", -9.886716842651367], ["\u04e9\u04e9", -10.017094612121582], ["\u10eb", -10.216095924377441], ["\u2581umu", -10.13659954071045], ["\u5b9a", -10.034183502197266], ["\u0627\u0628", -10.049622535705566], ["\u1323", -10.151938438415527], ["\u2581\u0431\u0430\u0439", -10.21002197265625], ["\u2581reach", -9.37464714050293], ["\u2581ho\u00ea", -9.972536087036133], ["\u2581\u00bb,", -10.127081871032715], ["gal", -10.02303409576416], ["\u2581\u0ab8", -10.6546049118042], ["\u03c9\u03bd", -10.168776512145996], ["\u3046", -9.887934684753418], ["\u2581info", -10.182393074035645], ["\u2581Por", -10.199018478393555], ["\u5730", -9.868188858032227], ["\u2581mode", -9.423853874206543], ["\u304b", -9.898582458496094], ["\u0441\u044b\u043d", -10.046504974365234], ["\u2581\u0a28\u0a42\u0a70", -9.971866607666016], ["\u044f\u043d", -10.053560256958008], ["\u2581policy", -9.424201011657715], ["\u0431\u0443", -10.167201042175293], ["\u0441\u043e", -9.899211883544922], ["\u2581\u0421\u043e", -10.009202003479004], ["\u2581\u062e\u062f\u0627", -9.864261627197266], ["\u2581clean", -9.396576881408691], ["\u2581product", -9.636737823486328], ["mpo", -10.2295503616333], ["bin", -10.051836967468262], ["\u2581aye", -10.046642303466797], ["\u0f46", -10.997376441955566], ["\u2581mbeni", -9.983325004577637], ["\u2581War", -9.818635940551758], ["\u2581chan", -9.946586608886719], ["\u1203", -10.181279182434082], ["\u2581kuwa", -10.045897483825684], ["\u0ab9", -11.076788902282715], ["ee", -10.037328720092773], ["\u094d\u0935", -10.6741943359375], ["\u00e9e", -10.157463073730469], ["\u2581\u043a\u044b\u043b", -9.835529327392578], ["ms", -10.084132194519043], ["\u0435\u0438", -10.199629783630371], ["\u120a", -9.998512268066406], ["\u2581section", -9.472121238708496], ["\u258114,", -10.195211410522461], ["\u13d5", -10.218326568603516], ["\u2581December", -9.37649917602539], ["\u2581K\u00e2cua\u00df", -9.881917953491211], ["\u2581servi", -9.954191207885742], ["vin", -10.029228210449219], ["\u0d38\u0d4d", -9.98083782196045], ["\u09cd\u09af\u09be", -10.466714859008789], ["af", -9.953812599182129], ["\u258116:", -10.202021598815918], ["\u06be\u0648", -9.97164249420166], ["\u2581\u092a\u0930", -10.193891525268555], ["\u0e4c", -10.19749641418457], ["gh\u1ecb", -9.934456825256348], ["lala", -9.856218338012695], ["\u12e8", -10.024686813354492], ["gira", -10.02772331237793], ["\u0431\u0435", -10.10248851776123], ["\u0fb2", -11.097176551818848], ["\u2581\u0436", -10.215106010437012], ["ero", -10.036392211914062], ["\u2581kada", -10.069872856140137], ["leb", -10.145779609680176], ["\u00f6n", -10.112886428833008], ["\u0927", -10.149853706359863], ["\u2581\u0432\u04d9", -10.102239608764648], ["\u4e3a", -9.91089916229248], ["kaka", -10.14448356628418], ["\u2581progress", -9.392430305480957], ["\u0eab", -10.196975708007812], ["dor", -10.100190162658691], ["\u2581\u043d\u04d5", -9.99828815460205], ["\u2581Para", -10.124218940734863], ["\u2581\u0445\u0443", -10.185725212097168], ["\u2581addition", -9.407408714294434], ["\u2581\u17a2\u17d2\u1793\u1780", -9.815496444702148], ["\u2581freedom", -9.379278182983398], ["\u0563", -9.970305442810059], ["\u2581tawo", -10.076457977294922], ["\u0648\u062f", -10.04887580871582], ["\u062c\u06be", -10.068650245666504], ["zwe", -9.989598274230957], ["\u0641\u062a", -10.077523231506348], ["ciones", -10.006362915039062], ["bet", -10.005572319030762], ["\u2581visit", -9.398478507995605], ["\u2581space", -9.425420761108398], ["\u2581\u12eb", -10.278698921203613], ["\u2581spiritually", -9.394390106201172], ["nsa", -9.8073148727417], ["\u0433\u0435\u043d", -9.839666366577148], ["\u2581Apa", -10.006404876708984], ["tir", -9.902429580688477], ["\u0d30\u0d4d", -9.921198844909668], ["ug", -10.044300079345703], ["\u2581\u0644\u0627\u0621", -9.9588041305542], ["usi", -10.088233947753906], ["ew", -10.120696067810059], ["\u0c17", -9.937426567077637], ["\u0641\u0627", -10.208924293518066], ["\u2581j\u00e9", -9.84774112701416], ["\u2581mafai", -9.884556770324707], ["car", -10.272722244262695], ["\u2581\u0433", -10.295292854309082], ["art", -9.915388107299805], ["y\u0148", -9.738640785217285], ["agi", -9.834135055541992], ["nom", -10.026598930358887], ["\u00e7i", -10.258282661437988], ["hle", -9.951629638671875], ["\u062f\u0648", -9.919373512268066], ["aq", -9.631868362426758], ["\u2581pos", -9.973710060119629], ["\u0645\u0649", -9.969282150268555], ["\u0581", -10.205187797546387], ["\u120e", -10.210204124450684], ["\u2581blessings", -9.38715934753418], ["\u2581request", -9.422209739685059], ["\u2581company", -9.44456672668457], ["\u09ac\u09be", -10.660276412963867], ["\u2581Synchronis", -9.410545349121094], ["\u04d7\u043d", -10.436077117919922], ["\u2581wish", -9.409112930297852], ["\u2581\u0431\u0438\u043b", -9.93786907196045], ["tele", -10.110376358032227], ["\u10e4", -10.06748104095459], ["ret", -9.867822647094727], ["\u0442\u0456", -10.02068042755127], ["\u0646\u06cc", -9.590001106262207], ["\u2581office", -9.417158126831055], ["vol", -9.953351974487305], ["\u0561\u057f", -10.17259693145752], ["\u2581deep", -9.411931991577148], ["iya", -9.662572860717773], ["vas", -10.035762786865234], ["\u2581priests", -9.445042610168457], ["ep", -10.241501808166504], ["rish", -10.257425308227539], ["\u2581simply", -9.406851768493652], ["No", -10.161794662475586], ["\u2581returned", -9.41293716430664], ["chen", -10.260129928588867], ["ifica", -10.082255363464355], ["\u2581\u0430\u0434", -10.283634185791016], ["esi", -9.989262580871582], ["\u2581\u00f6", -10.042842864990234], ["dre", -10.087851524353027], ["\u00e2l", -10.223064422607422], ["\u2581Type", -9.488840103149414], ["\u0d2a", -9.841107368469238], ["\u2581\u062a\u064a", -10.008074760437012], ["\u043e\u043b", -9.721035957336426], ["\u010de", -10.198220252990723], ["\u2581mark", -10.181395530700684], ["\u2581bit", -10.022574424743652], ["\u2581laid", -9.438679695129395], ["\u0c17\u0c3e", -9.843243598937988], ["\u51fa", -9.923415184020996], ["\u2581\u015e", -10.232623100280762], ["\u0e38", -10.067458152770996], ["\u0f41", -11.180277824401855], ["\u2581#", -10.073074340820312], ["mek", -9.971508026123047], ["\u0f0b\u0f56", -10.679871559143066], ["\u2581Right", -9.428304672241211], ["\u016f", -10.206652641296387], ["zar", -10.145524024963379], ["\u2581imi", -10.06600570678711], ["hara", -10.155311584472656], ["\u2581standard", -9.761103630065918], ["\u2581prayers", -9.427955627441406], ["\u0d31", -9.971121788024902], ["\u2581\u0916", -10.545438766479492], ["\u2581lor", -9.963228225708008], ["rom", -10.022415161132812], ["\u2581mouth", -9.40017032623291], ["\u2581bilen", -9.859206199645996], ["\u0257a", -10.684551239013672], ["ida", -10.024432182312012], ["\u2581Ng", -10.087915420532227], ["UN", -10.280630111694336], ["\u2581lautolu", -10.004555702209473], ["\u2581Revelation", -9.415122032165527], ["\u2581perhaps", -9.417191505432129], ["\u2581meaning", -9.419193267822266], ["\u2581During", -9.417165756225586], ["\u2581\u0646\u06c1\u06cc\u06ba", -9.826396942138672], ["dina", -10.458500862121582], ["\u2581\u00fc\u00e7in", -9.838494300842285], ["\u2581mere", -10.454327583312988], ["fs", -9.844409942626953], ["\u13ce", -10.236721992492676], ["BAR", -10.238123893737793], ["\u0925", -10.328990936279297], ["\u2581\u00ea", -10.243386268615723], ["\u13b6", -10.328648567199707], ["\u2581daga", -10.200636863708496], ["\u2581short", -9.425568580627441], ["\u04e9\u0440", -9.979708671569824], ["heb", -10.042783737182617], ["\u0433\u044a", -10.484992027282715], ["\u2581\u0448", -10.117329597473145], ["\u0dc3\u0dca", -10.155675888061523], ["igu", -10.229691505432129], ["nut", -9.935662269592285], ["\u043a\u0430\u043d", -10.134637832641602], ["\u2581provides", -9.445672035217285], ["\u04ef", -10.060941696166992], ["sil", -10.181605339050293], ["\u2581kay", -10.081793785095215], ["tek", -9.97779655456543], ["\u1005", -10.12022590637207], ["\u2581\u1794\u17d2\u179a", -10.366000175476074], ["\u2581\u0a9b\u0ac7", -10.240605354309082], ["nera", -10.137137413024902], ["\u2581\u0411\u0430", -10.065682411193848], ["\u0420", -9.996728897094727], ["ddi", -10.277501106262207], ["\u2581\u0431\u0435\u043b\u04d9\u043d", -9.845919609069824], ["suu", -10.206475257873535], ["\u0c4b", -9.922567367553711], ["\u13e8", -10.378521919250488], ["\u2581s\u00ec", -9.852951049804688], ["\u2581super", -10.209901809692383], ["\u10de", -9.997106552124023], ["\u2581requirements", -9.449699401855469], ["\u0440\u0430\u0442", -10.030059814453125], ["\u2581nakai", -10.02801513671875], ["\u0433\u04d9\u043d", -9.961312294006348], ["\u2581\u0626\u06c7", -10.040083885192871], ["\u2581baka", -9.93736457824707], ["\u2581\u0433\u0430", -10.403264999389648], ["\u2581Information", -9.723329544067383], ["sso", -10.227778434753418], ["\u2581lege", -10.037304878234863], ["\u2581din", -9.986034393310547], ["\u0645\u0646", -10.269266128540039], ["Na", -10.151859283447266], ["tive", -10.410150527954102], ["\u2581\u0906\u0939\u0947", -9.869501113891602], ["\u101e\u100a\u103a", -9.984891891479492], ["gga", -10.091655731201172], ["\u2581behold", -9.417142868041992], ["\u2581q", -10.347891807556152], ["\u2581mei", -9.934372901916504], ["\u0e48", -10.439273834228516], ["\u10f2", -10.061503410339355], ["\u2581m\u00e1", -10.103405952453613], ["\u2581ez", -10.166053771972656], ["\u2581letter", -9.42857837677002], ["\u2581Parliament", -9.472294807434082], ["\u2581programme", -9.66246223449707], ["\u1213", -9.89065170288086], ["jin", -10.018074989318848], ["\u2581hy", -10.293642044067383], ["tok", -9.999044418334961], ["\u2581t\u00ebn\u00eb", -10.004525184631348], ["\u2581maintain", -9.42087459564209], ["\u2581Holy", -9.443706512451172], ["dha", -10.121747970581055], ["\u0633\u0649", -9.82038402557373], ["\u2581forward", -9.44662857055664], ["hin", -10.034578323364258], ["Ka", -10.209954261779785], ["tions", -10.420402526855469], ["\u2581energy", -9.44287395477295], ["\u2581dit", -10.255793571472168], ["ier", -10.342369079589844], ["\u2581\u0aac", -10.717148780822754], ["\u064a\u0631", -10.009164810180664], ["\u2581week", -9.447039604187012], ["*", -10.17548942565918], ["\u2581kur", -9.987886428833008], ["\u2581\u25a1", -10.07313060760498], ["p\u00f2", -10.115701675415039], ["\u2581\u0b2a", -10.708821296691895], ["\u2581\u03c4\u03bf\u03c5", -10.155324935913086], ["\u2581\u0c87", -9.954232215881348], ["\u2581noku", -10.045557975769043], ["st\u00e4", -10.346073150634766], ["\u2581legal", -9.429244041442871], ["\u2581half", -9.433401107788086], ["kuru", -10.099543571472168], ["\u2581thousand", -9.425888061523438], ["\u2581katoa", -9.978639602661133], ["\u2581instead", -9.433990478515625], ["\u2581\u0a26\u0a40", -10.025991439819336], ["\u2581;", -9.59189224243164], ["\u2581Ben", -10.414475440979004], ["mwa", -9.941864013671875], ["\u2581empty", -9.487906455993652], ["\u0e42", -10.081215858459473], ["\u0446\u04d9\u0430", -10.510370254516602], ["\u2581cases", -9.4716796875], ["\u2581added", -9.451257705688477], ["\u2581vil", -10.087564468383789], ["nti", -9.56322193145752], ["\u5c31", -10.051608085632324], ["her", -10.290390014648438], ["\u2581\u09ae", -10.333342552185059], ["\u258110,", -10.361051559448242], ["\u2581\u0d2a", -10.020506858825684], ["\u2581mama", -10.111092567443848], ["\u2581cor", -10.111570358276367], ["\u2581loyal", -9.445838928222656], ["\u03c1\u03bf", -10.55455493927002], ["mul", -10.128120422363281], ["\u0933", -9.965222358703613], ["\u2581remove", -9.4965181350708], ["\u00fcl", -10.031706809997559], ["\u2581bato", -9.989883422851562], ["\u2581Ek", -10.047357559204102], ["\u2581Zi", -10.290566444396973], ["\u258111,", -10.282991409301758], ["lal", -10.02362060546875], ["ena", -10.170251846313477], ["\u2581Dr", -9.931557655334473], ["\u2581dau", -10.370516777038574], ["lyk", -10.009346961975098], ["\u0645\u0648\u0648", -9.774364471435547], ["tem", -9.906478881835938], ["\u0695", -9.775368690490723], ["oa", -10.086164474487305], ["g\u00fc", -10.62785530090332], ["\u2581Ak", -10.10749340057373], ["bere", -10.056807518005371], ["\u0901", -10.193573951721191], ["\u0644\u0649\u0631\u0649", -9.937427520751953], ["\u2581Um", -10.08753776550293], ["nos", -9.9059476852417], ["mmer", -10.261853218078613], ["\u2581\u0438\u043b", -10.204117774963379], ["i\u0148", -9.848494529724121], ["\u2581dans", -10.27688217163086], ["ole", -10.279438018798828], ["gon", -10.038067817687988], ["\u2581waka", -9.997213363647461], ["\u2014", -9.898809432983398], ["stel", -10.365617752075195], ["law", -10.19739055633545], ["lat", -10.064924240112305], ["gera", -10.118195533752441], ["\u2581tenamit", -9.922122955322266], ["kal", -10.26434326171875], ["\u2581Spirit", -9.449209213256836], ["gna", -10.081198692321777], ["lement", -10.424514770507812], ["\u2581\u0926", -10.548117637634277], ["mpu", -10.139126777648926], ["\u7528", -9.925162315368652], ["\u0cc1\u0cb5", -10.06645393371582], ["banga", -10.146052360534668], ["tina", -10.239513397216797], ["\u2581supported", -9.501913070678711], ["\u09a4\u09c7", -10.497505187988281], ["\u2581table", -9.428068161010742], ["\u2581continued", -9.459156036376953], ["\u2581default", -9.48424243927002], ["\u0915\u093e", -10.150215148925781], ["\u0b2a", -10.58312702178955], ["\u2581mereka", -9.882317543029785], ["\u2581\u0e81\u0eb2\u0e99", -9.914172172546387], ["\u2581Babylon", -9.573205947875977], ["\u2581parau", -10.057136535644531], ["\u2581responsibility", -9.441407203674316], ["\u2581chak", -10.080827713012695], ["\u2581Qu", -10.14183235168457], ["\u2581\u10db\u10dd", -10.095014572143555], ["\u2581soo", -10.061746597290039], ["\u2581gain", -9.415778160095215], ["\u2581\u0644\u06ce", -9.873921394348145], ["\u2581sort", -9.78508186340332], ["\u2581check", -9.472482681274414], ["\u2581normal", -9.857571601867676], ["RE", -10.403438568115234], ["ei", -10.044846534729004], ["\u0b95\u0bcd", -9.933799743652344], ["\u2581speaking", -9.460938453674316], ["\u2581Only", -9.485360145568848], ["awa", -10.038688659667969], ["yna", -10.103447914123535], ["mor", -10.265771865844727], ["\u2581willing", -9.557201385498047], ["\u2581\u0e9a\u0ecd\u0ec8", -9.921651840209961], ["\u2581kolo", -10.146721839904785], ["\u0a26", -10.20927619934082], ["\u2581Del", -10.135764122009277], ["fra", -10.386954307556152], ["\u2581big", -9.479558944702148], ["\u2581\u0648\u0647", -10.25153923034668], ["\u0631\u0627\u0646", -9.979523658752441], ["kur", -9.997878074645996], ["\u2581Ser", -10.132657051086426], ["\u2581p\u00ebpe", -10.038390159606934], ["\u2581password", -9.520952224731445], ["\u2581active", -9.469898223876953], ["\u2581aton", -10.037939071655273], ["\u2581region", -9.747551918029785], ["\u2581direct", -9.85364055633545], ["\u2581l\u00ea", -10.021944046020508], ["\u2581i\u0161", -9.97614860534668], ["\u25812008", -10.20569896697998], ["\u2581\u0a26", -10.811431884765625], ["\u00ebn", -10.046971321105957], ["\u2581effort", -9.444933891296387], ["\u043c\u0443", -9.933429718017578], ["\u00fdar", -9.98236083984375], ["\u2581regular", -9.454081535339355], ["\u2581mer", -10.086165428161621], ["\u2581toko", -10.180093765258789], ["\u2581carry", -9.463299751281738], ["\u2581specified", -9.53009033203125], ["nek", -10.08764934539795], ["\u0649\u0646\u0649", -9.872136116027832], ["\u2581kadagiti", -9.923169136047363], ["ono", -9.89535140991211], ["\u2581kad", -9.941948890686035], ["\u2581International", -9.578184127807617], ["\u2581powerful", -9.476366996765137], ["\u7b2c", -9.844239234924316], ["rana", -10.073287010192871], ["\u1231", -10.367937088012695], ["\u2581ok", -10.134157180786133], ["\u0bc6", -10.23555850982666], ["\u2581persons", -9.516158103942871], ["\u0ead", -10.410859107971191], ["\u2581\u0ec0\u0e88\u0ebb\u0ec9\u0eb2", -9.914274215698242], ["\u2581\u0628\u0627\u0644", -10.160990715026855], ["shu", -10.3707857131958], ["\u2581omu", -10.181736946105957], ["\u2581wonderful", -9.470316886901855], ["\u05b7", -10.740095138549805], ["\u03c1\u03b9", -10.554076194763184], ["\u0bb2\u0bcd", -10.108785629272461], ["\u2581kami", -10.11517333984375], ["\u2581justice", -9.429489135742188], ["\u00e1il", -10.44778823852539], ["\u0b9f", -10.008273124694824], ["\u0432\u0456", -10.08267593383789], ["\u2581protect", -9.434919357299805], ["\u0bbf\u0ba9\u0bcd", -10.412090301513672], ["\u2581mba", -10.218181610107422], ["\u304c", -9.938628196716309], ["\u03b6", -10.389679908752441], ["\u0432\u0430\u0440", -10.278544425964355], ["\u2581icon", -9.5010404586792], ["\u0646\u06be\u0646", -10.12157154083252], ["\u2581\u0574", -10.112715721130371], ["\u2581tele", -10.253397941589355], ["\u2581\u04d5\u043c\u04d5", -10.042112350463867], ["\u0c39", -10.05774211883545], ["\u0ab8", -10.37819766998291], ["\u1273\u1275", -10.046366691589355], ["\u2581confidence", -9.460917472839355], ["\u2581physical", -9.47510051727295], ["\u0ca7", -10.171116828918457], ["cur", -10.4447603225708], ["\u0ba8\u0bcd\u0ba4", -10.071123123168945], ["kki", -10.256758689880371], ["\u258121:", -10.198661804199219], ["\u25812006", -10.231122016906738], ["z\u00eb", -10.50456714630127], ["\u2581\u09aa\u09cd\u09f0", -10.413731575012207], ["form", -10.459166526794434], ["ding", -10.415440559387207], ["\u2581eli", -10.210298538208008], ["\u2581\u0434\u043b\u044f", -10.040324211120605], ["\u0eb2\u0e99", -10.261627197265625], ["jan", -10.211983680725098], ["\u0f61", -11.266963005065918], ["\u2581\u041c\u043e", -10.139303207397461], ["\u0bbe\u0bb0\u0bcd", -10.18609619140625], ["\u10d4\u10d1\u10d0", -10.324390411376953], ["\u2581\u0a15\u0a3f", -10.14192008972168], ["\u2581hoki", -10.07374382019043], ["\u2581ulih", -9.967477798461914], [">>cor<<", -100], ["\u2581List", -9.539765357971191], ["\u2581abantu", -9.976391792297363], ["\u2581abo", -10.150848388671875], ["gura", -10.240097045898438], ["\u2581fathers", -9.5010404586792], ["\u2581ran", -10.46025276184082], ["\u043b\u0430\u0440\u0438", -9.911107063293457], ["\u2581tene", -10.120111465454102], ["\u0930\u0947", -10.30402660369873], ["win", -10.122611045837402], ["\u0ebb", -10.560223579406738], ["\u2581enemies", -9.472186088562012], ["\u0456\u043d", -9.940561294555664], ["\u2581thereof", -9.466035842895508], ["\u2581q\u00eb", -10.044576644897461], ["\u2581\u043f\u0440\u0435", -10.054204940795898], ["\u2581tried", -9.472865104675293], ["\u25812000", -10.22265625], ["\u2581\u0430\u043c", -10.190603256225586], ["\u2581Time", -9.522021293640137], ["\u2581fun", -10.296048164367676], ["\u1290\u1275", -10.170143127441406], ["\u0163i", -10.05187702178955], ["\u0b1a", -10.642600059509277], ["\u044b\u0439", -10.104161262512207], ["AS", -10.36824893951416], ["\u2581older", -9.495574951171875], ["\u2581messages", -9.600113868713379], ["\u2581base", -10.320704460144043], ["\u2581fir", -10.190289497375488], ["\u2581button", -9.466583251953125], ["info", -9.840664863586426], ["\u00e6r", -10.212601661682129], ["gel", -10.089832305908203], ["\u2581According", -9.476147651672363], ["\u0648\u06cc", -9.70997428894043], ["\u2581tayo", -10.134453773498535], ["\u2581\u13be", -10.74901008605957], ["bile", -10.173873901367188], ["\u2581\u057f", -10.284421920776367], ["\u2581kona", -10.26858901977539], ["\u2581building", -9.45847225189209], ["\u0131n", -10.036288261413574], ["xic", -10.133829116821289], ["\u2581outside", -9.481222152709961], ["\u2581\u0d28", -10.251376152038574], ["rek", -10.095897674560547], ["\u258112,", -10.410309791564941], ["\u2581\u0924\u094b", -10.132818222045898], ["\u091a\u0940", -10.146880149841309], ["\u2581sega", -10.353178024291992], ["lisa", -10.191080093383789], ["rna", -10.035765647888184], ["ingen", -10.30197811126709], ["\u05f0", -10.843955039978027], ["\u2581Roma", -10.154634475708008], ["\u2581deka", -10.011710166931152], ["OR", -10.413591384887695], ["iri", -9.843742370605469], ["\u0aa5", -10.865017890930176], ["\u2581add", -9.501155853271484], ["jas", -10.036766052246094], ["ffi", -10.237469673156738], ["\u2581accepted", -9.466645240783691], ["\u2581risk", -9.488446235656738], ["\u0915\u094d\u0937", -10.283092498779297], ["\u1278\u12cd", -10.556336402893066], ["\u2581hundred", -9.460761070251465], ["\u2581bread", -9.49958324432373], ["\u2581tena", -10.113064765930176], ["\u0938\u094d\u0924", -10.414905548095703], ["\u2581\u0448\u0438", -10.263309478759766], ["wal", -10.28911018371582], ["\u2581cities", -9.48885726928711], ["\u2581\u04d9", -10.18073558807373], ["but", -10.431174278259277], ["\u0c3f\u0c02\u0c1a", -9.992329597473145], ["w\u00f2", -10.16773796081543], ["\u2581\u0628\u06c7", -10.117814064025879], ["gara", -10.159368515014648], ["\u2581ska", -10.313467025756836], ["kisa", -10.14726734161377], ["\u2581\u06af\u0641\u062a", -10.055463790893555], ["\u04e1", -10.674023628234863], ["\u2581Devil", -9.475659370422363], ["\u2581pot", -10.257034301757812], ["\u2581\u062e\u062f\u0627\u0648\u0646\u062f", -10.081941604614258], ["tayo", -10.03538990020752], ["weni", -9.915781021118164], ["\u2581\u0d9a", -10.279454231262207], ["\u2581values", -9.539215087890625], ["\u2581bes", -9.78730297088623], ["ete", -9.935927391052246], ["\u2581Rather", -9.45706844329834], ["\u2581blessing", -9.451373100280762], ["\u2581winak", -10.06280517578125], ["\u2581hal", -9.977324485778809], ["\u0b30\u0b47", -10.16599178314209], ["\u25812007", -10.29021167755127], ["\u2581dire", -10.208641052246094], ["\u258119.", -10.214834213256836], ["\u2581\u090f\u0915", -10.0984468460083], ["\u2581olu", -10.236455917358398], ["\u2581URL", -10.219968795776367], ["\u2581mang", -10.008548736572266], ["\u2581management", -9.5140962600708], ["\u10e8\u10d8", -10.095683097839355], ["\u2581Im", -9.944660186767578], ["\u8005", -9.947805404663086], ["\u2581prepared", -9.487634658813477], ["\u043f\u0435", -9.994682312011719], ["\u2581individual", -9.467118263244629], ["\u2581destroyed", -9.455541610717773], ["\u2581\u0634\u0627", -10.12936782836914], ["was", -10.375061988830566], ["\u2581\u063a", -10.327787399291992], ["\u2581condition", -9.709245681762695], ["\u0e17\u0e35\u0e48", -9.854718208312988], ["\u0b24", -10.522610664367676], ["\u0d23", -10.031031608581543], ["\u04f3", -10.484842300415039], ["\u2581\u0395", -10.526949882507324], ["MA", -10.34261703491211], ["\u2581Far", -10.52965259552002], ["nyi", -10.025605201721191], ["kh", -10.33892822265625], ["\u2581Take", -9.51760196685791], ["\u2581beginning", -9.48918342590332], ["\u2581\u0db4", -10.111712455749512], ["\u041a", -10.007501602172852], ["\u2581Ana", -10.447591781616211], ["\u0ba4\u0bbf", -10.20468807220459], ["\u1262", -10.13781452178955], ["\u2581inspired", -9.485551834106445], ["\u0d9c", -10.137659072875977], ["\u2581\u0431\u0435", -9.999592781066895], ["\u2581inc\u00dfa\u00df", -9.95801067352295], ["\u0435\u043d\u0438\u0435", -10.26149845123291], ["\u305f", -10.148823738098145], ["ann", -10.118133544921875], ["\u2581\u17a2", -10.19265365600586], ["\u2581angel", -9.465906143188477], ["EL", -10.441640853881836], ["\u2581\u0bb5", -10.227434158325195], ["\u0c4d\u0c2f", -10.241815567016602], ["\u03af\u03b1", -10.370062828063965], ["\u258119:", -10.32240104675293], ["\u2581helps", -9.65771198272705], ["pfu", -10.09191608428955], ["\u0259t", -10.430429458618164], ["\u2581ty", -10.56845474243164], ["\u2581\u0410\u043b\u043b\u043e\u04b3", -9.897656440734863], ["\u2581naka", -10.286041259765625], ["\u2581\u0438\u0448", -10.07983684539795], ["\u2581clearly", -9.503740310668945], ["\u03c3\u03b7", -10.290772438049316], ["\u2581decided", -9.49109935760498], ["ch\u00df", -10.519015312194824], ["\u2581names", -9.644305229187012], ["\u2581contains", -9.549488067626953], ["\u2581strengthen", -9.478043556213379], ["ham", -10.112377166748047], ["\u2581treatment", -9.492741584777832], ["eki", -10.219721794128418], ["v\u00e1", -10.134076118469238], ["\u2581pagpa", -10.245044708251953], ["\u2581prove", -9.474103927612305], ["\u10e8", -10.26505184173584], ["\u0443\u0434", -9.880712509155273], ["\u2581bay", -10.230567932128906], ["\u12d8", -10.155631065368652], ["\u2581event", -9.507203102111816], ["\u2581focus", -9.488269805908203], ["lja", -10.188886642456055], ["\u2581reasons", -9.53822135925293], ["\u2581\u1208", -10.369750022888184], ["\u13f2", -10.377636909484863], ["\u2581grow", -9.468962669372559], ["\u2581\u0cb9", -10.397323608398438], ["\u6240", -10.056927680969238], ["\u2581nje", -10.355671882629395], ["\u2581happiness", -9.485377311706543], ["ize", -10.286361694335938], ["\u0ca4", -9.993138313293457], ["oso", -10.194075584411621], ["\u2581\u0d07", -9.948213577270508], ["\u0144", -10.177042007446289], ["\u2581member", -9.485871315002441], ["\u03bf\u03cd", -10.630509376525879], ["\u2581throughout", -9.499069213867188], ["\u2581Hebrew", -9.486480712890625], ["pho", -10.238471984863281], ["\u2581favor", -9.766239166259766], ["\u2581\u0935\u093f", -10.32311725616455], ["\u2581\u04a1\u0430", -10.419832229614258], ["\u2581reg", -10.080646514892578], ["\u258118:", -10.32371711730957], ["king", -10.50786018371582], ["\u2581load", -9.505048751831055], ["\u2581\u03c4\u03b7\u03bd", -10.24322509765625], ["\u0442\u044d", -10.091784477233887], ["\u2581\u0625", -10.378417015075684], ["\u2581carried", -9.515240669250488], ["\u102e", -10.188896179199219], ["\u091a\u094d\u092f\u093e", -10.001904487609863], ["\u0564", -10.18411922454834], ["\u2581develop", -9.493260383605957], ["lua", -10.18846607208252], ["tari", -10.323240280151367], ["\u2581eiloa", -9.920412063598633], ["80", -10.61457347869873], ["\u0942\u0928", -10.0012788772583], ["\u2581President", -9.533695220947266], ["\u2581\u101e\u1030", -10.078911781311035], ["\u2581advice", -9.491362571716309], ["\u2581ene", -10.294123649597168], ["\u2581lin", -10.190603256225586], ["\u043d\u043e\u0433\u043e", -10.02403736114502], ["\u0eb1\u0e99", -10.361282348632812], ["\u2581anti", -10.341434478759766], ["naki", -10.337852478027344], ["\u0ab0\u0acd", -10.583678245544434], ["\u2581f\u00fcr", -10.29396915435791], ["\u2581\u104a", -10.130664825439453], ["\u2581obu", -10.068628311157227], ["gere", -10.349945068359375], ["\u2581\u0939", -10.376483917236328], ["ais", -9.94870662689209], ["nyu", -10.243303298950195], ["\u06cc\u0645", -10.205791473388672], ["\u0a48", -10.1510591506958], ["\u2581eta", -10.512834548950195], ["ario", -10.450490951538086], ["\u2581auf", -10.300220489501953], ["\u2581saith", -9.533145904541016], ["\u0565\u0581", -10.059283256530762], ["\u2581afraid", -9.520878791809082], ["\u0631\u0627\u0645", -10.288163185119629], ["\u1255", -9.99915885925293], ["\u2581Dia", -10.239072799682617], ["\u0ba9\u0bcd", -10.04911994934082], ["\u2581\u0645\u0648", -10.238791465759277], ["eren", -10.125883102416992], ["\u044f\u0442", -10.075481414794922], ["tala", -10.168190002441406], ["\u0c2d", -10.266422271728516], ["\u2581transport", -10.057003021240234], ["\u2581sorry", -9.52888011932373], ["\u2581caused", -9.47769546508789], ["\u0aa6", -10.563746452331543], ["\u2581activity", -9.532939910888672], ["\u00e2n", -10.063461303710938], ["\u2581lahi", -10.048829078674316], ["\u2581\u0d38", -10.263843536376953], ["\u0908", -10.363744735717773], ["\u0a1c", -10.385430335998535], ["\u1e6d", -10.727378845214844], ["\u2581Keep", -9.533245086669922], ["\u2581Watchtower", -9.501230239868164], ["\u2581bed", -10.11227798461914], ["\u0bc8", -10.157206535339355], ["\u043c\u0456", -10.190553665161133], ["\u2581ground", -9.503984451293945], ["\u0440\u0434", -10.03958511352539], ["\u0e17", -10.058199882507324], ["ayo", -9.95724105834961], ["\u2581oti", -10.233197212219238], ["\u04b5\u0430", -10.649494171142578], ["\u0645\u06c7", -9.932326316833496], ["\u2581\u06a9\u06cc\u0627", -9.932177543640137], ["\u751f", -10.022784233093262], ["\u2581bakal", -10.10417366027832], ["\u2581\u043b\u0438", -10.459056854248047], ["\u25812004", -10.302021980285645], ["\u2581contra", -10.247535705566406], ["\u0a9a", -10.52996826171875], ["\u2581Op", -10.204143524169922], ["\u0442\u04d9\u0440", -10.321840286254883], ["\u2581tupu", -10.023746490478516], ["\u0bbf", -10.103133201599121], ["\u09c2", -10.798055648803711], ["\u2581memory", -9.522058486938477], ["\u2581sia", -10.32252311706543], ["\u2581\u057d", -10.242432594299316], ["tica", -10.52833366394043], ["\u5b50", -10.10246467590332], ["\u2581parts", -9.59221363067627], ["ici", -10.03957748413086], ["\u2581rela", -10.128623962402344], ["\u2581\u067e\u06ce", -9.850576400756836], ["\u258170", -10.210516929626465], ["\u043f\u0435\u0440", -10.309203147888184], ["\u2581spoken", -9.533616065979004], ["\u2581reheb", -9.984633445739746], ["\u4ed6", -10.117671966552734], ["\u2581\u0646\u06c1", -9.925901412963867], ["\u2581val", -10.231724739074707], ["hom", -10.155208587646484], ["\u00ed\u00ed", -10.30118465423584], ["mun", -10.189413070678711], ["nau", -10.0485200881958], ["\u1010\u103a", -10.272021293640137], ["sit", -10.020298957824707], ["\u2581nr", -10.147080421447754], ["\u258120:", -10.346741676330566], ["\u0446\u044b", -10.245187759399414], ["bb", -9.979593276977539], ["\u2581Ji", -10.398999214172363], ["ques", -10.374486923217773], ["\u0a26\u0a3e", -10.457011222839355], ["\u122e", -10.266775131225586], ["xu", -10.308353424072266], ["\u2581component", -9.517419815063477], ["phu", -10.12089729309082], ["m\u00e9", -10.256622314453125], ["\u2581groups", -9.554377555847168], ["\u2581Genesis", -9.69231128692627], ["enda", -10.101775169372559], ["\u2581Ac", -10.299846649169922], ["cri", -10.191119194030762], ["\u2581t\u00f4i", -9.933349609375], ["\u2581opp", -10.308341026306152], ["\u0924\u093f", -10.236433029174805], ["\u10d4\u10e0", -10.161270141601562], ["\u2581\u0ca4", -10.140398025512695], ["\u092e\u094d", -10.502951622009277], ["\u2581aid", -9.530820846557617], ["\u2581\u0a05", -10.261486053466797], ["\u2581\u04af\u0437", -10.086607933044434], ["\u2581girl", -9.50828742980957], ["\u2581\u0d2e", -10.172715187072754], ["\u0d24\u0d4d", -10.04712200164795], ["If", -9.514505386352539], ["name", -10.307866096496582], ["\u10d4\u10d1\u10d8", -10.111960411071777], ["\u0eb7", -10.268773078918457], ["laka", -10.004508018493652], ["\u2581Des", -10.45328140258789], ["\u09a7", -10.536108016967773], ["\u044b\u043d\u0430", -10.091382026672363], ["\u2581m\u00f3", -10.123522758483887], ["\u2581\u0626\u06ce\u0645\u0647", -9.942483901977539], ["\u2581Nor", -10.678130149841309], ["\u2581prophecy", -9.518269538879395], ["\u099a", -10.5661039352417], ["\u2581iba", -10.043769836425781], ["\u2581served", -9.510355949401855], ["\u308a", -9.992512702941895], ["\u2581km", -9.93644905090332], ["\u2581lei", -10.068347930908203], ["\u2581ili", -10.430809020996094], ["\u2581seem", -9.518830299377441], ["\u2581\u0646\u0649\u06ad", -9.997751235961914], ["\u2581(1", -10.34260368347168], ["\u05e0", -10.306955337524414], ["\u0e08", -9.98192310333252], ["\u0414", -10.095758438110352], ["tzen", -10.361021995544434], ["\u2581ee", -10.71932601928711], ["\u2581Eebe", -10.131056785583496], ["\u0644\u06cc", -10.119281768798828], ["\u043d\u0433", -10.00046157836914], ["\u049b\u04d9\u0430", -10.41030216217041], ["\u884c", -10.117544174194336], ["\u2581\u091c", -10.146540641784668], ["\u05e0\u05d9", -10.330615997314453], ["\u2581\u09a6", -10.550065994262695], ["\u2581judge", -9.502758026123047], ["mission", -10.385900497436523], ["\u0430\u043b\u0430", -10.082368850708008], ["\u05dc\u05e2", -10.7698335647583], ["\u00e8l", -10.346144676208496], ["\u2581More", -9.552504539489746], ["\u2581\u1275", -10.620790481567383], ["\u2581\u067e\u0633", -10.063796043395996], ["\u2581\u043f\u0440\u0435\u0434", -10.35193157196045], ["\u2581\u0633\u0627", -10.209101676940918], ["ong", -10.136540412902832], ["\u0c46", -10.05091667175293], ["\u2581\u0917", -10.374515533447266], ["\u2581laws", -9.556623458862305], ["60", -10.467095375061035], ["\u2581\u014bu", -10.354119300842285], ["\u04ad", -10.313496589660645], ["\u0c4d", -10.281161308288574], ["\u0648\u0639", -10.64034652709961], ["\u2581\u1230", -10.208579063415527], ["\u2581connection", -9.553832054138184], ["\u2581tas", -10.255293846130371], ["\u2581\u10e0\u10dd\u10db", -10.173001289367676], ["gas", -10.19092082977295], ["cie", -10.335091590881348], ["\u1015", -10.28764820098877], ["\u2581Sta", -10.351635932922363], ["\u06a9\u0627\u0631", -10.197813034057617], ["CE", -10.385018348693848], ["\u2581Instead", -9.535687446594238], ["It", -9.553633689880371], ["\u2581forgive", -9.495402336120605], ["\u2581Biz", -10.177257537841797], ["\u25812009", -10.287368774414062], ["EU", -9.920421600341797], ["\u0aae\u0abe\u0a82", -10.340192794799805], ["sent", -10.539922714233398], ["\u2581Uni", -10.329617500305176], ["rama", -10.403909683227539], ["\u2581associated", -9.592172622680664], ["\u2581maa", -10.133550643920898], ["eti", -10.1840181350708], ["\u2581:", -9.832275390625], ["\u0575", -10.27889633178711], ["tto", -10.070140838623047], ["\u12cd\u1295", -10.25979995727539], ["\u2581About", -9.56120777130127], ["\u2581idea", -9.532180786132812], ["\u2581\u00c7", -10.176161766052246], ["serv", -10.449629783630371], ["\u2581ngoku", -9.98985767364502], ["\u2581bango", -10.075674057006836], ["\u12db", -10.228536605834961], ["\u2581term", -9.497230529785156], ["\u2581alimwi", -9.988138198852539], ["ies", -10.143194198608398], ["\u258136", -10.51050090789795], ["LE", -10.498831748962402], ["kwi", -10.34315013885498], ["\u2581masa", -10.220492362976074], ["\u043c\u043e\u043d", -10.100133895874023], ["\u121a", -10.27311897277832], ["\u2581Tra", -10.377232551574707], ["\u2581daily", -9.568680763244629], ["\u09a4\u09bf", -10.374872207641602], ["chu", -10.49499225616455], ["y\u00e9", -10.160951614379883], ["\u2581issues", -9.570460319519043], ["\u0cb6", -10.143638610839844], ["kati", -10.290605545043945], ["l\u00eb", -10.248115539550781], ["\u0441\u043a\u0438",
[...]
